<unk>	0
<s>	0
</s>	0
▁the	-3.25616
,	-3.28342
.	-3.3459
s	-3.46318
▁of	-3.79747
▁to	-3.89887
▁and	-3.95003
▁a	-4.07502
▁in	-4.2131
'	-4.76072
▁is	-4.79691
▁	-4.88003
▁that	-4.91832
▁for	-5.05169
-	-5.07589
ing	-5.23008
▁on	-5.2517
▁with	-5.29357
▁The	-5.31546
ed	-5.37776
▁you	-5.39753
▁it	-5.41592
t	-5.46756
▁be	-5.5288
▁are	-5.54571
▁I	-5.60423
▁as	-5.66507
▁was	-5.67277
d	-5.6886
▁have	-5.7207
▁by	-5.7521
▁from	-5.82167
▁at	-5.86692
▁an	-5.90614
▁or	-5.93011
▁not	-5.96381
▁has	-5.99764
▁will	-6.03174
▁"	-6.05651
▁can	-6.05884
▁he	-6.06573
ly	-6.06873
▁this	-6.08062
▁said	-6.15733
▁they	-6.19855
▁your	-6.21625
er	-6.21907
▁their	-6.22525
▁his	-6.25065
▁up	-6.303
▁which	-6.31163
▁we	-6.32045
y	-6.32305
▁more	-6.32659
:	-6.32932
▁but	-6.33012
▁out	-6.3342
▁A	-6.37782
▁one	-6.38058
e	-6.41611
re	-6.42974
▁all	-6.47016
▁were	-6.48137
▁-	-6.51166
▁about	-6.52012
n	-6.54045
▁In	-6.54733
▁people	-6.55037
▁who	-6.55947
al	-6.6042
a	-6.60942
▁so	-6.62371
)	-6.62574
▁time	-6.64171
m	-6.64541
▁had	-6.6497
▁(	-6.65298
’	-6.67202
▁than	-6.67479
▁its	-6.69401
▁also	-6.70446
▁been	-6.70892
▁do	-6.7215
▁her	-6.72978
▁would	-6.73475
▁when	-6.75395
▁It	-6.76081
o	-6.79049
es	-6.79683
▁new	-6.80224
▁other	-6.80902
▁“	-6.81823
▁over	-6.82376
▁into	-6.83437
r	-6.84235
?	-6.8436
▁China	-6.86069
▁some	-6.86261
▁them	-6.87698
▁like	-6.88558
in	-6.88593
"	-6.88899
▁He	-6.9047
▁what	-6.90901
▁my	-6.91037
S	-6.93124
▁if	-6.93185
▁But	-6.9413
▁year	-6.95242
▁she	-6.97747
▁says	-6.98497
▁there	-6.98533
g	-6.99723
▁make	-7.01268
;	-7.01533
▁two	-7.02067
▁no	-7.03746
▁our	-7.03856
▁after	-7.0756
▁first	-7.08
▁me	-7.08381
▁work	-7.11604
▁just	-7.12324
▁get	-7.12483
or	-7.14594
▁only	-7.14775
▁could	-7.16232
ll	-7.17892
▁re	-7.18153
▁de	-7.19028
i	-7.19489
▁most	-7.19776
,"	-7.20442
I	-7.21047
▁This	-7.22122
(	-7.22204
▁may	-7.22359
▁years	-7.22684
ve	-7.24049
th	-7.2436
▁world	-7.26883
▁how	-7.27538
▁way	-7.28449
▁S	-7.29384
▁many	-7.3037
▁should	-7.31479
▁between	-7.31531
▁because	-7.3272
an	-7.32893
ic	-7.33816
."	-7.34035
▁Chinese	-7.3466
▁back	-7.3494
▁percent	-7.35156
▁take	-7.35163
p	-7.36264
▁And	-7.3635
▁such	-7.36477
▁off	-7.36811
it	-7.37219
▁down	-7.37406
▁government	-7.37432
▁go	-7.37696
▁company	-7.37765
▁million	-7.38615
▁him	-7.39893
▁For	-7.40422
▁good	-7.41217
▁now	-7.41258
▁life	-7.41563
▁If	-7.41668
▁well	-7.41772
▁these	-7.43009
▁day	-7.43191
▁We	-7.43275
▁even	-7.44164
the	-7.45601
▁system	-7.46561
▁say	-7.47845
▁last	-7.48865
▁country	-7.4902
c	-7.49076
▁U	-7.49304
▁those	-7.49815
▁any	-7.49952
ers	-7.50531
u	-7.50682
▁very	-7.50889
ation	-7.51096
and	-7.51576
▁Mr	-7.51607
l	-7.51978
▁don	-7.53734
▁C	-7.54596
▁want	-7.54629
▁where	-7.5471
▁use	-7.54846
▁through	-7.55087
▁US	-7.55287
le	-7.55645
▁You	-7.5591
▁being	-7.56128
▁need	-7.56132
▁made	-7.56197
▁much	-7.56565
▁B	-7.57243
on	-7.57847
▁know	-7.5843
▁then	-7.58582
▁see	-7.60615
b	-7.60648
A	-7.61126
▁high	-7.6123
to	-7.61402
▁long	-7.61575
ity	-7.6168
▁un	-7.61695
P	-7.62013
▁before	-7.62065
▁us	-7.62381
▁around	-7.63032
▁They	-7.63195
▁think	-7.6507
able	-7.66654
▁'	-7.67455
▁three	-7.67577
▁P	-7.68696
en	-7.6918
ion	-7.69214
▁part	-7.6981
▁used	-7.7023
▁end	-7.70709
▁under	-7.70845
ment	-7.71919
▁help	-7.72625
el	-7.73015
▁So	-7.73023
▁water	-7.74789
2	-7.75156
▁same	-7.76628
h	-7.76899
▁still	-7.77444
▁group	-7.77671
▁To	-7.78187
▁while	-7.78279
▁own	-7.78513
▁E	-7.78881
▁man	-7.79052
il	-7.79342
▁market	-7.79765
▁F	-7.80183
B	-7.80213
k	-7.80285
▁set	-7.80474
▁different	-7.81199
▁come	-7.81204
The	-7.8125
C	-7.8252
▁each	-7.82548
▁countries	-7.86017
▁development	-7.86214
ive	-7.8661
▁might	-7.8665
!	-7.87051
▁She	-7.88111
–	-7.88189
▁business	-7.88645
us	-7.89199
▁put	-7.89236
▁As	-7.89273
▁important	-7.89275
▁per	-7.89415
▁going	-7.89522
ar	-7.89837
li	-7.89946
▁right	-7.89979
D	-7.90192
O	-7.90605
▁something	-7.90697
▁home	-7.91131
▁found	-7.91676
▁find	-7.9207
▁paper	-7.92198
▁against	-7.92343
ur	-7.92606
▁study	-7.92674
▁state	-7.92706
L	-7.92777
ne	-7.92886
▁When	-7.92888
▁1	-7.92913
M	-7.92942
lo	-7.93028
▁T	-7.93394
▁too	-7.93681
ter	-7.9435
▁both	-7.9455
▁every	-7.94768
▁must	-7.95181
at	-7.9565
ness	-7.95726
▁things	-7.96304
F	-7.96478
x	-7.97175
),	-7.97214
▁during	-7.97394
/	-7.97411
de	-7.97524
▁next	-7.97633
man	-7.97996
▁2	-7.98271
▁”	-7.98676
▁look	-7.98886
ri	-7.99161
▁power	-7.99217
▁another	-7.99612
▁economic	-7.99639
ch	-7.9975
▁best	-8.00308
▁There	-8.00589
▁keep	-8.00707
la	-8.00989
▁billion	-8.01235
ate	-8.01729
▁United	-8.01775
et	-8.02296
▁better	-8.02597
ous	-8.02671
ry	-8.0288
▁away	-8.03118
▁order	-8.03156
”	-8.03606
G	-8.03789
▁—	-8.03882
▁number	-8.04165
▁place	-8.04375
▁control	-8.04463
▁–	-8.04475
▁job	-8.04645
▁little	-8.04861
▁love	-8.05228
▁few	-8.05382
▁process	-8.0594
st	-8.05951
T	-8.06265
▁M	-8.06425
▁G	-8.06454
▁oil	-8.06504
▁did	-8.06821
▁give	-8.06863
▁H	-8.07099
▁companies	-8.07879
▁according	-8.08475
▁person	-8.0848
▁American	-8.09252
▁women	-8.09363
▁show	-8.09737
▁money	-8.10017
▁great	-8.10081
▁week	-8.10121
▁students	-8.10468
▁19	-8.10478
N	-8.10492
▁less	-8.10564
▁con	-8.1081
ce	-8.10944
▁10	-8.11752
est	-8.12044
H	-8.12329
me	-8.12455
▁big	-8.12652
▁public	-8.1274
▁small	-8.12975
▁since	-8.12992
▁without	-8.1305
f	-8.13145
ist	-8.13175
▁often	-8.13499
▁D	-8.13784
▁become	-8.14109
▁second	-8.1473
▁really	-8.14846
▁children	-8.1503
▁never	-8.15432
ma	-8.1557
▁p	-8.16147
▁That	-8.1636
ra	-8.16591
.”	-8.16649
▁President	-8.16911
ro	-8.17026
▁change	-8.17204
un	-8.1721
id	-8.17245
▁3	-8.17287
ary	-8.17518
ism	-8.17852
▁always	-8.18005
is	-8.18011
▁co	-8.18159
age	-8.18631
▁method	-8.18917
ting	-8.19276
▁told	-8.19884
▁real	-8.19938
co	-8.20063
▁head	-8.20553
▁hand	-8.20722
up	-8.21154
▁point	-8.21182
▁K	-8.21338
▁food	-8.21421
▁men	-8.21535
▁e	-8.21772
ine	-8.21856
▁New	-8.21891
▁called	-8.22303
▁information	-8.22386
).	-8.22668
ty	-8.22682
▁At	-8.22738
▁Re	-8.22888
▁light	-8.23022
▁area	-8.23037
▁car	-8.23158
▁air	-8.23584
▁project	-8.23637
▁dis	-8.23694
▁far	-8.2382
1	-8.23938
▁does	-8.23962
▁5	-8.24027
▁using	-8.24279
3	-8.24427
▁research	-8.24874
ci	-8.24945
ent	-8.25192
be	-8.25489
▁economy	-8.25523
im	-8.25713
te	-8.25832
▁including	-8.25847
▁Angola	-8.25916
▁feel	-8.25988
▁support	-8.26031
▁means	-8.26257
▁here	-8.26652
ta	-8.26769
▁growth	-8.26996
ance	-8.27466
▁States	-8.27757
▁school	-8.27818
rs	-8.27979
▁lot	-8.28171
▁financial	-8.28253
▁human	-8.28637
se	-8.28899
ling	-8.29133
▁hard	-8.29207
▁days	-8.29524
▁city	-8.29594
▁University	-8.29633
as	-8.29852
▁20	-8.30047
▁g	-8.30314
▁social	-8.30363
▁old	-8.30525
▁data	-8.30732
tic	-8.30746
am	-8.30792
▁start	-8.31343
▁body	-8.31614
▁international	-8.31714
▁kind	-8.32136
▁four	-8.32556
▁Do	-8.32803
ge	-8.32888
,”	-8.32926
▁let	-8.33
ir	-8.33113
▁open	-8.33436
w	-8.33442
na	-8.33461
▁past	-8.33555
▁large	-8.33667
▁rate	-8.3395
▁example	-8.34004
▁results	-8.34107
▁president	-8.34706
▁am	-8.35038
▁family	-8.35545
▁O	-8.35559
▁L	-8.3587
▁Obama	-8.35956
▁design	-8.36263
▁South	-8.36533
▁making	-8.36715
▁face	-8.36866
▁model	-8.37401
▁five	-8.37497
▁Mozambique	-8.3763
▁main	-8.37649
ant	-8.37874
▁young	-8.38024
▁production	-8.38572
▁already	-8.38624
▁effect	-8.38628
ies	-8.38895
▁On	-8.39119
mo	-8.39366
▁An	-8.39388
▁months	-8.39579
▁N	-8.40063
▁local	-8.40131
▁One	-8.40462
4	-8.40503
▁together	-8.40587
▁increase	-8.40798
▁problem	-8.40883
▁line	-8.4122
▁period	-8.41452
sh	-8.41698
ul	-8.41939
vi	-8.41973
less	-8.42138
ke	-8.4219
5	-8.42329
▁foreign	-8.43056
ver	-8.43178
▁short	-8.43622
▁course	-8.43974
▁someone	-8.44199
▁investment	-8.44434
▁top	-8.44628
▁Li	-8.44634
▁level	-8.4481
z	-8.44843
▁future	-8.45111
▁report	-8.4536
V	-8.45456
▁pay	-8.45459
▁book	-8.45604
▁Brazil	-8.45637
▁working	-8.45752
um	-8.4579
▁R	-8.45863
▁technology	-8.4593
▁7	-8.46002
▁among	-8.46011
ted	-8.46047
ating	-8.46235
▁result	-8.46251
▁fact	-8.46252
E	-8.46271
▁enough	-8.46323
ol	-8.46584
▁Beijing	-8.46625
▁pro	-8.46768
▁others	-8.46785
▁De	-8.469
▁run	-8.46932
▁again	-8.46949
▁law	-8.47714
▁least	-8.47731
▁based	-8.47802
ial	-8.48128
di	-8.48221
▁half	-8.48288
ated	-8.48314
▁got	-8.48642
▁heart	-8.48856
“	-8.48922
▁several	-8.49096
▁No	-8.49329
▁bank	-8.4936
▁health	-8.49482
▁came	-8.49551
▁trade	-8.49638
ang	-8.49791
▁capital	-8.49982
We	-8.50063
▁After	-8.50168
ad	-8.50465
▁free	-8.50642
▁Some	-8.50822
▁According	-8.51086
▁4	-8.51099
▁Ma	-8.51193
▁value	-8.51433
▁thing	-8.5154
▁thought	-8.51607
▁problems	-8.5162
▁able	-8.51686
▁month	-8.52061
ton	-8.52118
▁low	-8.52387
▁case	-8.52522
▁What	-8.52551
▁mind	-8.52552
year	-8.52823
▁deal	-8.53082
▁left	-8.5338
▁energy	-8.53475
▁cost	-8.53475
ian	-8.53671
▁war	-8.53686
▁play	-8.53778
▁due	-8.53839
▁until	-8.5385
▁total	-8.54122
U	-8.54183
▁live	-8.54275
▁team	-8.54422
▁national	-8.54429
▁America	-8.5447
▁form	-8.54513
▁political	-8.54559
▁major	-8.54807
▁night	-8.54834
R	-8.55234
po	-8.55247
▁why	-8.55348
per	-8.55511
▁Co	-8.55664
▁once	-8.55667
con	-8.55687
▁early	-8.55762
▁took	-8.5623
▁blood	-8.5625
ti	-8.56396
▁likely	-8.56523
▁With	-8.5659
▁whether	-8.56628
ization	-8.56882
ful	-8.57074
▁friends	-8.57198
▁plan	-8.57231
ish	-8.5747
▁W	-8.57498
0	-8.57729
▁land	-8.5799
▁having	-8.58025
op	-8.58252
▁age	-8.58462
ia	-8.58501
▁ever	-8.58551
▁pre	-8.5861
▁try	-8.58761
▁products	-8.58771
▁st	-8.58806
old	-8.58906
▁Mo	-8.59007
▁ago	-8.59101
ized	-8.59436
▁possible	-8.59536
▁full	-8.59582
pe	-8.59771
ck	-8.60075
▁experience	-8.60317
▁industry	-8.60338
▁recent	-8.60604
▁office	-8.60784
▁expected	-8.60885
▁higher	-8.61615
▁yourself	-8.61659
▁6	-8.61896
he	-8.62004
▁present	-8.62102
ni	-8.62325
▁list	-8.62489
go	-8.62899
▁call	-8.62997
son	-8.63151
▁quality	-8.6345
▁name	-8.63622
▁global	-8.63755
ac	-8.63765
▁key	-8.63851
▁later	-8.63937
▁management	-8.6394
▁education	-8.64046
▁current	-8.64109
va	-8.64199
▁house	-8.64209
▁--	-8.64234
ize	-8.64306
ite	-8.64757
▁price	-8.64774
▁service	-8.64876
▁given	-8.65101
▁believe	-8.65141
▁c	-8.65203
It	-8.6531
do	-8.65383
▁move	-8.6552
▁Africa	-8.6571
▁English	-8.6573
▁8	-8.65735
▁bring	-8.65747
▁Ca	-8.65805
▁non	-8.65845
▁t	-8.65854
▁turn	-8.65863
▁mo	-8.65945
▁di	-8.66012
▁side	-8.66026
▁anti	-8.66195
▁special	-8.66197
▁doing	-8.66209
▁though	-8.6621
▁cut	-8.66378
▁post	-8.66441
▁meeting	-8.66444
ure	-8.66652
▁analysis	-8.66807
ie	-8.66958
▁30	-8.67032
▁question	-8.67218
▁room	-8.67268
▁security	-8.67331
▁test	-8.6752
▁whole	-8.67575
▁idea	-8.67598
▁construction	-8.67726
▁times	-8.67971
▁along	-8.67984
▁Dr	-8.68168
▁Ba	-8.68365
W	-8.68806
▁today	-8.68934
▁clear	-8.6907
▁almost	-8.69075
▁North	-8.69123
▁reason	-8.69979
▁program	-8.69986
▁six	-8.70068
▁provide	-8.70158
▁black	-8.70297
▁won	-8.70512
▁close	-8.70561
om	-8.70618
▁rather	-8.70657
▁Ho	-8.70698
▁done	-8.70897
▁multi	-8.70948
ally	-8.71213
7	-8.71219
▁hours	-8.71357
▁culture	-8.71516
▁taking	-8.71605
▁J	-8.71847
--	-8.71851
▁Macau	-8.71916
mi	-8.72117
▁view	-8.72139
ner	-8.72293
▁makes	-8.72401
▁known	-8.72633
ho	-8.72642
▁officials	-8.72731
▁self	-8.72768
▁However	-8.72772
K	-8.7292
▁World	-8.73006
ding	-8.73024
▁director	-8.73074
ut	-8.73282
▁common	-8.73385
▁military	-8.73404
▁went	-8.73408
▁across	-8.73721
nt	-8.7374
▁risk	-8.73822
▁within	-8.74175
ak	-8.74479
▁relationship	-8.74576
▁building	-8.7473
▁areas	-8.74819
▁Be	-8.74856
6	-8.74993
▁15	-8.7503
▁upon	-8.75197
▁seen	-8.75242
▁bad	-8.75322
▁sure	-8.75375
ence	-8.75404
▁care	-8.75512
▁minister	-8.75829
▁Don	-8.75907
▁tell	-8.76128
▁space	-8.76323
▁Portuguese	-8.76384
8	-8.76433
▁structure	-8.7669
▁mean	-8.76748
▁getting	-8.77009
▁language	-8.77051
▁cases	-8.77076
ba	-8.77136
▁looking	-8.77306
▁cr	-8.77341
▁trying	-8.77372
▁His	-8.77739
▁European	-8.77773
▁yet	-8.7799
▁bar	-8.78053
▁situation	-8.78133
ig	-8.78152
▁pressure	-8.78278
time	-8.783
▁words	-8.78325
▁strong	-8.7849
one	-8.7851
▁sub	-8.7897
▁doesn	-8.79164
ard	-8.79327
▁gas	-8.79368
▁especially	-8.795
led	-8.79531
▁agreement	-8.79603
▁brain	-8.79662
▁added	-8.79692
bo	-8.79721
▁fall	-8.79813
▁ten	-8.80011
▁role	-8.80067
line	-8.8007
▁These	-8.80089
▁forward	-8.80311
▁themselves	-8.80382
▁news	-8.80443
▁mother	-8.8065
▁media	-8.80671
▁former	-8.81021
▁learn	-8.81065
ning	-8.81532
▁Portugal	-8.81638
▁region	-8.81972
▁create	-8.82017
▁build	-8.82139
▁didn	-8.8225
▁average	-8.82457
▁single	-8.82478
▁woman	-8.82481
ca	-8.82556
▁All	-8.82589
▁talk	-8.82637
▁moment	-8.82653
▁account	-8.82971
▁showed	-8.82973
▁lower	-8.83075
—	-8.83108
▁modern	-8.83132
▁lead	-8.83189
▁policy	-8.83245
▁taken	-8.83252
▁rise	-8.83255
no	-8.83327
▁saying	-8.83372
men	-8.83388
▁meet	-8.83448
▁buy	-8.83489
▁matter	-8.83684
▁third	-8.83831
▁sector	-8.83947
▁break	-8.84001
▁Bo	-8.84454
▁environment	-8.84561
tro	-8.84628
▁product	-8.84695
▁African	-8.84961
▁9	-8.84969
▁read	-8.85049
▁type	-8.85088
▁act	-8.85121
▁child	-8.85141
▁stop	-8.85212
▁history	-8.85472
▁shall	-8.85547
▁ask	-8.85548
ph	-8.85552
▁death	-8.85605
▁cannot	-8.85886
lu	-8.86171
hi	-8.86215
▁general	-8.86221
▁comes	-8.86287
ex	-8.86296
▁12	-8.86298
▁began	-8.864
▁asked	-8.86491
v	-8.86732
▁improve	-8.8675
▁traditional	-8.86778
▁word	-8.86804
▁party	-8.86886
▁interest	-8.86903
00	-8.86948
▁k	-8.86948
▁v	-8.87117
ong	-8.87251
▁art	-8.87273
we	-8.87444
▁near	-8.87571
▁visit	-8.87611
▁further	-8.87654
▁film	-8.87735
▁nothing	-8.87798
land	-8.88006
ator	-8.88008
▁performance	-8.88125
▁online	-8.88131
▁La	-8.88215
▁article	-8.88253
▁share	-8.88563
▁hope	-8.88659
▁Now	-8.88898
ide	-8.88908
▁18	-8.88984
em	-8.89197
▁travel	-8.89336
▁increased	-8.89565
▁success	-8.8958
mb	-8.89605
side	-8.89895
▁leave	-8.90025
▁prices	-8.90362
▁actually	-8.9049
▁By	-8.90572
▁position	-8.90813
▁rest	-8.90836
▁plans	-8.90968
min	-8.9102
▁similar	-8.91258
vo	-8.9129
way	-8.9133
da	-8.91334
▁parents	-8.91375
▁living	-8.9146
▁ground	-8.91511
▁Bank	-8.91812
▁Al	-8.9184
▁patients	-8.91864
▁material	-8.91885
▁crisis	-8.91929
▁demand	-8.92139
▁From	-8.92177
sion	-8.92225
▁private	-8.92264
▁My	-8.92291
▁field	-8.92301
▁behind	-8.92457
▁understand	-8.92512
▁college	-8.9265
ities	-8.92698
▁theory	-8.93119
▁National	-8.93137
▁practice	-8.93184
▁answer	-8.93234
cu	-8.93307
▁table	-8.93491
]	-8.93524
▁personal	-8.93532
▁ability	-8.93547
▁game	-8.93579
▁difficult	-8.93664
out	-8.93742
$	-8.93889
▁treatment	-8.93995
ha	-8.94135
▁en	-8.94306
▁shows	-8.94361
▁certain	-8.9447
▁hold	-8.94475
ot	-8.94532
0,000	-8.94566
▁o	-8.94572
ow	-8.94601
▁Japan	-8.94601
▁cause	-8.94763
▁attention	-8.94793
▁Sao	-8.9489
▁computer	-8.94981
▁conditions	-8.95261
▁cent	-8.95338
▁workers	-8.95397
▁usually	-8.96044
▁following	-8.96109
▁terms	-8.96156
▁outside	-8.9624
▁everything	-8.96244
▁late	-8.96288
▁official	-8.9641
gu	-8.96552
▁amount	-8.96575
▁step	-8.96579
▁network	-8.96581
▁needs	-8.96629
▁stage	-8.96653
▁white	-8.96742
▁fire	-8.96808
▁action	-8.96827
▁lo	-8.96992
▁reported	-8.97032
▁Ro	-8.97042
▁Minister	-8.9705
▁however	-8.97084
▁Bush	-8.97216
▁Angolan	-8.97265
▁red	-8.97296
▁continue	-8.97298
ring	-8.97332
▁return	-8.97437
▁natural	-8.97579
▁police	-8.97656
fi	-8.97778
▁York	-8.9781
▁sales	-8.97826
▁Many	-8.9783
Y	-8.97863
▁started	-8.97963
▁credit	-8.97965
of	-8.97983
▁anything	-8.98015
ber	-8.98042
▁statement	-8.98051
ors	-8.98125
▁soon	-8.98158
▁bit	-8.98159
com	-8.98352
▁sense	-8.98378
▁story	-8.98386
our	-8.98523
▁Brazilian	-8.98588
▁hit	-8.98594
▁application	-8.98595
▁class	-8.98634
▁potential	-8.98807
▁bo	-8.99182
▁access	-8.99398
▁front	-8.99411
▁function	-8.99486
▁largest	-8.9952
▁projects	-8.99576
▁contract	-8.99824
▁members	-9.00343
der	-9.00588
for	-9.0067
▁easy	-9.00753
▁St	-9.00867
▁offer	-9.0088
ga	-9.00887
▁issue	-9.00905
ru	-9.00982
▁held	-9.01053
▁f	-9.01084
os	-9.01395
▁State	-9.01426
▁province	-9.01446
av	-9.01549
▁firm	-9.01758
ise	-9.018
▁avoid	-9.02073
▁include	-9.02074
▁ma	-9.02149
▁International	-9.02179
▁Le	-9.02317
▁leaders	-9.02402
▁above	-9.02607
ten	-9.02775
▁attack	-9.02889
ium	-9.02891
▁star	-9.02915
▁Ra	-9.02932
▁Me	-9.02949
▁Maputo	-9.03087
lin	-9.03187
▁Ka	-9.03235
ative	-9.03265
▁Con	-9.03319
▁stress	-9.03415
▁ex	-9.03449
▁longer	-9.03751
▁sea	-9.03782
ship	-9.03789
▁poor	-9.03797
▁road	-9.04084
▁itself	-9.04119
▁decision	-9.04147
▁Europe	-9.04247
▁content	-9.04328
▁services	-9.04495
▁Then	-9.04637
▁simple	-9.0471
bu	-9.04809
tra	-9.04817
▁society	-9.05038
tu	-9.05056
ster	-9.05107
▁true	-9.05154
▁Cape	-9.05298
▁popular	-9.0532
▁positive	-9.05367
▁biggest	-9.05427
▁la	-9.05567
bi	-9.05709
▁Z	-9.0579
▁Korea	-9.0592
▁stand	-9.06054
dy	-9.06165
▁author	-9.0621
▁series	-9.0626
mer	-9.063
▁resources	-9.06376
mon	-9.06509
▁develop	-9.06568
▁eyes	-9.06577
▁May	-9.06781
▁plant	-9.06882
▁While	-9.06898
▁bl	-9.07139
▁groups	-9.07195
fe	-9.07253
ical	-9.07526
▁force	-9.07629
▁became	-9.077
▁India	-9.07786
ny	-9.07957
▁coming	-9.07961
▁stay	-9.08018
▁record	-9.08048
▁condition	-9.08065
▁V	-9.08316
fa	-9.08406
▁eye	-9.08544
▁size	-9.08623
▁court	-9.08775
▁saw	-9.0881
▁friend	-9.08904
▁weight	-9.0899
▁Ha	-9.09047
▁search	-9.09061
▁else	-9.09236
▁bed	-9.09317
▁operation	-9.09377
by	-9.0947
▁temperature	-9.09548
ft	-9.09559
▁lost	-9.09566
▁agency	-9.0963
▁ca	-9.09662
▁11	-9.09724
▁basic	-9.09728
▁influence	-9.09732
▁li	-9.09768
▁recently	-9.09778
▁w	-9.09791
▁base	-9.09828
▁spend	-9.10139
pa	-9.1014
▁jobs	-9.10151
▁survey	-9.10261
▁seven	-9.10335
▁population	-9.10379
▁How	-9.10551
▁focus	-9.10701
▁app	-9.10728
▁sleep	-9.10828
ap	-9.11008
▁debt	-9.11016
▁deep	-9.11026
▁Luanda	-9.11129
▁British	-9.11246
▁wanted	-9.11297
▁door	-9.11361
▁100	-9.11469
▁John	-9.1152
pi	-9.11527
▁board	-9.11574
▁Da	-9.11661
▁career	-9.11696
▁campaign	-9.11713
▁nuclear	-9.11713
▁Not	-9.11778
▁seems	-9.11909
▁Mar	-9.11913
▁Russia	-9.12074
▁lives	-9.12137
▁probably	-9.12241
▁Tuesday	-9.12535
▁either	-9.12538
▁Monday	-9.12539
▁phone	-9.12544
end	-9.12574
▁morning	-9.12771
▁speed	-9.12815
▁lack	-9.12856
▁worth	-9.12875
que	-9.12903
▁changes	-9.13058
▁ways	-9.13225
▁sl	-9.13449
▁father	-9.13491
▁growing	-9.13571
▁direct	-9.13661
▁tax	-9.1368
▁minutes	-9.13814
ious	-9.13953
▁produce	-9.13975
▁surface	-9.14021
▁expression	-9.14072
▁whose	-9.1412
▁disease	-9.14147
▁interview	-9.14437
▁prevent	-9.14463
▁rich	-9.14489
▁God	-9.145
▁center	-9.14517
▁Even	-9.14619
▁Hong	-9.14677
▁date	-9.14897
▁final	-9.14998
▁instead	-9.15053
▁allow	-9.15115
▁Po	-9.15175
▁quickly	-9.15243
lic	-9.15272
▁Asia	-9.15279
ier	-9.15424
▁skin	-9.15462
▁50	-9.15578
▁expect	-9.15607
▁couple	-9.15766
▁capacity	-9.15833
▁developed	-9.15912
▁everyone	-9.16007
▁round	-9.16029
▁stock	-9.16058
▁June	-9.16077
▁Washington	-9.16138
▁points	-9.16177
J	-9.16216
▁weeks	-9.16439
▁micro	-9.16591
ble	-9.16628
▁gave	-9.16629
▁Sa	-9.16681
▁reduce	-9.1687
▁Jo	-9.16956
▁activities	-9.17059
ping	-9.17261
▁video	-9.17307
▁peace	-9.17388
▁music	-9.17392
▁forces	-9.17477
▁al	-9.175
izing	-9.17518
▁People	-9.17604
form	-9.17725
ward	-9.17805
cr	-9.17829
▁markets	-9.17907
▁check	-9.17914
▁significant	-9.17993
▁25	-9.18052
▁source	-9.18066
▁enjoy	-9.18089
▁sun	-9.18098
▁town	-9.18232
▁grow	-9.18339
▁led	-9.18388
▁exchange	-9.18428
ology	-9.18479
▁approach	-9.18497
▁London	-9.18551
▁Na	-9.18575
▁port	-9.18577
▁Vi	-9.18602
▁himself	-9.18812
▁ball	-9.18822
let	-9.18837
cl	-9.18993
▁newspaper	-9.19054
ee	-9.19227
▁simply	-9.19243
▁central	-9.1925
▁software	-9.19308
▁imp	-9.19337
▁cat	-9.19598
▁image	-9.19627
▁season	-9.19645
▁sound	-9.19678
▁sometimes	-9.19817
▁training	-9.19999
▁d	-9.20033
▁Car	-9.20123
▁quite	-9.20127
▁nearly	-9.20132
ron	-9.20156
▁hair	-9.20218
▁cells	-9.20226
▁win	-9.20351
▁Pro	-9.20413
▁Friday	-9.20448
▁various	-9.20448
▁huge	-9.20449
▁press	-9.2054
ud	-9.20544
▁levels	-9.20575
tion	-9.20648
▁16	-9.20901
▁needed	-9.20917
▁begin	-9.21095
▁flow	-9.2112
ick	-9.21266
▁supply	-9.21282
▁July	-9.21416
▁Go	-9.21516
▁TV	-9.21682
▁seem	-9.22032
▁issues	-9.22144
▁style	-9.22171
▁fear	-9.22485
iv	-9.225
▁sign	-9.22575
▁progress	-9.22662
▁address	-9.22713
▁currently	-9.22732
▁leader	-9.22799
▁reach	-9.22842
▁killed	-9.22868
▁ba	-9.22878
ice	-9.2311
▁middle	-9.23234
▁Br	-9.23264
▁Lu	-9.2335
▁Fa	-9.23364
▁difference	-9.23382
▁Or	-9.23387
▁compared	-9.23399
▁student	-9.23402
▁pick	-9.2347
▁40	-9.23608
▁decided	-9.23649
▁remember	-9.23701
▁Verde	-9.23704
ible	-9.23752
▁inside	-9.2388
▁available	-9.2389
ving	-9.23912
▁During	-9.23913
▁East	-9.24026
▁Kong	-9.24131
▁Most	-9.24147
▁response	-9.24221
▁cover	-9.24328
king	-9.24358
▁chance	-9.24456
▁Hu	-9.24479
▁inter	-9.24493
▁term	-9.24533
▁fast	-9.24598
▁comp	-9.24671
▁activity	-9.24694
▁write	-9.24724
off	-9.24788
▁met	-9.24791
▁Wednesday	-9.2482
ability	-9.24868
▁walk	-9.25008
qui	-9.25106
▁send	-9.25147
ah	-9.2522
▁Mozambican	-9.25261
▁running	-9.25389
▁impact	-9.25505
▁17	-9.25508
▁eat	-9.25522
▁attempt	-9.25557
▁vote	-9.25693
▁son	-9.25771
▁aid	-9.2583
mp	-9.25903
▁effects	-9.25986
red	-9.26002
▁caused	-9.26019
▁bi	-9.26046
▁learning	-9.26053
ear	-9.26053
▁path	-9.26078
▁color	-9.26107
▁meaning	-9.26237
▁announced	-9.2628
▁efforts	-9.26308
▁host	-9.26327
▁Thursday	-9.26433
▁particularly	-9.26505
▁happy	-9.2657
▁website	-9.26637
based	-9.26689
▁14	-9.268
tor	-9.26864
▁m	-9.26932
so	-9.26944
nce	-9.26981
▁vi	-9.2703
xi	-9.27204
ct	-9.2723
ped	-9.27259
▁Pa	-9.27398
▁ho	-9.27405
▁behavior	-9.27455
▁po	-9.27508
▁considered	-9.27563
▁Di	-9.27675
▁Americans	-9.27693
▁chief	-9.27731
▁basis	-9.27736
ey	-9.27748
▁13	-9.27828
ay	-9.27868
▁pass	-9.28065
▁sit	-9.28153
tal	-9.28159
ub	-9.28196
▁wrong	-9.28281
▁knowledge	-9.28312
▁block	-9.28327
ger	-9.28368
▁cold	-9.28399
▁figure	-9.28435
▁community	-9.28487
▁Internet	-9.28489
du	-9.28506
▁Te	-9.28599
▁thinking	-9.2866
▁subject	-9.28714
▁wait	-9.28787
▁developing	-9.28806
▁em	-9.28852
ction	-9.28856
▁factors	-9.28889
▁normal	-9.29116
▁cities	-9.29139
▁published	-9.29154
tri	-9.2918
▁ahead	-9.2932
ile	-9.29342
▁ra	-9.29405
▁mainly	-9.29552
▁built	-9.2974
▁consider	-9.29814
▁cell	-9.29844
▁l	-9.29855
pro	-9.29865
ign	-9.29975
▁match	-9.2998
ng	-9.30223
▁carried	-9.30303
▁wife	-9.30307
▁century	-9.30525
▁signed	-9.3066
▁carry	-9.30713
▁protect	-9.30854
50	-9.30884
gen	-9.31003
▁lose	-9.31087
les	-9.31205
▁questions	-9.31224
▁cooperation	-9.31226
▁nation	-9.31238
ging	-9.31275
▁science	-9.31332
▁studies	-9.31365
▁users	-9.31381
▁rule	-9.31437
▁pa	-9.31469
▁standard	-9.31478
▁speak	-9.31497
▁sort	-9.31528
au	-9.31649
▁hot	-9.31681
▁professional	-9.31754
▁tend	-9.31852
▁event	-9.31877
▁trend	-9.31882
▁alone	-9.32032
io	-9.32072
▁Iraq	-9.32267
▁eight	-9.32298
▁income	-9.32352
▁goes	-9.3242
▁female	-9.32438
▁track	-9.32467
▁fight	-9.32468
▁contact	-9.32511
▁quarter	-9.3257
▁acid	-9.32611
▁remain	-9.32764
▁exports	-9.32799
ren	-9.32947
▁serious	-9.33078
▁green	-9.33107
▁watch	-9.33108
▁mis	-9.33171
▁character	-9.33211
▁election	-9.3324
5%	-9.33298
▁site	-9.33434
▁safe	-9.33591
▁range	-9.33622
▁wants	-9.33669
▁nature	-9.33674
▁respect	-9.337
▁researchers	-9.33722
▁Ne	-9.33738
▁slow	-9.33755
▁brought	-9.33815
▁necessary	-9.33815
▁April	-9.33815
▁goal	-9.339
▁fresh	-9.33961
▁reform	-9.34009
oc	-9.34049
▁da	-9.3409
▁legal	-9.34101
▁Se	-9.34169
ue	-9.34202
▁Shanghai	-9.34327
▁First	-9.34327
▁latest	-9.34334
▁extra	-9.34381
▁fit	-9.34423
▁tried	-9.345
▁box	-9.34503
cing	-9.34548
▁sell	-9.34612
▁property	-9.34779
▁21	-9.34871
▁March	-9.34931
▁turned	-9.35024
▁skills	-9.35048
▁solution	-9.35055
▁tri	-9.3517
▁House	-9.35224
▁machine	-9.3525
si	-9.35299
▁partner	-9.35355
▁specific	-9.35358
▁sp	-9.35421
▁effective	-9.3549
▁mechanism	-9.35508
▁generation	-9.35567
▁felt	-9.35586
ill	-9.35602
▁hear	-9.35761
▁individual	-9.35818
▁warm	-9.35821
▁fun	-9.35828
▁sex	-9.35876
▁daily	-9.35884
▁hour	-9.35924
▁related	-9.35934
day	-9.36105
ab	-9.36191
▁drive	-9.36197
▁strength	-9.36224
▁domestic	-9.36327
▁annual	-9.36329
▁gain	-9.36337
▁equipment	-9.36402
ified	-9.36406
▁perfect	-9.36485
▁fuel	-9.36499
▁X	-9.36528
▁mark	-9.36591
▁includes	-9.36598
▁complete	-9.36903
▁measures	-9.37046
▁isn	-9.37113
▁beginning	-9.37172
In	-9.37218
▁authorities	-9.37247
▁wear	-9.37267
10	-9.37304
▁earlier	-9.37305
▁particular	-9.37309
▁parts	-9.37334
▁works	-9.37354
▁trip	-9.37362
▁effort	-9.37521
▁Ju	-9.37575
▁spent	-9.37635
▁voice	-9.37683
▁budget	-9.3776
if	-9.37797
ther	-9.37797
rr	-9.37818
▁studied	-9.37911
▁Ga	-9.38059
▁opportunity	-9.38063
▁Apple	-9.38085
ler	-9.38168
▁methods	-9.3817
ze	-9.38278
ew	-9.38292
▁Ta	-9.38358
▁code	-9.38412
▁joint	-9.38417
▁clean	-9.38447
▁talks	-9.38456
ple	-9.38507
▁heat	-9.38536
▁fair	-9.3855
ka	-9.38601
▁takes	-9.38759
▁involved	-9.38831
▁banks	-9.38837
▁train	-9.38974
cent	-9.38983
▁count	-9.39033
▁investors	-9.39075
ult	-9.39232
...	-9.39286
▁books	-9.39333
▁ideas	-9.39421
ition	-9.39426
▁girl	-9.39455
▁boost	-9.39526
act	-9.39534
▁rights	-9.39559
▁West	-9.39632
▁cross	-9.39786
9	-9.39799
▁fish	-9.39823
▁received	-9.39898
term	-9.39946
▁Russian	-9.39972
▁trust	-9.3999
▁message	-9.40066
che	-9.40096
▁24	-9.40191
▁Her	-9.4022
▁summer	-9.40225
▁double	-9.40251
▁employees	-9.40344
ery	-9.40356
▁trouble	-9.40375
▁degree	-9.40391
ung	-9.404
▁French	-9.40452
▁foot	-9.40506
ens	-9.40524
▁pain	-9.40717
▁physical	-9.40851
▁organization	-9.40873
▁hands	-9.41014
pl	-9.41118
▁writing	-9.41223
▁created	-9.41296
▁exercise	-9.41392
▁affect	-9.41409
▁feeling	-9.41496
▁super	-9.4164
▁male	-9.41708
▁ready	-9.41714
ip	-9.41738
▁customers	-9.41808
▁blue	-9.41878
▁arm	-9.41981
▁movie	-9.42163
work	-9.42233
ki	-9.42266
▁figures	-9.42269
▁spending	-9.42284
wa	-9.42384
ect	-9.42405
qu	-9.42433
▁add	-9.42603
▁loss	-9.42777
▁rock	-9.42809
▁gold	-9.4294
▁etc	-9.42963
▁wish	-9.42975
ase	-9.42984
ably	-9.43198
ec	-9.43308
▁manager	-9.43319
▁h	-9.43321
▁successful	-9.4334
▁distribution	-9.43624
▁store	-9.43672
ose	-9.43743
▁benefit	-9.43978
▁January	-9.44023
▁goods	-9.44037
▁Your	-9.44042
which	-9.4407
▁Tome	-9.4425
ual	-9.44441
cle	-9.44454
▁dead	-9.44459
▁kids	-9.44501
▁damage	-9.44506
▁Y	-9.44533
▁unit	-9.44542
▁choose	-9.44676
tin	-9.44699
▁wind	-9.44774
▁touch	-9.44982
▁’	-9.45008
▁page	-9.45026
▁evidence	-9.4508
▁ensure	-9.45081
▁increasing	-9.45175
▁War	-9.45292
▁purpose	-9.45302
▁costs	-9.45433
▁anyone	-9.45436
▁boss	-9.45446
▁communication	-9.45489
ep	-9.45526
gi	-9.45557
▁teaching	-9.45662
▁save	-9.45667
cy	-9.45699
▁administration	-9.45735
▁Israel	-9.45796
▁Sunday	-9.45823
▁Japanese	-9.45824
▁Union	-9.45855
▁previous	-9.45915
▁complex	-9.45933
X	-9.4597
▁France	-9.46
▁looked	-9.46092
▁Can	-9.46122
▁Lo	-9.46291
▁negative	-9.46312
▁sent	-9.46313
▁spread	-9.46317
ai	-9.46338
▁direction	-9.46437
▁lay	-9.46459
▁staff	-9.46483
▁spirit	-9.46777
▁Congress	-9.46838
▁shape	-9.46838
▁mass	-9.46844
▁designed	-9.46871
$1	-9.4688
▁talking	-9.46907
▁beautiful	-9.46976
istic	-9.47006
▁pull	-9.47021
▁senior	-9.47059
▁screen	-9.47112
▁happen	-9.47143
▁target	-9.47329
▁border	-9.47395
▁secret	-9.47414
▁speech	-9.47476
▁ha	-9.47559
ions	-9.4784
▁phase	-9.47914
ao	-9.48052
▁systems	-9.48064
▁follow	-9.48109
▁soil	-9.48187
▁Ki	-9.48257
▁balance	-9.48258
tle	-9.48271
▁rain	-9.48281
ev	-9.48301
▁wall	-9.48312
▁reached	-9.48321
▁famous	-9.4837
▁fruit	-9.48415
▁giving	-9.48495
▁relations	-9.48571
▁dark	-9.48626
You	-9.48632
▁worked	-9.48835
▁yuan	-9.48896
▁university	-9.48909
ach	-9.48942
▁reading	-9.48988
▁...	-9.49023
▁safety	-9.49025
▁fine	-9.49043
my	-9.49058
ham	-9.49126
like	-9.49132
ley	-9.49144
▁finance	-9.49164
▁Gu	-9.49231
▁reports	-9.49267
ib	-9.494
▁concept	-9.49439
▁pe	-9.49441
▁$	-9.4953
▁Development	-9.49597
▁se	-9.49643
▁euros	-9.49649
ological	-9.49808
▁rose	-9.49918
▁mobile	-9.49932
▁husband	-9.50018
▁rules	-9.50043
but	-9.50101
▁strategy	-9.50104
uff	-9.50186
▁commercial	-9.50189
▁respectively	-9.50218
▁2008	-9.5051
lan	-9.50573
▁drop	-9.50692
▁Since	-9.50712
▁Although	-9.50797
▁2006	-9.50852
▁export	-9.50863
▁Because	-9.50866
▁movement	-9.50889
▁introduced	-9.5091
▁competition	-9.51053
cc	-9.51148
▁cur	-9.5127
▁opening	-9.51306
▁Per	-9.51307
▁Party	-9.51309
▁heard	-9.5132
▁sa	-9.51501
▁dollars	-9.51548
hu	-9.51579
▁leading	-9.51584
▁Iran	-9.51615
▁sold	-9.51646
▁hospital	-9.51749
▁trans	-9.51862
nd	-9.51969
▁Just	-9.51991
▁spot	-9.5203
▁marriage	-9.52098
▁greater	-9.52131
ade	-9.52419
▁fell	-9.52443
▁conflict	-9.5245
20	-9.52608
▁Our	-9.52688
▁60	-9.52716
▁picture	-9.52776
▁medical	-9.52804
▁review	-9.52831
▁fo	-9.52844
ell	-9.52852
▁request	-9.53
▁provided	-9.53045
ain	-9.53075
▁Mi	-9.53106
▁bill	-9.53134
▁Man	-9.53187
ists	-9.53328
kin	-9.53339
sta	-9.53381
har	-9.53429
▁brand	-9.53449
▁member	-9.53467
▁materials	-9.535
▁display	-9.5352
▁characteristics	-9.5369
▁receive	-9.53698
▁paid	-9.53754
▁i	-9.53762
▁charge	-9.53762
▁cash	-9.53856
▁toward	-9.54124
▁states	-9.54184
▁piece	-9.54217
▁Institute	-9.54223
len	-9.54341
▁challenge	-9.54426
▁task	-9.54431
▁followed	-9.54445
▁holiday	-9.54582
▁executive	-9.54614
▁draw	-9.54622
▁Britain	-9.54762
▁addition	-9.54846
▁moving	-9.54876
▁Google	-9.55032
▁boy	-9.55135
▁troops	-9.5518
▁fund	-9.5519
▁directly	-9.55202
ff	-9.55353
▁$1	-9.55435
ven	-9.55658
▁bus	-9.55673
▁raise	-9.55707
▁Ex	-9.55775
▁text	-9.55813
▁towards	-9.55836
▁card	-9.5584
▁join	-9.55934
▁September	-9.56029
▁launch	-9.56041
▁Qu	-9.56041
▁b	-9.5612
▁22	-9.56188
▁presidential	-9.56191
▁south	-9.56212
▁novel	-9.56218
▁promote	-9.5624
▁1.	-9.56246
▁choice	-9.56258
▁below	-9.56308
▁thousands	-9.5635
tan	-9.56513
ute	-9.56717
ged	-9.56777
sha	-9.56795
▁shown	-9.56918
▁truth	-9.56945
▁dream	-9.57052
▁General	-9.57064
▁Ja	-9.57085
▁industrial	-9.5713
▁principle	-9.57147
▁perhaps	-9.57221
▁baby	-9.57237
fin	-9.5727
▁master	-9.57294
▁accept	-9.57333
ification	-9.5734
▁serve	-9.5738
▁understanding	-9.57421
▁appear	-9.57423
▁department	-9.57425
▁experiment	-9.57598
ica	-9.57724
port	-9.57768
30	-9.57802
▁Fe	-9.5784
▁shop	-9.57848
mm	-9.57948
row	-9.58016
shi	-9.58094
ries	-9.58131
▁November	-9.58147
▁heavy	-9.58148
▁reasons	-9.58163
med	-9.58257
▁features	-9.58357
art	-9.58411
▁tr	-9.5865
▁rates	-9.58669
▁changed	-9.58695
▁Of	-9.58908
▁Objective	-9.59082
▁park	-9.59088
▁2012	-9.59096
▁ob	-9.59226
par	-9.59232
▁protection	-9.59248
▁cool	-9.59273
▁fi	-9.59335
▁Korean	-9.5936
▁ch	-9.59361
▁concern	-9.5952
▁daughter	-9.59647
▁kinds	-9.59652
▁civil	-9.59704
mark	-9.59712
▁Sha	-9.59738
▁window	-9.59757
▁coal	-9.59825
▁race	-9.5984
▁suggest	-9.5995
▁plane	-9.59968
eg	-9.60009
▁Wang	-9.6003
▁Ni	-9.60037
tric	-9.6004
▁born	-9.60043
▁farm	-9.60061
sp	-9.60112
▁events	-9.60287
▁easily	-9.60311
▁status	-9.60311
▁failure	-9.60323
▁tree	-9.60346
▁looks	-9.60399
rin	-9.60509
▁fat	-9.60535
▁setting	-9.60589
▁although	-9.606
▁conference	-9.60699
▁chemical	-9.60745
▁tra	-9.60756
▁Secretary	-9.60792
▁measure	-9.60886
▁north	-9.60907
▁ship	-9.60917
▁2010	-9.6095
▁object	-9.60992
lar	-9.60994
▁died	-9.6106
▁Here	-9.61122
▁mid	-9.61141
▁earth	-9.61163
▁feed	-9.61244
▁dress	-9.61297
▁gives	-9.61354
▁ring	-9.61398
▁entire	-9.6142
▁index	-9.61472
▁mental	-9.61495
▁2005	-9.61504
chi	-9.61506
▁length	-9.61555
▁seek	-9.61625
▁r	-9.61637
▁Last	-9.61648
▁airport	-9.61679
If	-9.61698
▁television	-9.61749
▁feet	-9.61803
▁tons	-9.61869
▁2009	-9.61991
▁battle	-9.62041
gra	-9.62047
▁dog	-9.62103
over	-9.62121
▁Xi	-9.62142
back	-9.62176
▁schools	-9.62234
▁th	-9.62262
▁Let	-9.62281
▁myself	-9.62353
rate	-9.62369
▁agreed	-9.62465
▁factory	-9.62516
▁wrote	-9.62523
▁operating	-9.62529
▁gra	-9.6265
▁discuss	-9.62696
▁applied	-9.62718
su	-9.62727
▁presented	-9.62808
▁judge	-9.6282
▁attacks	-9.62924
▁cast	-9.62997
▁mountain	-9.6301
▁steel	-9.6301
od	-9.63067
▁Indian	-9.63102
▁professor	-9.63108
▁stake	-9.63123
▁document	-9.63225
▁net	-9.63325
▁happened	-9.63355
sol	-9.63413
▁powerful	-9.63512
▁waste	-9.63649
ration	-9.63723
ned	-9.63752
▁prime	-9.63767
▁Asian	-9.63844
▁cultural	-9.63884
▁finally	-9.63975
ker	-9.63978
▁experts	-9.63988
▁families	-9.63992
▁birth	-9.64059
▁listen	-9.64061
▁Ministry	-9.64091
▁species	-9.64199
▁shot	-9.64268
▁Su	-9.64317
ised	-9.64386
str	-9.64396
▁places	-9.64419
mal	-9.64438
▁advantage	-9.64446
▁village	-9.64486
▁thus	-9.64531
▁required	-9.6465
▁section	-9.64696
▁types	-9.64704
▁kick	-9.64708
▁remains	-9.64764
▁stick	-9.64816
▁agree	-9.64924
▁animals	-9.64953
▁White	-9.64983
▁mode	-9.6505
▁Other	-9.65115
▁El	-9.65171
▁opinion	-9.65183
▁ice	-9.6529
▁load	-9.65316
▁climate	-9.65383
▁David	-9.65387
▁Fi	-9.65389
▁aim	-9.65491
zi	-9.65657
▁ab	-9.65715
▁reaction	-9.6574
az	-9.65745
▁quick	-9.65763
▁rising	-9.65793
▁Ms	-9.65848
▁En	-9.65858
▁described	-9.65873
▁technical	-9.65884
▁achieve	-9.65899
▁Yet	-9.65914
▁flu	-9.6593
▁Results	-9.65985
▁Lisbon	-9.66086
gar	-9.66212
▁realize	-9.66227
US	-9.66233
▁decide	-9.66353
▁Clinton	-9.66388
▁knew	-9.66494
?"	-9.66585
▁strike	-9.66592
▁reflect	-9.66658
ever	-9.6677
ns	-9.66784
▁proposed	-9.66802
▁produced	-9.66859
▁parties	-9.66964
▁treat	-9.66966
▁wine	-9.67017
▁playing	-9.67023
▁band	-9.67054
▁coffee	-9.67098
light	-9.67136
▁Pakistan	-9.67237
▁cancer	-9.67316
▁mu	-9.67389
ou	-9.67419
▁profit	-9.67456
▁discussed	-9.67479
▁fe	-9.67498
▁despite	-9.67506
▁planning	-9.67656
▁opportunities	-9.67711
▁hotel	-9.67736
▁instance	-9.67816
▁Germany	-9.67869
za	-9.67985
▁healthy	-9.67988
wi	-9.67993
▁written	-9.67996
▁October	-9.68019
▁letter	-9.68019
ces	-9.6807
▁fashion	-9.68121
▁Democratic	-9.68146
This	-9.68194
tch	-9.68208
▁catch	-9.68219
▁established	-9.68262
▁factor	-9.68293
▁scientists	-9.68314
▁scale	-9.68322
bb	-9.68336
▁bear	-9.6844
▁pop	-9.68506
▁layer	-9.68673
ore	-9.68701
▁push	-9.68781
▁user	-9.68782
▁audience	-9.68844
▁version	-9.68935
▁Facebook	-9.68947
▁dry	-9.68984
▁floor	-9.6899
long	-9.69005
mor	-9.69011
▁release	-9.69128
▁river	-9.69156
ack	-9.69293
lf	-9.69295
▁Har	-9.69332
▁conversation	-9.69363
▁responsibility	-9.69363
▁perform	-9.69462
▁bag	-9.69472
vis	-9.69479
ea	-9.69527
▁completely	-9.69684
pri	-9.69694
▁programme	-9.69726
▁threat	-9.69727
▁Republican	-9.69739
▁nine	-9.69804
▁Afghanistan	-9.69885
▁platform	-9.69885
▁2011	-9.699
▁die	-9.69917
▁Prime	-9.69919
▁violence	-9.69989
▁included	-9.70028
ld	-9.70098
▁suit	-9.70115
▁animal	-9.70129
▁launched	-9.70207
▁dam	-9.70401
▁device	-9.70452
▁connection	-9.70506
▁Foreign	-9.70515
▁weak	-9.70556
▁technique	-9.70561
ob	-9.70562
▁original	-9.70585
▁mouth	-9.70614
▁bomb	-9.70622
▁sugar	-9.70626
▁mine	-9.70627
dent	-9.70634
▁auto	-9.70675
▁reality	-9.70739
ency	-9.70797
▁Bu	-9.70933
▁benefits	-9.70997
▁ratio	-9.71009
▁partnership	-9.7106
▁scene	-9.71087
▁helped	-9.71109
ran	-9.71123
▁ear	-9.71127
▁000	-9.71163
not	-9.71311
gy	-9.71324
val	-9.71347
▁via	-9.7135
▁soft	-9.71415
▁gone	-9.71433
▁attend	-9.71464
▁December	-9.71467
▁Well	-9.71506
▁bone	-9.7159
▁Day	-9.71652
▁easier	-9.7168
▁Ru	-9.71707
▁pair	-9.71748
▁beyond	-9.71787
▁worry	-9.71787
▁responsible	-9.71893
▁More	-9.71939
eng	-9.71982
▁opposition	-9.72
▁desire	-9.72004
AR	-9.72087
▁bridge	-9.72333
all	-9.72432
▁straight	-9.72536
▁estimated	-9.72552
▁released	-9.72564
▁du	-9.72585
▁shift	-9.72751
▁23	-9.72765
▁enter	-9.72823
▁explain	-9.72842
▁Council	-9.72859
▁debate	-9.72862
▁active	-9.72936
set	-9.73067
fl	-9.73071
▁Western	-9.73077
▁diet	-9.7311
ja	-9.73185
▁Fr	-9.73192
▁dynamic	-9.73196
cus	-9.73262
ug	-9.73296
▁nations	-9.73508
▁beauty	-9.73508
▁root	-9.73557
▁allowed	-9.73691
▁Every	-9.73692
▁Senator	-9.73729
sk	-9.73829
▁discussion	-9.73866
▁wonder	-9.73876
▁speaking	-9.73886
▁environmental	-9.73909
▁Why	-9.73992
▁memory	-9.74052
ix	-9.74057
▁crime	-9.74063
▁station	-9.74074
▁correct	-9.74089
▁weather	-9.74162
ray	-9.74207
▁thousand	-9.74215
▁Another	-9.74278
▁kept	-9.74279
▁ne	-9.7437
▁Despite	-9.74489
▁Palestinian	-9.74525
▁Pe	-9.74579
▁August	-9.746
▁calls	-9.74658
▁traffic	-9.74709
▁City	-9.74711
▁signal	-9.74793
▁express	-9.74825
▁transport	-9.74992
▁provides	-9.74996
▁bra	-9.74998
▁starting	-9.75026
▁26	-9.75066
▁j	-9.75073
ana	-9.75109
▁feature	-9.75125
▁California	-9.75149
▁prepared	-9.75176
▁earn	-9.75207
fer	-9.75277
▁scientific	-9.7537
br	-9.75478
mu	-9.75491
Q	-9.75495
▁strengthen	-9.75523
▁forest	-9.75536
▁Chen	-9.75599
▁becoming	-9.75672
▁Han	-9.75683
▁stability	-9.75735
wn	-9.75804
ory	-9.75907
▁Group	-9.75924
”.	-9.75932
▁highest	-9.75962
▁Wa	-9.76025
▁im	-9.76054
▁numbers	-9.76118
den	-9.7613
▁gun	-9.76182
car	-9.76311
▁urban	-9.7637
▁opened	-9.76397
▁Instead	-9.76404
▁analyzed	-9.76438
▁worse	-9.76486
▁talent	-9.76488
▁2004	-9.76522
▁mission	-9.76533
sum	-9.76546
▁wave	-9.76607
▁27	-9.76608
▁iron	-9.76622
▁goals	-9.76714
▁moral	-9.76733
mar	-9.76744
▁roll	-9.76763
▁Guinea	-9.76821
▁lines	-9.76848
▁limit	-9.76927
▁internal	-9.76948
▁aircraft	-9.77047
▁brother	-9.77048
▁practical	-9.77155
▁McCain	-9.77157
j	-9.77224
▁maintain	-9.77287
▁suggests	-9.77314
▁drink	-9.77344
▁spring	-9.77401
▁flight	-9.77439
▁decade	-9.77464
▁Economic	-9.77493
▁bright	-9.775
cor	-9.7752
▁blow	-9.77528
nes	-9.77559
▁appeared	-9.77605
▁metal	-9.77737
▁location	-9.77745
▁significantly	-9.77801
▁photo	-9.77808
▁crack	-9.77851
▁Shi	-9.77926
AN	-9.77978
▁solve	-9.78018
▁relative	-9.78055
▁Nations	-9.78088
▁ban	-9.7824
▁firms	-9.78266
til	-9.78287
▁medium	-9.78288
▁games	-9.78306
▁burn	-9.78326
▁primary	-9.78407
▁meal	-9.78485
▁bio	-9.78495
▁street	-9.78523
▁freedom	-9.78526
▁bottom	-9.78629
▁doubt	-9.7863
▁candidate	-9.78714
▁Department	-9.78743
▁Ch	-9.78816
▁independent	-9.78893
▁efficiency	-9.78912
▁businesses	-9.78954
▁pretty	-9.79087
▁poll	-9.79249
▁deliver	-9.7925
▁Saturday	-9.79316
▁digital	-9.79317
▁tight	-9.79317
▁chairman	-9.7934
▁Mu	-9.79353
▁plate	-9.79388
und	-9.79395
▁drug	-9.79426
▁interested	-9.79443
cer	-9.79484
▁protein	-9.79521
ify	-9.79526
rank	-9.79567
▁operations	-9.79721
▁Yu	-9.79727
▁counter	-9.79847
ney	-9.79862
▁programs	-9.79972
▁file	-9.80059
▁exist	-9.80088
▁partners	-9.80133
▁lie	-9.80186
▁fighting	-9.80289
▁200	-9.80299
▁German	-9.80308
▁immediately	-9.80346
▁offered	-9.80354
▁Conclusion	-9.80357
▁element	-9.80382
▁Pi	-9.80424
▁square	-9.80437
▁San	-9.80463
▁located	-9.80473
There	-9.80534
▁Paulo	-9.80565
▁zone	-9.80632
▁regional	-9.80654
▁infrastructure	-9.80706
▁engine	-9.80796
▁hundred	-9.80861
▁deposit	-9.80994
▁majority	-9.80997
▁highly	-9.81036
▁liquid	-9.81057
▁interests	-9.81078
with	-9.81093
▁writer	-9.81132
▁sale	-9.81135
▁glass	-9.81174
vol	-9.81187
her	-9.812
▁limited	-9.81303
sco	-9.81359
▁Australia	-9.81464
▁certainly	-9.81491
sis	-9.81522
▁policies	-9.81526
▁encourage	-9.8154
cal	-9.81579
▁critical	-9.81584
ming	-9.81605
▁club	-9.81761
▁manage	-9.81791
ji	-9.81824
are	-9.81824
pping	-9.8183
▁obtained	-9.81832
aw	-9.81834
▁married	-9.81879
▁smile	-9.81998
▁Air	-9.8202
▁taste	-9.82034
▁wide	-9.82074
ef	-9.82082
▁note	-9.82109
▁edge	-9.82201
▁girls	-9.82312
▁dinner	-9.82352
▁invest	-9.8238
lie	-9.82393
▁te	-9.82414
▁exactly	-9.82435
▁details	-9.82512
▁yield	-9.8259
▁laugh	-9.8268
▁eating	-9.82696
▁hole	-9.82721
▁moved	-9.8273
▁approved	-9.82796
▁bottle	-9.82828
▁si	-9.8284
▁holding	-9.82925
▁email	-9.82965
▁noted	-9.83183
▁accident	-9.83186
▁Two	-9.83201
▁jump	-9.83216
▁confidence	-9.83255
▁seemed	-9.83268
▁overall	-9.8327
▁Min	-9.83341
pon	-9.83372
▁separate	-9.83446
▁fer	-9.8356
▁appearance	-9.83578
▁airline	-9.83631
▁Ar	-9.83645
▁Lin	-9.83651
▁engineering	-9.83664
ient	-9.83681
▁print	-9.83833
board	-9.83891
▁coast	-9.8391
▁unique	-9.83922
▁wild	-9.83955
▁2007	-9.8397
▁learned	-9.83991
▁28	-9.83995
▁Th	-9.84045
ject	-9.84116
▁Sun	-9.8421
▁played	-9.84276
▁Once	-9.84318
▁passed	-9.84352
▁gift	-9.84389
▁failed	-9.84436
▁leaving	-9.8451
▁fully	-9.84602
▁/	-9.84614
▁giant	-9.84632
▁Bi	-9.84641
▁Today	-9.84699
▁throw	-9.84741
▁cap	-9.8483
▁treated	-9.84938
▁weapons	-9.84967
▁purchase	-9.84995
▁waiting	-9.85078
ris	-9.85138
▁electricity	-9.85158
ress	-9.8516
▁carbon	-9.85228
▁sw	-9.85273
Z	-9.85322
▁named	-9.85411
▁explore	-9.85483
▁str	-9.85499
lit	-9.85667
mat	-9.85701
ino	-9.85718
▁finish	-9.85757
▁reference	-9.85765
use	-9.85936
▁bought	-9.85974
▁presence	-9.85975
▁keeping	-9.86019
▁struggle	-9.86097
▁comment	-9.86108
▁UK	-9.86147
fr	-9.86147
ations	-9.86178
▁ancient	-9.86214
▁determined	-9.86297
▁teacher	-9.86328
▁creating	-9.86343
▁useful	-9.8636
water	-9.86376
▁investigation	-9.86467
bra	-9.86475
▁regular	-9.8673
▁tough	-9.86853
▁advance	-9.86996
▁clothes	-9.86999
▁forced	-9.87009
▁stone	-9.87011
▁finding	-9.87099
▁decades	-9.87162
▁Zhang	-9.87215
▁Their	-9.87257
▁ran	-9.87375
▁continued	-9.87419
▁changing	-9.87461
▁abroad	-9.87463
dis	-9.87636
▁occur	-9.87699
▁tourism	-9.87731
try	-9.87732
▁believed	-9.87735
▁scar	-9.87816
▁claim	-9.87824
▁forecast	-9.87835
▁Center	-9.87836
oid	-9.87875
▁interesting	-9.87919
▁transfer	-9.87943
▁existing	-9.8803
▁Ben	-9.88103
▁importance	-9.88104
uck	-9.88123
ral	-9.88187
▁Barack	-9.88216
▁background	-9.88234
▁prefer	-9.88241
▁suggested	-9.88315
ek	-9.88333
▁tea	-9.88342
▁relation	-9.88382
▁Based	-9.88387
said	-9.88387
▁funds	-9.8842
▁title	-9.88465
ame	-9.88509
▁Under	-9.88523
▁Bissau	-9.88529
mic	-9.88637
▁sports	-9.8865
▁trees	-9.88687
▁driver	-9.8871
tive	-9.88843
▁colleagues	-9.88944
▁concerned	-9.88949
▁Over	-9.88957
▁inflation	-9.8897
▁wedding	-9.88971
▁pen	-9.88972
,“	-9.88987
right	-9.89063
▁Those	-9.89104
she	-9.89122
▁sum	-9.89169
▁maybe	-9.89217
▁0	-9.89231
▁sight	-9.89232
▁finger	-9.89236
▁processing	-9.8925
▁severe	-9.89353
▁steps	-9.89375
▁plants	-9.89381
▁actual	-9.89395
uring	-9.89419
ties	-9.89423
▁Methods	-9.8946
▁attitude	-9.89477
▁ill	-9.89504
lt	-9.89538
▁require	-9.8954
▁Pre	-9.89581
▁organ	-9.8959
▁therefore	-9.89604
elect	-9.89711
▁advice	-9.89731
▁deficit	-9.89731
▁Ri	-9.89744
▁guide	-9.89747
▁stuff	-9.89759
▁electronic	-9.89875
rum	-9.89884
▁foundation	-9.89894
▁sweet	-9.89987
tern	-9.90202
▁enterprise	-9.90205
▁camera	-9.90232
ants	-9.90274
rt	-9.9032
▁elements	-9.90347
▁teachers	-9.90451
▁clearly	-9.90508
▁route	-9.90512
▁fl	-9.90638
▁additional	-9.9065
▁observe	-9.90679
▁plastic	-9.90726
▁adding	-9.90738
▁Israeli	-9.90792
▁causes	-9.90888
▁meat	-9.9095
▁Mon	-9.90952
-1	-9.90954
▁ideal	-9.9097
▁chain	-9.90976
▁core	-9.91004
▁values	-9.91156
▁analyze	-9.91196
▁Research	-9.91213
meter	-9.91291
air	-9.91319
ina	-9.91331
well	-9.91393
▁watching	-9.91451
▁2.	-9.91512
▁currency	-9.91534
▁sides	-9.91564
▁hang	-9.91612
▁properties	-9.91668
▁bird	-9.91678
▁offering	-9.91712
▁consumers	-9.91723
▁n	-9.91737
▁Du	-9.91861
0%	-9.91906
▁guarantee	-9.91925
▁posted	-9.9198
▁boat	-9.92033
▁whom	-9.92084
▁Tri	-9.92175
▁channel	-9.92186
▁improved	-9.92241
▁please	-9.92257
▁Cl	-9.92272
igh	-9.92288
▁spokesman	-9.92318
can	-9.92356
He	-9.92377
▁weekend	-9.92386
▁mining	-9.92402
▁determine	-9.9245
▁pl	-9.92511
▁le	-9.9265
▁80	-9.92668
▁raised	-9.92687
▁concentration	-9.92711
▁Finally	-9.92711
▁error	-9.92711
▁images	-9.92734
▁pattern	-9.92752
ko	-9.92756
▁rep	-9.92834
▁para	-9.92856
low	-9.92877
▁army	-9.92881
▁Chi	-9.92945
nu	-9.92948
%	-9.93001
▁items	-9.93079
▁milk	-9.93106
▁distance	-9.93107
▁forget	-9.9311
▁Ab	-9.93165
ps	-9.93213
▁smaller	-9.93251
▁island	-9.93333
▁characters	-9.93362
▁aren	-9.93373
▁stories	-9.93377
▁generally	-9.93385
▁models	-9.9345
oon	-9.93466
▁happiness	-9.93503
▁literature	-9.93505
▁Earth	-9.93636
▁couldn	-9.93895
▁blog	-9.93978
ments	-9.94009
▁link	-9.9402
▁Christmas	-9.94035
▁throughout	-9.94045
hen	-9.94098
They	-9.94102
tical	-9.94142
▁magazine	-9.94168
▁district	-9.94168
ically	-9.94317
ome	-9.94332
▁offers	-9.9444
yl	-9.94524
▁recovery	-9.9459
▁asking	-9.94592
▁fa	-9.94686
▁70	-9.94707
lock	-9.94726
▁kill	-9.94729
▁tests	-9.94781
▁winter	-9.94791
▁wealth	-9.94796
▁older	-9.94801
▁seat	-9.94837
▁sexual	-9.94838
jo	-9.9485
▁River	-9.94862
▁soul	-9.94933
▁exp	-9.95007
▁gets	-9.95035
▁concerns	-9.95039
▁sat	-9.95067
▁horse	-9.95141
▁transform	-9.95186
▁players	-9.95221
▁Trade	-9.95225
bed	-9.95228
down	-9.95248
▁initial	-9.95283
▁artist	-9.95293
▁affected	-9.95357
▁enterprises	-9.95416
To	-9.95457
▁putting	-9.95478
ened	-9.95525
▁adapt	-9.95572
top	-9.95574
▁Sp	-9.95622
▁School	-9.95646
▁defend	-9.95783
▁1,	-9.95856
▁trick	-9.95858
▁Cr	-9.95886
▁song	-9.95972
▁imports	-9.95974
pha	-9.95986
iness	-9.96006
▁appears	-9.96014
▁discovered	-9.96044
▁combination	-9.96053
▁labor	-9.96091
▁Ad	-9.96124
van	-9.9617
▁fail	-9.9618
▁appeal	-9.9619
▁lift	-9.96278
▁assets	-9.9628
▁doctor	-9.96281
▁qu	-9.96302
ju	-9.96369
▁topic	-9.96414
▁actions	-9.96435
▁consist	-9.96461
▁quiet	-9.96463
▁sand	-9.96488
▁respond	-9.96546
▁fill	-9.96574
▁larger	-9.96606
ky	-9.96691
app	-9.96733
▁conduct	-9.96735
ulation	-9.96789
▁remind	-9.96862
▁selling	-9.96939
▁increasingly	-9.96987
▁grass	-9.96989
▁George	-9.97009
▁grand	-9.97036
▁establish	-9.97052
▁construct	-9.9706
▁hundreds	-9.97103
▁challenges	-9.97111
▁hurt	-9.97148
▁reduced	-9.97215
▁creative	-9.97285
▁associated	-9.97304
▁arch	-9.97372
▁belong	-9.97404
▁southern	-9.97423
▁adopt	-9.97436
▁wood	-9.97479
▁Ge	-9.97588
But	-9.97613
▁relationships	-9.97681
▁eventually	-9.97698
▁formal	-9.97717
▁evening	-9.9778
fu	-9.97787
▁Gra	-9.97818
▁handle	-9.97843
▁pr	-9.97879
ya	-9.97986
▁retail	-9.98017
even	-9.98035
▁seed	-9.98038
▁wasn	-9.98107
▁cars	-9.98149
▁becomes	-9.98171
▁depend	-9.98174
▁helping	-9.98186
ER	-9.98244
▁consumption	-9.98253
ular	-9.98265
nder	-9.98296
▁attract	-9.98302
▁predict	-9.98346
▁volume	-9.98392
▁promise	-9.98471
▁su	-9.9854
▁consumer	-9.98549
▁essential	-9.98578
▁motor	-9.98709
▁Com	-9.98739
ash	-9.9874
ane	-9.98768
▁closed	-9.98782
40	-9.98893
▁crowd	-9.98908
▁complain	-9.98937
▁rural	-9.98954
▁gene	-9.98955
▁happens	-9.98961
▁campus	-9.98999
▁bigger	-9.99011
▁ju	-9.99034
▁hat	-9.99105
tation	-9.99166
▁equal	-9.99205
▁Both	-9.9923
▁institutions	-9.9926
▁improvement	-9.99357
▁historical	-9.9936
▁helps	-9.99393
qua	-9.99395
▁Mor	-9.99418
▁connect	-9.9943
AP	-9.99514
phy	-9.99586
▁nice	-9.99594
▁politics	-9.99793
▁Ke	-9.99818
▁ended	-9.99877
▁storm	-9.99909
▁expensive	-9.99934
fo	-10
rac	-10.0007
nal	-10.0007
▁trial	-10.0009
▁seeing	-10.0011
head	-10.0029
▁western	-10.0032
▁sources	-10.0036
▁England	-10.0036
log	-10.0036
▁customer	-10.0036
▁planned	-10.0039
rd	-10.0042
ole	-10.0043
han	-10.005
▁algorithm	-10.005
▁Also	-10.0054
▁differences	-10.0055
▁Fu	-10.0061
▁Middle	-10.0065
▁package	-10.0067
▁thin	-10.0067
▁Paul	-10.0068
▁focused	-10.0072
▁notice	-10.0074
ink	-10.0074
tar	-10.0074
▁pi	-10.0077
▁worst	-10.0079
og	-10.0083
night	-10.0091
▁widely	-10.0092
▁Michael	-10.0093
▁cup	-10.0093
▁select	-10.0101
room	-10.0106
▁flat	-10.0107
▁nor	-10.0111
ography	-10.0121
▁graduate	-10.0125
▁creation	-10.0136
▁manner	-10.0137
▁apply	-10.0139
▁requires	-10.0142
ook	-10.0144
amp	-10.0145
▁strain	-10.0147
▁score	-10.0152
▁showing	-10.0153
▁commitment	-10.0154
▁dollar	-10.0155
▁busy	-10.0164
▁insurance	-10.0179
▁par	-10.018
▁$2	-10.019
ening	-10.0195
▁candidates	-10.0197
▁Bill	-10.0197
▁0.	-10.0204
▁Take	-10.0217
▁Central	-10.0222
▁refer	-10.0226
▁allows	-10.0234
▁innovation	-10.0237
▁notes	-10.0239
pre	-10.0249
▁solid	-10.0252
And	-10.0252
▁minute	-10.0255
▁multiple	-10.0256
▁sitting	-10.0259
▁hopes	-10.0265
▁instrument	-10.0266
▁medicine	-10.0266
▁muscle	-10.0266
▁sentence	-10.0268
▁skill	-10.0274
▁slip	-10.0274
▁tasks	-10.0276
▁whatever	-10.028
▁shock	-10.0281
▁fly	-10.0282
ific	-10.0285
zo	-10.029
▁Jan	-10.0303
▁operate	-10.0308
▁fans	-10.0308
▁contrast	-10.0309
▁Park	-10.0311
▁Am	-10.0312
▁devices	-10.0318
teen	-10.0322
▁wouldn	-10.0326
▁cla	-10.0328
▁explained	-10.0328
▁corporate	-10.0339
▁Street	-10.0339
nic	-10.034
▁willing	-10.0347
▁grain	-10.0357
▁agent	-10.0359
▁beat	-10.036
position	-10.0361
▁prove	-10.0368
▁ourselves	-10.0368
▁belief	-10.0368
▁northern	-10.0368
▁radio	-10.0371
▁voters	-10.0374
oma	-10.0376
coming	-10.0381
▁Dec	-10.0382
▁height	-10.0383
point	-10.0386
ates	-10.0391
▁Bra	-10.0397
▁reveal	-10.041
▁funding	-10.0414
▁3.	-10.0418
▁nose	-10.0418
25	-10.0419
▁Ti	-10.0421
bar	-10.0426
▁habit	-10.0441
▁tradition	-10.0443
▁regions	-10.045
▁Meanwhile	-10.0456
▁lunch	-10.0457
▁UN	-10.0459
▁arms	-10.0463
▁standards	-10.0466
▁flood	-10.0472
▁shopping	-10.0473
▁fields	-10.0476
ologist	-10.0481
▁broad	-10.0483
▁standing	-10.0483
▁February	-10.0486
gri	-10.0487
▁housing	-10.0487
▁trading	-10.0489
vent	-10.049
▁expert	-10.0499
▁player	-10.0499
▁Work	-10.0501
▁electric	-10.0503
▁na	-10.0508
▁mostly	-10.0515
▁criminal	-10.0516
dge	-10.0523
▁relax	-10.0531
hal	-10.0534
▁advanced	-10.0541
▁rival	-10.0546
eth	-10.0547
▁aspects	-10.0557
▁Taiwan	-10.056
▁exploration	-10.056
▁relatively	-10.0561
▁virus	-10.0562
field	-10.0589
▁poverty	-10.059
▁smooth	-10.059
▁Business	-10.059
▁photograph	-10.0593
▁classes	-10.0595
▁Each	-10.0598
graph	-10.0601
▁dispute	-10.0606
▁leaves	-10.0606
▁rice	-10.0607
poli	-10.0612
▁Sea	-10.0613
▁onto	-10.0614
▁pan	-10.0616
ene	-10.0621
▁Health	-10.0621
▁bread	-10.0621
▁Wi	-10.0628
bin	-10.0629
ero	-10.0631
▁argue	-10.0632
▁revealed	-10.0638
▁obvious	-10.0643
▁prepare	-10.0647
▁driving	-10.0651
▁shut	-10.0651
▁Lord	-10.0652
bil	-10.0653
▁patient	-10.0659
▁spoke	-10.0667
▁favorite	-10.0667
▁requirements	-10.0678
3%	-10.0679
▁Committee	-10.0681
▁den	-10.0686
ric	-10.0686
”,	-10.0695
▁buying	-10.0697
▁29	-10.0699
▁cry	-10.07
▁emotional	-10.0701
hand	-10.0707
▁intelligence	-10.0711
▁Science	-10.0711
see	-10.0713
▁Cu	-10.0713
▁Col	-10.0715
▁insist	-10.0719
▁joy	-10.0729
▁recommend	-10.0741
speaking	-10.0742
▁variety	-10.0742
▁wash	-10.0742
▁resistance	-10.0743
pped	-10.0756
▁uses	-10.0758
▁Sal	-10.0759
▁thoughts	-10.076
2%	-10.0762
▁visitors	-10.0762
▁fault	-10.0773
▁snow	-10.0774
that	-10.0782
ising	-10.0784
ched	-10.0787
▁conclusion	-10.0787
▁salt	-10.0788
▁Dis	-10.0791
mber	-10.0801
▁providing	-10.0803
▁Republic	-10.0812
▁applications	-10.0812
▁percentage	-10.0815
spec	-10.0816
▁concluded	-10.0817
rk	-10.0818
▁Like	-10.083
▁resource	-10.0831
▁functions	-10.0836
▁dangerous	-10.0836
▁appropriate	-10.084
yn	-10.0844
200	-10.0844
▁expand	-10.0848
▁afford	-10.0849
ature	-10.0849
ony	-10.0855
▁greatest	-10.0856
zz	-10.0862
▁elections	-10.0863
▁rid	-10.0864
▁journey	-10.0864
▁leadership	-10.0867
▁feelings	-10.0868
▁bond	-10.0872
▁negotiations	-10.0873
ivity	-10.0883
▁EU	-10.0884
▁grade	-10.0888
net	-10.0892
▁smart	-10.0895
▁switch	-10.0896
ale	-10.0898
mate	-10.0907
▁boil	-10.0909
▁Q	-10.091
▁peak	-10.0914
rus	-10.0914
$2	-10.0918
▁recover	-10.0929
▁harm	-10.0941
▁photos	-10.0944
▁forth	-10.0945
ddle	-10.0948
▁fix	-10.095
▁Any	-10.0951
IC	-10.0957
bor	-10.0958
▁characteristic	-10.0958
▁ta	-10.0959
▁prop	-10.0961
▁soldiers	-10.0964
▁linked	-10.0964
▁compete	-10.0965
▁centre	-10.0967
load	-10.0972
MA	-10.0983
▁output	-10.0984
nda	-10.0985
Ma	-10.0986
▁origin	-10.0989
▁sky	-10.0991
▁Si	-10.0992
▁bid	-10.0995
ock	-10.0996
hr	-10.0997
gan	-10.0999
▁noise	-10.1004
▁secure	-10.1004
▁loose	-10.1007
NA	-10.1009
bit	-10.1011
▁mar	-10.1032
▁min	-10.1032
▁symbol	-10.1035
▁prospect	-10.1036
▁Spain	-10.1036
read	-10.1039
▁Are	-10.1044
part	-10.1045
▁schedule	-10.1049
▁occasion	-10.1049
▁camp	-10.1051
▁rec	-10.1063
ches	-10.1067
▁Gr	-10.1068
▁High	-10.1071
▁pictures	-10.1072
▁fan	-10.1076
house	-10.1082
▁Sometimes	-10.1083
▁discover	-10.1084
▁placed	-10.1086
▁500	-10.1094
▁Syria	-10.1095
▁knee	-10.1099
▁collect	-10.1114
▁venture	-10.1114
1%	-10.1116
▁lived	-10.1118
▁grown	-10.1119
ough	-10.1122
▁nu	-10.1128
▁fixed	-10.1129
▁concrete	-10.113
▁diamond	-10.113
▁stretch	-10.113
ily	-10.1131
▁sites	-10.1139
▁delegation	-10.1146
▁equation	-10.1146
▁tissue	-10.1146
▁academic	-10.1146
▁CEO	-10.1146
What	-10.1149
▁poly	-10.1152
▁bath	-10.1156
▁implement	-10.1157
morph	-10.1157
iff	-10.116
▁guard	-10.1166
▁Tu	-10.1166
▁unless	-10.1173
▁individuals	-10.1175
▁agricultural	-10.1177
▁session	-10.1178
▁Men	-10.1183
mount	-10.1191
▁economies	-10.1193
▁returned	-10.1195
▁wearing	-10.1196
▁herself	-10.1198
ution	-10.1199
▁objective	-10.12
▁managed	-10.1207
▁efficient	-10.1208
▁familiar	-10.1209
▁grew	-10.1209
▁arrived	-10.121
cul	-10.1217
▁Web	-10.1217
▁Liu	-10.1218
hor	-10.1219
▁laws	-10.1221
▁curve	-10.1223
▁signs	-10.1224
comp	-10.1225
▁cloud	-10.1226
▁rare	-10.1226
▁apart	-10.1227
▁mi	-10.1234
▁investments	-10.1242
▁meant	-10.1243
col	-10.1248
▁terrorist	-10.1249
▁parent	-10.1257
▁GDP	-10.126
▁90	-10.1266
af	-10.1269
▁studying	-10.1272
▁Association	-10.1273
▁cho	-10.1275
▁King	-10.1285
gle	-10.1285
cep	-10.1289
▁recruit	-10.1289
▁Through	-10.1289
▁tear	-10.129
cate	-10.1297
▁vice	-10.1301
▁succeed	-10.1306
▁exc	-10.1309
▁vision	-10.1315
▁vehicle	-10.1317
hold	-10.1318
▁marketing	-10.1322
▁gu	-10.1324
tract	-10.1327
▁35	-10.1329
▁actor	-10.1331
▁mat	-10.1331
osis	-10.1332
▁emergency	-10.1338
▁twice	-10.1338
▁Year	-10.1342
▁motion	-10.1345
▁decline	-10.1353
▁kilometers	-10.1355
▁database	-10.1355
▁alcohol	-10.137
▁award	-10.1377
▁tool	-10.1386
▁Ukraine	-10.1386
▁Second	-10.1386
▁illegal	-10.1386
▁Great	-10.1387
ctor	-10.1391
▁Arab	-10.1394
▁units	-10.1395
▁rev	-10.1398
▁believes	-10.14
▁command	-10.1401
▁blind	-10.1403
▁Commission	-10.1403
▁testing	-10.1406
▁Make	-10.1406
▁argument	-10.1419
▁effectively	-10.1421
▁names	-10.1423
some	-10.1427
▁fourth	-10.143
▁estate	-10.1438
80	-10.1443
▁apartment	-10.1444
▁era	-10.145
▁Sch	-10.145
60	-10.1451
▁loans	-10.1452
▁improving	-10.1452
▁confident	-10.1452
▁faster	-10.1454
▁map	-10.1461
▁paint	-10.1462
▁afraid	-10.1468
▁faith	-10.1468
▁strategic	-10.1468
▁clinical	-10.1469
▁Italy	-10.147
▁Only	-10.1471
No	-10.1473
ture	-10.1483
▁restaurant	-10.1483
lea	-10.1489
aries	-10.1492
▁server	-10.1494
▁Georgia	-10.1501
▁disaster	-10.1501
▁football	-10.1501
▁attractive	-10.1505
▁broken	-10.1511
▁loan	-10.1512
▁detect	-10.1516
▁William	-10.1517
▁scheme	-10.1517
AC	-10.1522
BC	-10.1525
press	-10.1525
▁caught	-10.1535
▁transition	-10.1535
▁revenues	-10.1538
▁reward	-10.1538
6%	-10.1552
▁sectors	-10.1553
▁measured	-10.1559
▁calling	-10.1564
gram	-10.1564
▁citizens	-10.1568
phi	-10.1571
▁guy	-10.1572
▁filled	-10.1573
get	-10.1575
▁carrying	-10.1576
▁expansion	-10.1583
py	-10.1588
▁ro	-10.1593
rap	-10.1596
▁manufacturing	-10.16
▁smoke	-10.16
▁honest	-10.16
▁Though	-10.1601
▁reserves	-10.161
▁adults	-10.1611
▁Cha	-10.1613
▁cutting	-10.1613
isation	-10.1615
▁shares	-10.1616
▁suffer	-10.1617
▁conducted	-10.1623
▁2000	-10.1625
▁pet	-10.1625
dia	-10.1632
▁Canada	-10.1633
▁facing	-10.1634
▁disorder	-10.1635
▁combined	-10.1637
▁mineral	-10.1653
▁qua	-10.1655
▁mistake	-10.1656
▁upper	-10.1659
▁Wall	-10.166
▁epi	-10.1664
▁Prince	-10.1667
▁decisions	-10.1672
▁Olympic	-10.1673
▁facilities	-10.1683
▁afternoon	-10.1683
▁Four	-10.1684
▁aware	-10.1684
▁banking	-10.1684
▁aimed	-10.1699
▁chair	-10.1699
▁fundamental	-10.17
▁Yang	-10.17
ense	-10.1702
rage	-10.1705
▁secretary	-10.1706
▁extremely	-10.1718
▁pig	-10.1719
▁techniques	-10.1726
▁divided	-10.1731
▁killing	-10.1733
▁Principe	-10.1734
▁identify	-10.1734
▁universities	-10.1734
▁rescue	-10.1734
fully	-10.1735
▁extend	-10.1738
▁seeking	-10.1739
▁massive	-10.1741
▁stable	-10.1746
▁surprise	-10.175
dor	-10.1754
▁moon	-10.1755
cra	-10.1756
▁rapid	-10.1761
▁Plan	-10.1762
▁cycle	-10.1763
rie	-10.1764
▁owned	-10.1766
▁tools	-10.1767
▁infection	-10.1768
▁stood	-10.1768
▁miles	-10.1769
▁granted	-10.1771
▁covered	-10.1784
▁Before	-10.1784
arch	-10.1785
▁fiber	-10.1787
▁confirmed	-10.1787
q	-10.1791
iz	-10.1792
▁4.	-10.1795
▁import	-10.1796
▁Speaking	-10.1801
▁iPhone	-10.1801
▁sin	-10.1809
▁2006,	-10.181
▁spin	-10.181
▁slightly	-10.1812
▁assume	-10.1814
▁perspective	-10.1818
▁federal	-10.1818
pin	-10.183
▁danger	-10.1832
▁recession	-10.1835
▁detail	-10.1839
▁Red	-10.184
▁chi	-10.1844
15	-10.1852
▁garden	-10.1852
8%	-10.1852
▁Tre	-10.1858
▁internet	-10.187
atic	-10.1871
▁corner	-10.1878
▁sick	-10.188
12	-10.1884
4%	-10.1885
lay	-10.1885
▁Security	-10.1886
hood	-10.1887
▁Times	-10.1895
EN	-10.19
▁ceremony	-10.1903
▁twenty	-10.1903
▁clients	-10.1907
ound	-10.1921
▁managers	-10.1921
▁honor	-10.1921
▁option	-10.1922
lation	-10.1922
▁tro	-10.1923
ese	-10.1925
▁continues	-10.1927
▁observed	-10.1931
▁none	-10.1937
▁claims	-10.1937
lly	-10.1937
▁fiscal	-10.1938
▁bodies	-10.1938
▁sister	-10.1941
▁fu	-10.1943
▁adopted	-10.1944
▁supposed	-10.1947
▁ease	-10.1947
▁prison	-10.1949
▁Egypt	-10.1953
▁taxes	-10.1954
▁alternative	-10.1955
▁chart	-10.1964
▁mix	-10.1965
▁angle	-10.1975
▁Sta	-10.1977
▁rent	-10.1979
▁sharp	-10.1983
▁external	-10.1989
▁repair	-10.199
▁Xiao	-10.1991
▁decrease	-10.1992
▁knock	-10.1995
▁dance	-10.1997
CP	-10.1998
▁Ji	-10.2003
▁summit	-10.2006
▁forms	-10.2007
▁Miss	-10.2007
take	-10.2023
▁possibility	-10.2024
▁teach	-10.2024
▁enhance	-10.2024
▁fellow	-10.2027
▁household	-10.2028
▁Tra	-10.2032
ching	-10.2035
▁compound	-10.2042
▁criticism	-10.2043
▁Je	-10.2045
▁knows	-10.2049
ept	-10.2052
▁Lee	-10.2056
▁5.	-10.2056
▁destination	-10.2058
▁BBC	-10.2064
▁ver	-10.2065
▁favor	-10.2069
7%	-10.2069
▁Fo	-10.207
11	-10.2071
east	-10.2072
▁com	-10.2079
▁log	-10.208
cho	-10.208
▁formula	-10.208
nov	-10.2082
OR	-10.2091
▁drag	-10.2092
ump	-10.2093
tur	-10.2094
making	-10.2095
arian	-10.2101
▁absorb	-10.2111
▁incident	-10.2111
fil	-10.2114
▁Inter	-10.2115
▁governments	-10.2119
▁journal	-10.2121
rn	-10.2122
▁imagine	-10.2128
▁Paris	-10.213
▁planet	-10.2137
ED	-10.214
▁Ku	-10.2143
▁authority	-10.2144
CA	-10.2146
▁escape	-10.2146
▁assistance	-10.2147
▁pump	-10.2149
▁hero	-10.2151
▁adjust	-10.2155
ancy	-10.216
▁Tom	-10.216
▁concession	-10.2163
▁truly	-10.2163
ential	-10.2168
▁comments	-10.2169
▁turning	-10.217
▁warned	-10.2176
▁tender	-10.2178
▁disappear	-10.2181
▁yesterday	-10.2181
▁accounts	-10.2183
▁neck	-10.2184
▁engineer	-10.2185
▁arrive	-10.2198
▁impossible	-10.2198
▁remove	-10.22
▁typical	-10.2204
▁adult	-10.2205
▁accused	-10.2208
▁abuse	-10.2209
When	-10.2213
▁walking	-10.2216
acy	-10.2218
▁king	-10.2221
▁branch	-10.2222
▁beach	-10.2223
shed	-10.2226
▁Mc	-10.2227
▁circle	-10.2234
▁defense	-10.2234
▁2003	-10.2239
▁45	-10.2243
▁finished	-10.2247
▁31	-10.2249
▁lock	-10.2249
place	-10.2251
▁lawyer	-10.2252
▁mood	-10.2255
llow	-10.2256
▁shared	-10.2256
▁obtain	-10.2258
▁except	-10.2261
▁drinking	-10.2264
▁expressed	-10.2273
▁Bar	-10.2283
▁parameters	-10.2285
▁News	-10.2287
▁formation	-10.2294
▁employment	-10.2297
▁loved	-10.2301
▁license	-10.2305
▁stores	-10.2317
▁tall	-10.2319
run	-10.2319
▁regime	-10.2325
▁films	-10.2327
ement	-10.2332
▁proposal	-10.2332
▁commission	-10.2341
▁web	-10.2343
▁remaining	-10.2346
cin	-10.2348
ility	-10.235
▁principles	-10.2355
▁passengers	-10.2358
▁pack	-10.2358
▁craft	-10.2364
ett	-10.2364
▁issued	-10.2367
▁sad	-10.2369
▁farmers	-10.237
matic	-10.2373
▁increases	-10.2373
▁luxury	-10.2376
5,000	-10.2376
▁pieces	-10.2377
▁Em	-10.2384
illa	-10.2388
▁rush	-10.2389
▁sport	-10.2391
▁desk	-10.2391
▁jo	-10.2391
▁parliament	-10.2391
▁owners	-10.2392
▁Syrian	-10.2397
life	-10.2404
▁gap	-10.2406
▁restrict	-10.2412
▁emerging	-10.2412
▁resolve	-10.2412
▁wake	-10.2412
▁defeat	-10.2413
▁Among	-10.2441
BA	-10.2441
▁Fund	-10.2445
▁delay	-10.2446
zhou	-10.2448
▁Robert	-10.2449
▁Add	-10.245
rant	-10.2453
fire	-10.2455
▁collection	-10.2457
▁revenue	-10.2462
▁earthquake	-10.2466
▁Therefore	-10.2466
▁served	-10.2478
▁boys	-10.2478
▁Such	-10.248
China	-10.2481
▁client	-10.2481
dro	-10.2481
gro	-10.2482
▁visual	-10.2484
▁monitor	-10.2485
▁sounds	-10.2487
pan	-10.2489
▁ven	-10.2491
▁suddenly	-10.2497
▁stream	-10.25
win	-10.2502
▁democracy	-10.2503
▁drugs	-10.2504
▁aims	-10.2508
▁risks	-10.2513
▁300	-10.2518
▁dreams	-10.2518
▁narrow	-10.2521
▁clock	-10.2521
▁blast	-10.2522
▁syn	-10.2532
▁Yes	-10.2533
▁Che	-10.2549
▁Ban	-10.255
duct	-10.2554
ati	-10.2558
▁formed	-10.2563
▁millions	-10.257
power	-10.2573
▁thick	-10.2574
▁carrier	-10.2576
▁telling	-10.2576
atory	-10.2585
▁ye	-10.2591
▁vessel	-10.2594
▁kitchen	-10.2594
▁Mac	-10.2595
▁contribution	-10.2595
▁Act	-10.26
▁boom	-10.26
▁Dan	-10.2609
▁frame	-10.2612
vy	-10.2615
AD	-10.2621
▁frequency	-10.2622
▁thanks	-10.2627
duce	-10.2627
▁Port	-10.263
▁colour	-10.2631
▁Law	-10.2631
▁dropped	-10.2633
▁oneself	-10.2638
▁proved	-10.264
▁pin	-10.2641
▁victory	-10.2649
▁Service	-10.2649
▁borrow	-10.2649
▁2013	-10.2651
▁Ac	-10.2651
▁haven	-10.2651
▁meetings	-10.2665
▁calm	-10.2668
tory	-10.2671
ode	-10.2672
▁reduction	-10.2673
▁owner	-10.2677
▁lies	-10.2678
▁tu	-10.2684
vic	-10.2685
▁opposite	-10.2686
▁anger	-10.2691
▁pot	-10.2691
▁flights	-10.2697
round	-10.2699
▁Vietnam	-10.2704
▁heads	-10.2705
▁vehicles	-10.271
▁describe	-10.2711
orn	-10.2713
▁proper	-10.2714
owned	-10.2714
▁tech	-10.272
tel	-10.2721
▁comfortable	-10.2728
bal	-10.2734
▁diplomatic	-10.2745
▁Pan	-10.275
▁Dar	-10.2754
ken	-10.2755
▁climb	-10.276
▁pure	-10.2762
▁shoes	-10.2763
▁highlight	-10.2769
▁string	-10.2774
▁geo	-10.2778
▁magic	-10.278
▁pur	-10.2789
▁evaluation	-10.2789
▁contains	-10.2794
▁comparison	-10.2798
ov	-10.2798
▁Christian	-10.2799
lia	-10.2801
▁faces	-10.2804
▁experienced	-10.2805
▁genetic	-10.2805
▁joke	-10.2809
▁drawing	-10.2815
▁mortgage	-10.2816
▁relevant	-10.2816
▁wo	-10.282
▁Island	-10.2821
▁tiny	-10.2825
19	-10.2827
▁comfort	-10.283
ES	-10.2833
▁br	-10.2837
list	-10.284
▁meters	-10.284
16	-10.2843
▁clo	-10.2846
▁Aug	-10.2846
▁mail	-10.2849
▁comm	-10.285
▁IMF	-10.2853
▁accurate	-10.2854
▁thank	-10.2854
▁relief	-10.2855
▁Wu	-10.2857
▁paying	-10.2867
▁tourists	-10.2879
▁Please	-10.2892
▁el	-10.2892
▁experimental	-10.2897
itis	-10.2899
▁Who	-10.2899
▁Ko	-10.2901
▁Un	-10.2901
▁brief	-10.2906
state	-10.291
▁initiative	-10.291
▁cook	-10.2917
▁achieved	-10.2917
bro	-10.2929
▁overseas	-10.2929
▁analysts	-10.293
▁stars	-10.2932
MS	-10.2948
▁survive	-10.2948
▁truck	-10.2949
▁strip	-10.2953
▁mill	-10.2958
ON	-10.2959
rist	-10.296
▁indicated	-10.2962
itive	-10.2966
▁continent	-10.2967
▁calculation	-10.2967
cro	-10.297
▁turns	-10.2972
pper	-10.2977
▁Part	-10.2983
▁Government	-10.2986
▁evolution	-10.2986
▁Women	-10.2988
▁shoulder	-10.299
▁winning	-10.2991
▁plenty	-10.3005
▁Gaza	-10.3007
▁Banco	-10.3009
▁investigate	-10.301
▁painting	-10.3018
▁experiences	-10.3019
lon	-10.302
▁Hi	-10.302
▁admit	-10.3022
▁agriculture	-10.3025
▁transmission	-10.3025
▁stopped	-10.3029
▁duty	-10.3029
▁Democrats	-10.303
▁gradually	-10.303
▁2005,	-10.3031
▁otherwise	-10.3032
▁leg	-10.3038
▁controlled	-10.3039
▁walked	-10.3042
▁cheap	-10.3043
▁resolution	-10.3044
▁courage	-10.3044
level	-10.3049
▁officer	-10.3049
phone	-10.3051
▁dust	-10.3051
▁tension	-10.3052
▁producing	-10.3053
▁obviously	-10.3054
▁alter	-10.3055
▁enable	-10.3062
▁behaviour	-10.3063
▁messages	-10.3064
bling	-10.3068
▁Using	-10.3072
print	-10.3073
ST	-10.3078
▁routine	-10.3082
▁trigger	-10.3082
▁promotion	-10.3082
▁warning	-10.3087
ae	-10.3088
body	-10.3097
DA	-10.3097
late	-10.3103
▁slowly	-10.3105
▁mad	-10.3112
▁Black	-10.3121
▁enemy	-10.3121
▁church	-10.3121
▁Italian	-10.3121
▁fla	-10.3136
ani	-10.3138
▁Three	-10.314
▁nerve	-10.314
▁kiss	-10.3141
▁buildings	-10.3145
bble	-10.3146
▁interaction	-10.3149
▁Australian	-10.315
▁tells	-10.3157
▁2007,	-10.3159
▁comprehensive	-10.3159
▁crash	-10.3162
▁Jack	-10.3164
din	-10.3171
▁Sim	-10.3174
AT	-10.3176
▁Microsoft	-10.3179
cap	-10.3179
ked	-10.3181
▁missing	-10.3185
▁objects	-10.3189
▁largely	-10.3191
▁ser	-10.3193
rating	-10.3193
hai	-10.3196
▁storage	-10.3198
▁tested	-10.3204
you	-10.3207
▁crystal	-10.321
▁robot	-10.3212
▁views	-10.3214
sur	-10.3218
▁powder	-10.3218
▁intention	-10.3229
▁Singapore	-10.3237
▁excellent	-10.3237
▁folk	-10.3237
▁Nigeria	-10.3237
▁II	-10.3245
▁falling	-10.3248
▁patterns	-10.3251
▁constant	-10.3253
▁streets	-10.3255
RI	-10.3256
▁birds	-10.3257
▁sur	-10.3257
▁Wo	-10.3257
▁romantic	-10.3257
▁procedure	-10.3259
▁losing	-10.3263
tes	-10.3267
bel	-10.3272
▁custom	-10.3273
▁definition	-10.3277
▁ocean	-10.3277
rid	-10.3277
▁hi	-10.3282
▁mainland	-10.3286
▁Art	-10.3287
▁dig	-10.3289
onic	-10.3296
▁Romney	-10.3296
▁extract	-10.33
ele	-10.3302
▁contain	-10.3313
verse	-10.3316
▁Mexico	-10.3316
▁unusual	-10.3316
▁vital	-10.3319
▁governor	-10.3322
▁tail	-10.3322
▁contribute	-10.3323
▁wi	-10.3329
ama	-10.3332
▁committed	-10.3337
▁realized	-10.3339
▁younger	-10.3346
▁valuable	-10.3355
▁remote	-10.3355
star	-10.3356
shop	-10.3358
struction	-10.3359
▁movies	-10.336
stone	-10.3365
▁broke	-10.337
▁boot	-10.3371
▁phenomenon	-10.3375
▁pile	-10.3379
cher	-10.338
▁indicate	-10.3387
▁unto	-10.3389
▁vast	-10.3396
▁indeed	-10.3402
ok	-10.3403
▁performed	-10.3403
▁melt	-10.3414
▁association	-10.3415
▁maximum	-10.3416
▁civilian	-10.3419
▁2008,	-10.3424
▁victims	-10.343
▁assess	-10.3434
▁follows	-10.3434
▁components	-10.3434
lim	-10.3434
▁evaluate	-10.3435
▁financing	-10.3435
▁missile	-10.3436
!"	-10.3436
▁2002	-10.3438
▁adds	-10.3438
▁rub	-10.3442
▁employee	-10.3443
▁homes	-10.345
book	-10.3454
▁recall	-10.3454
▁approval	-10.3455
▁tank	-10.3456
So	-10.3463
▁proud	-10.3465
▁organizations	-10.347
▁collapse	-10.3475
▁residents	-10.3475
▁scheduled	-10.3478
▁employers	-10.348
lish	-10.3484
under	-10.3487
▁appreciate	-10.3495
▁exceed	-10.3495
▁yellow	-10.3495
▁passion	-10.3496
▁rat	-10.3498
cut	-10.3498
▁remained	-10.3502
▁Iraqi	-10.3503
▁bin	-10.3507
nation	-10.3512
fall	-10.3513
▁accepted	-10.3515
▁chicken	-10.3515
▁library	-10.3515
▁pollution	-10.3516
▁bacteria	-10.3518
rio	-10.3519
nan	-10.352
▁justice	-10.352
▁sal	-10.3521
▁surge	-10.3531
▁depth	-10.3535
▁measurement	-10.3552
▁allowing	-10.3553
bn	-10.3553
uri	-10.3554
▁Technology	-10.3555
▁existence	-10.3558
▁hearing	-10.356
▁Los	-10.3562
SA	-10.3566
▁sail	-10.3567
▁cards	-10.3569
▁extent	-10.3569
▁Have	-10.3572
▁atmosphere	-10.3575
▁permanent	-10.3575
▁Praia	-10.3577
▁label	-10.358
▁cor	-10.3581
▁ce	-10.3585
PA	-10.3589
▁diseases	-10.3593
▁Muslim	-10.3596
▁random	-10.3596
▁joined	-10.3597
▁Get	-10.36
▁combat	-10.3601
▁welcome	-10.3602
▁bringing	-10.3604
▁dealing	-10.3605
mination	-10.3608
▁closer	-10.3613
▁revolution	-10.3613
last	-10.3614
▁legislation	-10.3616
▁classic	-10.3618
ara	-10.3619
ulate	-10.3619
gging	-10.362
▁clothing	-10.3622
▁recognize	-10.3622
ugh	-10.3624
EC	-10.3628
2.5	-10.3631
▁samples	-10.3633
▁identified	-10.3636
▁expectations	-10.3639
oo	-10.3642
shan	-10.3645
how	-10.366
ala	-10.366
▁Chang	-10.3664
fect	-10.3668
▁tour	-10.367
▁Rio	-10.3679
▁alarm	-10.368
▁Ser	-10.3685
called	-10.3687
pen	-10.3691
▁dogs	-10.3692
▁Bur	-10.3695
▁Twitter	-10.3697
▁territory	-10.3697
cular	-10.3701
▁renew	-10.3702
▁neighbor	-10.3706
▁Big	-10.3709
▁smell	-10.3718
▁exception	-10.3728
▁bound	-10.3728
▁represent	-10.3731
▁stronger	-10.3733
▁harder	-10.3733
gin	-10.3733
▁neither	-10.3739
▁bowl	-10.3742
▁cow	-10.3742
each	-10.3748
▁Corp	-10.3748
70	-10.3749
▁ride	-10.3749
▁Mary	-10.3752
▁designer	-10.3753
▁coach	-10.3753
▁Journal	-10.3759
▁ordinary	-10.3759
▁odd	-10.376
▁represents	-10.3763
▁loud	-10.3763
▁Timor	-10.3765
▁lots	-10.3767
▁je	-10.3768
▁row	-10.3769
IS	-10.3769
▁gross	-10.3771
▁Will	-10.3772
otic	-10.3773
▁previously	-10.3776
▁Zimbabwe	-10.378
▁acquisition	-10.378
▁strict	-10.378
▁reporters	-10.3781
▁flowers	-10.3785
▁drawn	-10.3793
RE	-10.3795
▁Office	-10.3801
▁corruption	-10.3802
▁priority	-10.3804
ins	-10.3809
▁mini	-10.3817
▁constantly	-10.3825
▁pool	-10.3828
▁Peter	-10.3828
wood	-10.3834
▁Green	-10.3843
▁hyper	-10.3844
▁circumstances	-10.3845
▁audit	-10.3853
▁mixed	-10.3856
▁Cup	-10.3862
▁significance	-10.3863
▁bilateral	-10.3863
▁component	-10.3863
▁begun	-10.3863
▁Senate	-10.3865
▁options	-10.3867
arm	-10.3869
▁competitive	-10.388
▁findings	-10.3884
▁entered	-10.3889
▁Sc	-10.3892
▁payment	-10.3894
▁College	-10.3904
▁episode	-10.3904
▁filter	-10.3904
▁Daily	-10.3906
▁cha	-10.3907
▁friendship	-10.3909
▁exam	-10.391
▁west	-10.3916
▁flying	-10.3919
▁armed	-10.3922
▁deputy	-10.3925
▁dialogue	-10.3925
▁causing	-10.3926
ying	-10.3929
▁suffering	-10.393
▁preparation	-10.3946
▁reducing	-10.3946
▁inhibit	-10.3946
▁cream	-10.3946
▁plays	-10.3946
▁sample	-10.3949
▁wise	-10.3952
▁stem	-10.3955
▁agencies	-10.3969
vin	-10.3972
▁tube	-10.3977
▁wage	-10.3978
▁attribute	-10.398
▁refuge	-10.3988
▁visited	-10.3989
▁hall	-10.399
▁grant	-10.3991
▁pointed	-10.3999
▁1990	-10.4
▁sheet	-10.4006
▁automatic	-10.4008
▁magnetic	-10.4018
▁blame	-10.402
▁Mark	-10.4022
▁pace	-10.4027
▁fewer	-10.4027
▁phrase	-10.403
▁technologies	-10.403
▁announcement	-10.4033
▁regard	-10.4035
▁Human	-10.4042
▁confirm	-10.4049
▁ambassador	-10.4052
▁injury	-10.4052
▁desert	-10.4052
▁2001	-10.4058
▁selection	-10.406
war	-10.4063
▁strange	-10.4065
▁bloc	-10.4065
▁belt	-10.4067
cha	-10.407
▁flash	-10.4084
▁Nov	-10.4088
▁Gi	-10.4095
▁extreme	-10.41
▁Ver	-10.4101
▁editor	-10.4101
▁Wal	-10.4102
IN	-10.4105
iving	-10.4108
9%	-10.4109
▁Ten	-10.4114
▁Southern	-10.4116
▁pursue	-10.4116
▁consistent	-10.412
▁depression	-10.412
▁matters	-10.4121
▁youth	-10.4122
▁mention	-10.4122
▁begins	-10.4126
ria	-10.4132
ost	-10.4132
ez	-10.4133
pot	-10.4143
▁aside	-10.4144
oint	-10.4146
▁participants	-10.4146
▁charges	-10.4146
▁Sam	-10.4149
▁App	-10.4158
▁circuit	-10.4158
▁scholar	-10.4158
▁mutual	-10.4158
chan	-10.4159
▁split	-10.416
▁instant	-10.4162
▁Cal	-10.4167
▁wonderful	-10.418
▁crucial	-10.418
▁examination	-10.418
cel	-10.4181
▁marked	-10.4184
▁protest	-10.4186
▁raw	-10.4189
▁chosen	-10.4191
▁update	-10.4199
▁industries	-10.4201
▁prompt	-10.4201
▁breakfast	-10.4202
nia	-10.4203
▁brings	-10.4203
18	-10.4204
▁Food	-10.4204
▁critic	-10.4205
▁introduces	-10.4209
▁unable	-10.4214
▁deeply	-10.4223
▁machines	-10.4224
▁rational	-10.4227
wan	-10.4233
▁Bel	-10.4235
nor	-10.4238
▁recognition	-10.4244
▁ethnic	-10.4244
ibility	-10.4246
rad	-10.4249
RA	-10.4249
▁pipe	-10.4251
dom	-10.4253
▁sustain	-10.4261
▁closely	-10.4265
▁steal	-10.4266
▁James	-10.4266
▁angry	-10.4267
▁settle	-10.428
▁6.	-10.428
▁murder	-10.4288
▁personality	-10.4288
inter	-10.4305
▁fabric	-10.4309
▁Smith	-10.4309
▁Social	-10.431
▁Court	-10.431
▁beam	-10.4315
▁roads	-10.4317
▁mice	-10.4318
▁tourist	-10.4329
▁column	-10.4331
▁reputation	-10.4331
▁convert	-10.4332
▁compare	-10.4343
free	-10.4347
cker	-10.4349
▁margin	-10.4354
▁outcome	-10.4354
▁interface	-10.4354
▁resume	-10.4357
▁Ed	-10.4358
▁defect	-10.4362
using	-10.4362
%)	-10.4365
▁preparing	-10.4375
▁transaction	-10.4375
▁context	-10.4376
▁corn	-10.4384
▁humans	-10.4385
▁listening	-10.4387
LA	-10.4387
lum	-10.4388
▁pitch	-10.4393
▁affairs	-10.4398
▁Still	-10.4401
▁implementation	-10.4406
▁leads	-10.441
▁teams	-10.4412
▁claimed	-10.4412
▁possibly	-10.4419
▁hum	-10.4419
▁guess	-10.4419
wer	-10.442
▁salary	-10.4422
▁Ber	-10.4423
▁Latin	-10.4424
gon	-10.4426
▁difficulties	-10.4429
▁driven	-10.4431
▁wheel	-10.4433
vation	-10.4436
▁documents	-10.4436
▁Life	-10.4438
▁explains	-10.4438
sia	-10.4439
▁supplies	-10.4441
▁equivalent	-10.4441
▁reasonable	-10.4446
▁$3	-10.4447
▁entirely	-10.445
▁spi	-10.4452
▁Qing	-10.4464
▁seriously	-10.4467
▁east	-10.4471
zy	-10.4472
▁wing	-10.4472
▁positions	-10.4477
▁sequence	-10.4485
▁simulation	-10.4485
▁pilot	-10.4485
▁smartphone	-10.4486
▁ships	-10.4487
▁stands	-10.4489
▁contents	-10.449
ail	-10.449
▁Christ	-10.4492
▁beef	-10.4494
▁Burma	-10.4497
▁Win	-10.4499
▁replace	-10.4499
▁copy	-10.4501
▁invested	-10.4505
▁railway	-10.4508
Co	-10.451
itch	-10.4514
▁connected	-10.4514
AL	-10.4519
▁fulfill	-10.4523
table	-10.4526
▁archipelago	-10.4529
▁density	-10.453
tech	-10.4534
▁definitely	-10.4536
gate	-10.4536
▁rapidly	-10.4538
▁CO	-10.4539
90	-10.454
▁profile	-10.4546
▁chip	-10.4548
▁Pri	-10.455
▁independence	-10.4552
▁solutions	-10.4554
▁."	-10.4556
IT	-10.4559
▁solar	-10.4561
▁Wen	-10.4562
▁chat	-10.4563
▁completed	-10.4563
hua	-10.4567
▁graduates	-10.4569
▁complicated	-10.4574
▁carefully	-10.4574
▁verb	-10.4574
▁admitted	-10.4577
▁hill	-10.458
▁Jos	-10.458
▁minimum	-10.4596
▁depress	-10.4602
▁van	-10.4604
▁supporters	-10.4607
than	-10.4608
▁intended	-10.4608
▁frequently	-10.461
▁$5	-10.4613
▁flag	-10.4614
For	-10.4615
▁accounting	-10.4621
▁Pat	-10.4624
▁hoping	-10.4645
▁surgery	-10.4645
▁32	-10.4647
eu	-10.465
▁laid	-10.4653
west	-10.4655
▁investigated	-10.4659
▁Education	-10.4664
▁Professor	-10.4664
▁concentrate	-10.4664
▁fallen	-10.4665
▁entry	-10.4667
▁native	-10.4667
▁supporting	-10.4674
▁Feb	-10.4675
▁worried	-10.4686
▁witness	-10.4686
▁authors	-10.469
▁god	-10.4694
▁defined	-10.4695
▁democratic	-10.4698
kg	-10.4701
flow	-10.4707
ister	-10.4709
▁Trans	-10.4711
▁emerge	-10.4721
▁demands	-10.4722
▁Ob	-10.4722
▁Ph	-10.4722
vision	-10.4726
▁Dia	-10.4727
▁Special	-10.4732
▁observation	-10.4732
▁acting	-10.4733
▁raising	-10.4733
▁sustainable	-10.4737
▁bearing	-10.4739
▁Nor	-10.4741
▁processes	-10.4749
1)	-10.4749
wl	-10.4752
▁divorce	-10.4754
▁religious	-10.4754
▁pleasure	-10.4754
amine	-10.4755
▁evil	-10.4757
▁usual	-10.4768
▁speaker	-10.477
don	-10.4776
▁hardly	-10.4778
▁hate	-10.4782
▁gate	-10.4785
▁suffered	-10.4795
▁tomorrow	-10.48
▁brush	-10.48
▁sending	-10.4802
▁laser	-10.4806
▁fluid	-10.4807
▁assessment	-10.4808
▁cement	-10.4808
▁shoot	-10.4816
That	-10.4818
▁Kim	-10.4819
▁drama	-10.4819
nie	-10.482
▁sanctions	-10.4823
▁Company	-10.4823
▁fifth	-10.4823
▁ignore	-10.4823
▁fro	-10.4826
▁operator	-10.4833
▁thy	-10.4834
▁Ya	-10.4835
▁militants	-10.4842
▁teenage	-10.4846
▁broadcast	-10.4846
Mo	-10.4846
▁advise	-10.4851
▁suitable	-10.4856
▁generate	-10.4859
lip	-10.4862
$3	-10.4868
▁Agency	-10.4869
▁Look	-10.4874
tics	-10.4877
▁manufacture	-10.4877
▁CD	-10.4879
wing	-10.4886
▁rot	-10.4887
▁union	-10.4891
75	-10.4892
▁Spanish	-10.4892
▁spark	-10.4892
▁disc	-10.4894
▁plot	-10.4894
▁worldwide	-10.4896
ura	-10.4898
▁capable	-10.4901
▁possess	-10.4905
▁Did	-10.491
▁Va	-10.4913
▁mechanical	-10.4914
▁Afghan	-10.4915
▁proportion	-10.4915
▁unemployment	-10.4916
▁merely	-10.4916
▁juice	-10.4918
lac	-10.4918
face	-10.4923
▁Frank	-10.4923
EM	-10.4925
▁depends	-10.4926
hydr	-10.4927
▁jet	-10.4929
▁barrels	-10.4931
▁valid	-10.4938
▁destroy	-10.4938
vari	-10.4939
0.05)	-10.4941
range	-10.4948
▁demonstrate	-10.4951
▁holds	-10.4952
▁delight	-10.4955
plication	-10.4957
My	-10.4958
▁sensor	-10.4961
▁terminal	-10.4962
▁inner	-10.4962
▁habits	-10.4963
▁assistant	-10.4965
▁marry	-10.4966
▁Angeles	-10.4969
▁Op	-10.4973
▁considering	-10.4975
▁representative	-10.4977
▁networks	-10.4979
iation	-10.4981
▁Brown	-10.4985
▁surprised	-10.4985
▁taught	-10.4986
eira	-10.4995
exp	-10.4999
▁Pacific	-10.5005
▁burden	-10.5008
▁aged	-10.501
▁2009,	-10.5022
view	-10.5023
▁bro	-10.5028
▁Pu	-10.503
▁educational	-10.5031
▁VOA	-10.5031
▁sharing	-10.5031
▁plain	-10.5033
▁contest	-10.5035
▁spa	-10.5037
▁ski	-10.5045
this	-10.5046
▁bow	-10.5047
▁trace	-10.5048
▁flower	-10.5048
▁ties	-10.505
▁vacation	-10.5055
▁gro	-10.506
▁letters	-10.5063
▁promised	-10.5065
▁mess	-10.5068
got	-10.5071
IA	-10.5074
▁opponent	-10.5078
▁satellite	-10.5078
ND	-10.5081
▁selected	-10.5084
▁Qi	-10.5092
▁button	-10.5094
▁empty	-10.5102
▁occurred	-10.5104
▁reaching	-10.5105
ware	-10.5113
▁grab	-10.5116
▁describes	-10.5121
▁NATO	-10.5125
▁counterpart	-10.5126
(1	-10.5127
▁lady	-10.5131
▁hydro	-10.5135
▁experiments	-10.514
▁peaceful	-10.5141
yo	-10.5145
▁Xu	-10.5155
pu	-10.5159
▁meta	-10.5162
ption	-10.5163
▁rely	-10.5167
▁breath	-10.5171
▁Finance	-10.5173
▁proceed	-10.5173
ball	-10.5174
▁symptoms	-10.5177
eat	-10.5186
class	-10.5193
▁substance	-10.5196
▁cotton	-10.5196
▁thesis	-10.5197
▁DNA	-10.5201
ied	-10.5202
▁tip	-10.5206
strat	-10.5207
case	-10.5207
▁tired	-10.5209
▁Pakistani	-10.5212
▁champion	-10.522
▁decreased	-10.522
▁profits	-10.5222
AM	-10.5225
▁mud	-10.5225
▁plus	-10.5229
▁Good	-10.523
▁cuts	-10.5232
▁surprising	-10.5244
▁Use	-10.525
▁normally	-10.5253
▁hide	-10.5253
▁rocket	-10.5254
ET	-10.5255
Angola	-10.5264
▁analyst	-10.5268
▁resort	-10.5268
▁steam	-10.5268
made	-10.5269
▁division	-10.527
put	-10.5271
▁nearby	-10.5274
minate	-10.5277
hy	-10.5279
duction	-10.5284
▁lessons	-10.5287
ME	-10.5288
88	-10.5292
▁activist	-10.5292
test	-10.5293
▁panel	-10.5299
▁luck	-10.53
▁tie	-10.5302
▁fra	-10.5308
▁greatly	-10.5315
▁intellectual	-10.5316
▁committee	-10.5316
▁doctors	-10.5317
SP	-10.5318
Re	-10.5318
ux	-10.5318
gal	-10.5321
die	-10.5326
▁transformation	-10.5329
ui	-10.5332
card	-10.5336
▁Indonesia	-10.534
▁monetary	-10.534
▁expects	-10.5342
▁productivity	-10.5342
▁lung	-10.5343
▁monitoring	-10.5363
95	-10.5363
▁athlete	-10.5364
▁draft	-10.5364
▁apple	-10.5365
▁framework	-10.5365
itu	-10.5369
most	-10.5371
▁liver	-10.5376
$5	-10.5379
▁Republicans	-10.5384
▁fishing	-10.5386
▁collected	-10.5387
▁recorded	-10.5393
▁shirt	-10.5398
care	-10.5403
▁difficulty	-10.5405
▁Perhaps	-10.5413
▁structural	-10.5413
▁surrounding	-10.5413
▁surplus	-10.5413
▁gaming	-10.5413
▁Time	-10.5421
▁Jin	-10.5421
99	-10.5426
▁supported	-10.5426
87	-10.5427
▁Sept	-10.5435
fold	-10.5436
▁Hollywood	-10.5437
▁psychological	-10.5437
▁silver	-10.5437
▁Right	-10.5437
▁delegate	-10.5437
▁struck	-10.5438
▁founder	-10.5449
▁delivery	-10.5451
▁deals	-10.5453
▁mistakes	-10.5454
▁subjects	-10.5458
▁Out	-10.546
count	-10.546
▁sufficient	-10.5465
cture	-10.5466
▁react	-10.5467
▁aspect	-10.5469
▁regulations	-10.5471
▁wh	-10.5473
▁minor	-10.5473
▁Yan	-10.5476
▁Maybe	-10.5478
▁legs	-10.5483
▁Organization	-10.5486
▁Public	-10.5486
▁necessarily	-10.5486
▁overcome	-10.5486
▁Thailand	-10.5487
CT	-10.5488
vil	-10.5495
ette	-10.5495
ison	-10.5504
▁advertising	-10.551
▁descend	-10.551
▁false	-10.551
▁THE	-10.5511
▁Mrs	-10.5515
▁ordered	-10.5519
▁imm	-10.552
▁pour	-10.5529
▁liter	-10.553
box	-10.5535
▁tumor	-10.5536
gene	-10.5537
▁typically	-10.5543
▁houses	-10.5545
▁semi	-10.5546
▁noticed	-10.5548
▁define	-10.5551
maker	-10.5551
▁rip	-10.5554
▁stroke	-10.5556
II	-10.556
▁Keep	-10.5561
▁mentioned	-10.5564
▁Harry	-10.5567
play	-10.5569
▁proposals	-10.5571
▁reserve	-10.5573
grade	-10.5573
▁mono	-10.558
▁maintenance	-10.5584
▁nervous	-10.5584
▁theoretical	-10.5584
▁confront	-10.5586
▁mom	-10.5596
▁exploit	-10.5609
TA	-10.5611
▁stuck	-10.5613
▁everybody	-10.5614
▁sleeping	-10.5614
▁singer	-10.5618
▁rebels	-10.5628
▁coat	-10.5631
direct	-10.5632
▁System	-10.5634
▁patacas	-10.5634
▁About	-10.5636
▁emotions	-10.5639
▁quit	-10.5651
▁sensitive	-10.5653
▁Free	-10.5657
▁Guangzhou	-10.5659
▁aesthetic	-10.5659
▁translation	-10.566
vid	-10.5663
▁therapy	-10.5665
tz	-10.5665
▁illness	-10.5666
▁structures	-10.5668
kle	-10.5671
▁Joe	-10.5672
▁Rice	-10.5673
▁estimates	-10.5675
▁alive	-10.5679
▁phones	-10.5679
▁philosophy	-10.5684
ural	-10.5684
▁spec	-10.5685
▁teeth	-10.5685
▁winner	-10.5691
▁Gates	-10.5692
▁sing	-10.5692
▁moderate	-10.5692
▁watched	-10.5693
▁Martin	-10.5695
▁Moscow	-10.5709
▁Whether	-10.5709
▁communities	-10.5709
▁exposure	-10.5709
▁album	-10.5709
qi	-10.571
▁puts	-10.571
▁languages	-10.571
IP	-10.572
▁losses	-10.5721
PE	-10.5724
▁artificial	-10.5734
▁400	-10.5734
▁cheer	-10.5735
▁virtual	-10.5736
▁faced	-10.5739
angle	-10.5741
▁cable	-10.5746
▁2010,	-10.575
▁terrorism	-10.5757
▁item	-10.5757
▁creature	-10.5759
▁ultra	-10.5759
▁birthday	-10.5761
▁quantity	-10.5762
▁introduce	-10.5766
cation	-10.5773
▁regulation	-10.5774
▁containing	-10.5777
▁pose	-10.5777
▁Try	-10.5781
▁Harvard	-10.5784
▁explanation	-10.5784
▁encounter	-10.5784
SS	-10.5784
▁computers	-10.5792
▁Wei	-10.5802
▁analyses	-10.5808
▁anxiety	-10.5809
▁leaf	-10.581
▁organic	-10.5814
▁controlling	-10.5816
▁Ye	-10.5824
uk	-10.5824
▁IT	-10.5826
▁Nu	-10.5829
▁accord	-10.583
scale	-10.5832
▁removed	-10.5833
▁identity	-10.5835
▁Queen	-10.5835
▁breaking	-10.5835
▁totaled	-10.5839
▁swim	-10.5839
bul	-10.5841
▁Mil	-10.5842
dian	-10.5845
▁ore	-10.5845
▁pulled	-10.5848
▁partial	-10.585
▁Where	-10.5851
ncies	-10.5854
cade	-10.5859
▁administrative	-10.586
▁immediate	-10.5862
▁colon	-10.5865
▁crew	-10.5865
▁totally	-10.5869
▁careful	-10.5874
▁hire	-10.5874
cio	-10.5876
▁Florida	-10.5885
▁compensation	-10.5885
▁2014	-10.5888
▁1980	-10.589
▁Inc	-10.5896
▁wire	-10.5898
▁Ham	-10.5899
▁talked	-10.5899
▁institution	-10.5908
▁worker	-10.591
▁eliminate	-10.5911
▁chronic	-10.5911
▁Games	-10.5912
▁eastern	-10.592
▁crop	-10.5929
lves	-10.593
▁Verdean	-10.5936
▁analyzing	-10.5937
▁Federal	-10.5937
▁bubble	-10.5937
▁lake	-10.5947
▁Steve	-10.5947
rated	-10.595
ID	-10.5951
▁knowing	-10.5962
▁segment	-10.5962
▁roof	-10.5964
▁consideration	-10.5965
▁leak	-10.5966
▁starts	-10.5968
▁savings	-10.5968
▁digest	-10.5969
▁miss	-10.5973
▁electrical	-10.5973
▁reforms	-10.5977
▁seal	-10.5979
▁electro	-10.5982
ending	-10.5982
▁statistics	-10.5987
▁gentle	-10.5988
▁intense	-10.5989
mongst	-10.5996
stand	-10.5998
▁namely	-10.5998
▁absolutely	-10.6005
▁thinks	-10.6005
▁apparently	-10.6005
▁fur	-10.6008
▁poet	-10.601
je	-10.6011
▁readers	-10.6011
ographic	-10.6011
▁manifest	-10.6014
▁represented	-10.602
▁Mer	-10.6021
▁Roman	-10.6035
▁degrees	-10.6038
▁mirror	-10.604
▁casino	-10.604
▁telephone	-10.604
▁delivered	-10.604
▁brown	-10.6041
▁fool	-10.6044
▁consequences	-10.6051
▁employer	-10.6056
▁Tru	-10.6059
▁PC	-10.6062
▁communicate	-10.6066
▁Richard	-10.6066
▁couples	-10.6067
▁cancel	-10.6067
▁Program	-10.6067
▁shareholders	-10.6069
▁Post	-10.6069
▁mouse	-10.6071
▁properly	-10.6072
LE	-10.6072
▁Oct	-10.6075
▁links	-10.6077
▁Uni	-10.6078
makers	-10.608
▁applying	-10.6085
▁successfully	-10.6091
▁Texas	-10.6091
▁elected	-10.6092
▁ticket	-10.6093
fusion	-10.6096
▁impression	-10.6098
▁yes	-10.61
CC	-10.61
▁gear	-10.6102
CO	-10.6103
organ	-10.6105
▁bore	-10.6107
mail	-10.6109
▁Long	-10.6113
▁bull	-10.6115
▁pocket	-10.6117
▁breast	-10.6118
nam	-10.6118
▁officers	-10.6119
mission	-10.612
▁advantages	-10.6128
CE	-10.6129
▁workplace	-10.6129
space	-10.613
now	-10.613
cover	-10.6143
▁corporation	-10.6144
▁egg	-10.6152
tail	-10.6154
leg	-10.6155
▁refused	-10.6161
▁eggs	-10.6165
▁dimension	-10.6167
uch	-10.6168
▁Police	-10.617
▁superior	-10.617
born	-10.617
45	-10.6171
▁rough	-10.6175
▁runs	-10.6176
rick	-10.6177
EA	-10.6178
▁partly	-10.6179
▁lean	-10.6184
▁choices	-10.6184
hole	-10.6186
▁crush	-10.6189
Al	-10.6189
▁rats	-10.619
▁kid	-10.6192
▁convention	-10.6193
▁lend	-10.6196
▁picked	-10.6196
▁Province	-10.6196
▁amazing	-10.6196
▁gender	-10.6196
▁situations	-10.6201
▁genes	-10.6207
▁weigh	-10.6208
▁politicians	-10.6211
ola	-10.6212
▁universal	-10.6222
▁restaurants	-10.6224
▁acute	-10.6225
▁Cho	-10.6226
▁fold	-10.6229
▁deadline	-10.6231
flu	-10.6234
▁customs	-10.6246
▁listed	-10.6247
▁Studies	-10.6249
▁religion	-10.6249
▁tongue	-10.6249
▁cited	-10.6251
lian	-10.6252
▁gained	-10.6253
▁input	-10.6256
▁Report	-10.6256
empt	-10.626
▁unlikely	-10.6263
▁grave	-10.6271
▁Energy	-10.6275
▁Philip	-10.6276
▁files	-10.6277
▁Santo	-10.6288
Ca	-10.6289
▁shell	-10.629
▁requirement	-10.6291
▁rail	-10.6294
▁declared	-10.6295
pass	-10.63
eh	-10.6301
▁Greece	-10.6302
▁variation	-10.6302
away	-10.6303
▁tower	-10.6303
high	-10.6304
related	-10.6305
weight	-10.6307
▁suspect	-10.6309
type	-10.6318
▁resist	-10.6324
▁Yi	-10.6325
▁suicide	-10.6328
▁silk	-10.6328
turn	-10.633
▁pride	-10.6331
from	-10.6336
NE	-10.6336
▁euro	-10.6336
▁strongly	-10.6342
berg	-10.6345
▁indicates	-10.6347
▁functional	-10.6348
▁promoting	-10.6355
▁injured	-10.6355
▁architecture	-10.6356
▁friendly	-10.6357
piece	-10.6359
▁Lan	-10.636
▁feels	-10.6365
▁Thank	-10.637
▁bell	-10.6372
▁chose	-10.6377
▁dating	-10.6377
▁facility	-10.6382
▁zero	-10.6382
▁patent	-10.6382
▁sca	-10.6383
76	-10.6388
▁Compar	-10.6396
89	-10.6399
▁Bal	-10.6401
▁productive	-10.6405
▁favour	-10.6407
▁install	-10.6408
▁exhaust	-10.6408
▁oxygen	-10.6408
ku	-10.6409
▁alleged	-10.6409
▁mixture	-10.6409
ik	-10.6411
▁consultant	-10.6412
word	-10.6412
▁arrangement	-10.6413
fur	-10.6418
▁lit	-10.6418
▁happening	-10.6419
▁organized	-10.6419
▁Ste	-10.6426
ruc	-10.6429
▁prior	-10.643
▁provinces	-10.6431
▁organize	-10.6431
▁polls	-10.6432
BS	-10.6432
▁distinguish	-10.6435
▁iPad	-10.6435
▁barrier	-10.6436
▁girlfriend	-10.6436
▁managing	-10.6439
▁excuse	-10.6441
▁nail	-10.6444
▁Grand	-10.6449
tell	-10.6451
▁imported	-10.6455
▁shake	-10.6464
▁hardware	-10.6465
▁description	-10.6467
▁attended	-10.6471
▁tries	-10.6482
▁asset	-10.6485
▁Ang	-10.6488
▁Learning	-10.6488
▁Sonangol	-10.6489
▁reconstruction	-10.6489
13	-10.649
▁discusses	-10.6495
▁scan	-10.6503
ugg	-10.6515
▁diagnosis	-10.6516
▁principal	-10.6516
▁examine	-10.6517
▁vegetables	-10.6521
▁shooting	-10.6525
EL	-10.6532
temp	-10.6533
As	-10.654
▁Industry	-10.6544
▁click	-10.6544
▁breed	-10.6544
▁pal	-10.6545
▁serving	-10.6548
berry	-10.6548
▁foods	-10.6549
▁container	-10.6552
▁protests	-10.6557
▁involves	-10.656
▁Love	-10.6564
▁examples	-10.6568
▁parallel	-10.6571
▁latter	-10.6571
▁Thus	-10.658
17	-10.6589
35	-10.6589
▁golden	-10.6595
86	-10.6596
roll	-10.6598
▁Investment	-10.6598
▁liberal	-10.6598
▁calories	-10.6599
▁discipline	-10.661
yard	-10.6616
wear	-10.6618
▁capture	-10.662
▁Official	-10.6626
▁Soviet	-10.6626
▁heavily	-10.6626
▁Several	-10.6626
▁incentive	-10.6626
just	-10.6626
▁fortune	-10.6626
ban	-10.6626
▁Director	-10.6636
emia	-10.6636
▁hotels	-10.6637
holder	-10.6637
▁investing	-10.6639
▁bat	-10.6644
▁passing	-10.6646
▁destroyed	-10.6653
tional	-10.6653
▁savage	-10.6653
3,000	-10.6653
▁Gen	-10.6656
▁basin	-10.6657
▁damaged	-10.6662
▁diplomat	-10.6663
▁waves	-10.6665
▁BP	-10.6668
▁$4	-10.6672
▁cooking	-10.6676
▁LORD	-10.6681
▁judgment	-10.6681
▁coalition	-10.6683
▁opt	-10.6691
▁arrested	-10.6694
▁dose	-10.6696
▁ci	-10.6698
▁tips	-10.6705
will	-10.6708
▁participate	-10.6708
▁Furthermore	-10.6708
▁Ty	-10.6709
▁determination	-10.6712
▁achievement	-10.6713
thy	-10.6714
ula	-10.6719
▁expanding	-10.6721
▁AC	-10.6722
itting	-10.6731
▁charged	-10.6731
where	-10.6733
▁helpful	-10.6735
▁injection	-10.6736
▁Moreover	-10.6738
▁Being	-10.6741
▁download	-10.6747
▁mold	-10.6748
style	-10.6751
▁exposed	-10.6751
67	-10.6754
68	-10.6756
▁Putin	-10.6759
▁saving	-10.6761
▁hor	-10.6762
66	-10.6762
▁involving	-10.6764
▁steady	-10.6764
▁counsel	-10.6764
▁targets	-10.677
▁gather	-10.6776
▁cake	-10.6782
▁detailed	-10.6784
▁variable	-10.6792
▁personnel	-10.6792
▁dismiss	-10.6793
▁factories	-10.6799
▁moves	-10.6814
▁interact	-10.6815
▁stocks	-10.6817
▁Academy	-10.6819
▁Chicago	-10.6819
▁chocolate	-10.6819
▁continuing	-10.6819
▁labour	-10.682
▁thread	-10.6821
▁childhood	-10.6822
▁discount	-10.6823
▁headed	-10.6835
▁Olympics	-10.6837
▁executives	-10.6837
14	-10.6837
active	-10.6838
bing	-10.6838
▁extended	-10.684
▁Mal	-10.6842
▁Does	-10.6843
▁enormous	-10.6847
▁wisdom	-10.6847
▁ruling	-10.6848
ogue	-10.6849
▁acquired	-10.685
▁integration	-10.6851
▁addict	-10.6852
eb	-10.6855
▁linear	-10.6856
▁hoped	-10.6859
▁amid	-10.6862
have	-10.6862
▁Fan	-10.6864
▁praise	-10.687
▁graph	-10.6873
▁consortium	-10.6876
▁landscape	-10.6876
▁technological	-10.6876
pat	-10.6876
▁Hamas	-10.6879
▁somewhere	-10.6886
pac	-10.6887
bound	-10.6888
▁dad	-10.6892
MP	-10.6892
has	-10.6893
road	-10.6893
▁cargo	-10.6896
▁corresponding	-10.6904
▁Malaysia	-10.6904
▁aggressive	-10.6904
▁desperate	-10.6904
▁casual	-10.6904
▁records	-10.6905
▁Arm	-10.6907
▁Comp	-10.691
control	-10.6915
▁ultimately	-10.6922
▁bitter	-10.6924
▁invited	-10.6925
▁urged	-10.6928
▁combine	-10.6928
▁flexible	-10.6932
▁strategies	-10.6932
▁Real	-10.6933
▁150	-10.6934
▁amounts	-10.6934
▁entertainment	-10.6935
▁Fair	-10.6943
▁Hill	-10.6954
cord	-10.6958
▁reject	-10.6961
▁restore	-10.6961
▁nineteen	-10.6962
▁hy	-10.6964
▁bonds	-10.6967
cou	-10.6968
aging	-10.6975
▁stations	-10.6982
▁deploy	-10.6983
77	-10.6984
▁smoking	-10.6989
▁preserve	-10.699
▁wheat	-10.699
tant	-10.6991
▁colors	-10.6992
▁literary	-10.6992
▁coll	-10.6994
▁earned	-10.6996
▁Huang	-10.6998
64	-10.7002
clo	-10.7009
▁newly	-10.7017
▁temporary	-10.7017
▁tonnes	-10.7018
▁provision	-10.702
▁agenda	-10.7021
mph	-10.7021
▁36	-10.7027
▁settlement	-10.7028
gel	-10.7032
▁Guangdong	-10.7046
▁retain	-10.7046
while	-10.7054
▁detection	-10.7054
aunt	-10.7055
▁employ	-10.7055
▁walls	-10.7055
plan	-10.7058
▁magnet	-10.7063
▁chances	-10.7069
▁assist	-10.707
▁negotiate	-10.7074
▁applicant	-10.7074
▁dancing	-10.7074
▁Study	-10.7074
▁ministry	-10.7074
▁Jesus	-10.7075
▁prize	-10.7076
▁edition	-10.708
▁publish	-10.7092
▁Army	-10.7095
rich	-10.71
▁fears	-10.7102
▁uniform	-10.7103
▁composition	-10.7104
▁commit	-10.7105
▁Iranian	-10.711
cast	-10.711
▁Find	-10.7112
keeper	-10.7114
▁diameter	-10.7132
▁Shan	-10.7132
▁neighborhood	-10.7133
2)	-10.7133
▁Having	-10.7137
▁modest	-10.7142
connect	-10.7145
▁Tang	-10.7146
▁reverse	-10.7148
▁gathered	-10.7151
▁2007.	-10.7151
▁fir	-10.7152
▁induced	-10.7153
▁guests	-10.7159
▁Global	-10.7161
commerce	-10.7162
▁discovery	-10.7165
▁rebel	-10.7185
▁sweat	-10.7191
ogen	-10.7195
▁copper	-10.7195
American	-10.7201
▁Vo	-10.7203
cient	-10.7208
▁mate	-10.7209
▁regret	-10.7219
▁declined	-10.7222
non	-10.7222
ire	-10.7226
aire	-10.7226
,500	-10.7231
gh	-10.7235
▁naturally	-10.7235
▁cure	-10.724
▁Ger	-10.7242
▁correlation	-10.7248
▁royal	-10.7248
reas	-10.725
▁Jiang	-10.7252
▁actress	-10.7252
▁Oh	-10.7259
▁ending	-10.7259
▁Libya	-10.7259
▁gang	-10.7272
▁supplier	-10.7277
▁immune	-10.7277
▁psychology	-10.7277
▁keen	-10.7278
▁Gar	-10.7279
▁cease	-10.7279
▁estimate	-10.7283
▁poem	-10.7283
MI	-10.7284
▁Water	-10.7287
yu	-10.7296
iest	-10.7296
▁competitor	-10.7307
▁intervention	-10.7307
▁matrix	-10.7307
▁absence	-10.7307
▁producer	-10.731
▁critics	-10.7313
▁attracted	-10.7316
cm	-10.7322
band	-10.7326
▁authentic	-10.7336
▁receiving	-10.7336
▁shadow	-10.7336
▁Without	-10.7348
▁trail	-10.7351
▁generated	-10.7351
▁Oil	-10.7351
wo	-10.7352
▁branches	-10.7356
▁lips	-10.7356
▁sul	-10.7359
wise	-10.7362
▁municipal	-10.7366
▁sought	-10.7366
▁poison	-10.7367
▁consciousness	-10.7369
▁lip	-10.7371
▁somewhat	-10.7371
yang	-10.7376
▁gall	-10.738
foot	-10.7381
▁permit	-10.7384
▁initially	-10.7387
lumin	-10.7394
▁sorry	-10.7396
▁boyfriend	-10.7396
▁dish	-10.7397
▁orange	-10.7399
agon	-10.7401
was	-10.7404
▁signals	-10.7407
▁establishment	-10.7408
ddy	-10.7408
▁Researchers	-10.7409
▁distributed	-10.741
uble	-10.7411
▁withdraw	-10.7412
91	-10.7414
▁tap	-10.7418
more	-10.7418
▁associate	-10.7421
▁guys	-10.7421
ifying	-10.7422
▁introduction	-10.7425
?”	-10.7425
▁auction	-10.7425
▁urgent	-10.7426
▁covering	-10.7427
▁automatically	-10.7427
▁classroom	-10.7427
▁ranking	-10.7428
▁Cor	-10.7429
▁visiting	-10.7442
▁molecule	-10.7455
▁stomach	-10.7455
▁violent	-10.7455
▁conventional	-10.7458
▁humor	-10.7465
▁Kenya	-10.7467
chemical	-10.7468
▁exhibit	-10.7476
▁Taliban	-10.7484
▁council	-10.7484
▁default	-10.7484
▁Charles	-10.7486
▁suggestions	-10.7486
▁hiring	-10.7487
▁developers	-10.7488
rian	-10.7488
fish	-10.749
▁medal	-10.749
▁registered	-10.7491
pit	-10.7492
▁county	-10.7495
▁theories	-10.7497
mini	-10.7497
▁fired	-10.7498
▁sy	-10.7499
OC	-10.75
▁script	-10.7505
▁limits	-10.7506
▁intensity	-10.7514
▁scenario	-10.7514
▁survival	-10.7514
▁cheese	-10.7514
▁radiation	-10.7514
▁extensive	-10.7515
▁brands	-10.7516
▁depict	-10.7516
▁fri	-10.7519
▁funny	-10.7519
▁songs	-10.7527
DS	-10.7534
char	-10.7542
SE	-10.7544
▁Amazon	-10.7544
▁cluster	-10.7544
▁conservative	-10.7544
▁domain	-10.7545
▁alloy	-10.7546
▁Rob	-10.7548
▁visa	-10.7556
▁graphic	-10.7557
▁Luc	-10.7565
PC	-10.7566
▁oxid	-10.7574
▁obligation	-10.7575
▁bargain	-10.7575
▁universe	-10.7575
▁stain	-10.7582
chlor	-10.7587
▁node	-10.7589
▁potentially	-10.759
$4	-10.7592
ulated	-10.76
▁75	-10.7603
▁chapter	-10.7605
▁satisfy	-10.7605
▁sponsor	-10.7605
▁Greek	-10.7605
▁Design	-10.7605
▁engaged	-10.7607
▁Egyptian	-10.7608
▁anywhere	-10.7611
▁dependent	-10.7616
found	-10.762
▁Bay	-10.7627
nate	-10.7635
▁warn	-10.7635
used	-10.764
▁burst	-10.764
EP	-10.7644
▁rating	-10.7644
nar	-10.7645
▁brave	-10.7646
▁chest	-10.7646
▁commander	-10.7647
0.0	-10.7654
law	-10.7658
▁proof	-10.766
▁Communist	-10.7665
▁array	-10.7666
itude	-10.7667
pol	-10.7668
dimensional	-10.7668
▁Mill	-10.767
▁threatened	-10.767
▁shouldn	-10.7671
▁regarded	-10.7671
▁Kar	-10.7672
▁singing	-10.7675
▁provider	-10.7677
▁transportation	-10.7681
▁repeat	-10.7682
▁lucky	-10.7688
PP	-10.769
▁popularity	-10.7693
TH	-10.7693
▁category	-10.7696
▁lowest	-10.7696
▁leap	-10.7699
product	-10.7701
▁basically	-10.7705
▁flo	-10.7708
▁representatives	-10.7708
▁regulator	-10.7709
▁flame	-10.7709
▁Jobs	-10.7712
mond	-10.7717
▁33	-10.7717
▁Star	-10.7719
aria	-10.7721
dra	-10.7724
▁accuracy	-10.7727
▁reinforce	-10.7727
▁intend	-10.7731
▁deserve	-10.7731
▁fed	-10.7734
ella	-10.7734
key	-10.7735
▁wound	-10.7745
agger	-10.7754
▁lecture	-10.7758
sses	-10.7761
aff	-10.7761
▁Super	-10.7764
▁lifetime	-10.7771
▁consume	-10.7775
▁Ven	-10.778
▁regularly	-10.7784
cat	-10.7786
▁constitution	-10.7788
▁declaration	-10.7788
▁ingredient	-10.7788
▁servant	-10.7788
▁swimming	-10.7789
79	-10.7792
▁particles	-10.7793
▁squa	-10.7801
ude	-10.7802
▁seats	-10.7802
conscious	-10.7805
▁attach	-10.7807
▁insect	-10.7808
RO	-10.7813
escent	-10.7814
▁calculated	-10.7814
▁celebrate	-10.7816
media	-10.7817
▁Sudan	-10.7819
▁harvest	-10.7819
▁substantial	-10.7819
▁measuring	-10.7819
▁biological	-10.7822
▁mature	-10.7828
ata	-10.7835
xin	-10.7836
tration	-10.7838
▁vary	-10.7838
▁Sand	-10.7841
▁anniversary	-10.785
▁Tokyo	-10.785
▁spiritual	-10.7853
▁guilty	-10.7857
0.5	-10.7857
▁continuous	-10.7858
▁scope	-10.7861
▁drinks	-10.7869
▁museum	-10.7881
▁module	-10.7881
▁producers	-10.7884
CR	-10.7886
▁founded	-10.7886
liness	-10.7898
▁differ	-10.7907
▁propose	-10.7911
▁creativity	-10.7912
▁emphasize	-10.7912
▁obstacle	-10.7912
▁Besides	-10.7912
▁Forum	-10.7912
▁kit	-10.7913
▁infant	-10.7914
psy	-10.7915
▁pushing	-10.7917
▁mum	-10.7917
▁scr	-10.7918
▁dim	-10.7924
▁attached	-10.7928
▁dare	-10.7929
hn	-10.7933
▁Pyongyang	-10.7943
▁Bureau	-10.7944
▁annoy	-10.7944
▁profound	-10.7945
gest	-10.7946
▁plum	-10.7947
▁accomplish	-10.7948
ulating	-10.795
▁protesters	-10.7952
▁crude	-10.7953
▁buyers	-10.7956
structure	-10.7957
aga	-10.7968
▁acknowledge	-10.7972
▁acquire	-10.7972
IL	-10.7973
▁flesh	-10.7975
▁headquarters	-10.7975
ford	-10.7975
such	-10.7991
▁arrest	-10.7992
(2	-10.7992
▁slice	-10.7993
▁65	-10.7998
▁Pra	-10.8001
▁Mad	-10.8002
▁Treasury	-10.8006
▁numerous	-10.8006
▁silence	-10.8006
▁crazy	-10.8006
▁volunteers	-10.8012
▁expenses	-10.8016
friend	-10.8023
▁engage	-10.803
▁procedures	-10.8035
there	-10.8037
▁arrival	-10.8038
▁assembly	-10.8038
▁emphasis	-10.8038
▁neighbour	-10.8038
▁historic	-10.804
▁parameter	-10.8043
How	-10.8043
▁Arch	-10.8044
▁specifically	-10.8045
taking	-10.8047
▁till	-10.8048
▁Johnson	-10.8048
▁operators	-10.8056
eller	-10.8057
CB	-10.8058
▁badly	-10.806
▁Sol	-10.8065
ocyte	-10.8065
▁Administration	-10.8069
▁sacrifice	-10.8069
▁indicator	-10.8069
▁Next	-10.8069
▁coefficient	-10.807
▁scores	-10.8071
OP	-10.8073
▁traveling	-10.8082
▁terror	-10.8082
post	-10.8085
burg	-10.8088
23	-10.8096
▁electron	-10.81
▁abnormal	-10.8101
▁furniture	-10.8101
▁rabbit	-10.8101
▁drain	-10.8102
▁radical	-10.8102
▁Cooperation	-10.8102
▁Indeed	-10.8102
▁Francisco	-10.8102
▁feedback	-10.8103
▁islands	-10.8106
▁focusing	-10.8107
▁mask	-10.8108
▁achievements	-10.8112
CD	-10.8113
known	-10.8115
▁stranger	-10.8116
▁48	-10.8123
quest	-10.8126
▁Chu	-10.8127
▁Dynasty	-10.8133
▁League	-10.8133
▁Zhou	-10.8133
▁Ocean	-10.8133
▁excited	-10.8133
▁sauce	-10.8133
▁Henry	-10.8133
▁37	-10.8136
▁lifestyle	-10.814
▁weapon	-10.814
▁pit	-10.8141
▁presentation	-10.8142
▁emerged	-10.8148
▁deny	-10.8151
surge	-10.8152
claim	-10.8155
itz	-10.8159
▁Far	-10.8164
▁graduation	-10.8165
▁agents	-10.8174
▁alien	-10.8175
▁NO	-10.8178
▁rarely	-10.8179
▁equally	-10.8186
▁Cer	-10.8188
▁pounds	-10.8189
▁logic	-10.819
85	-10.8192
month	-10.8193
▁exclusive	-10.8197
▁intelligent	-10.8197
▁prince	-10.8197
▁Think	-10.8198
▁elsewhere	-10.8198
▁Remember	-10.8198
▁Spring	-10.82
▁Er	-10.8202
▁mg	-10.8202
though	-10.8206
▁toilet	-10.8208
▁char	-10.8211
▁pushed	-10.8212
▁Char	-10.8219
mobil	-10.822
▁Ask	-10.8222
▁34	-10.8226
▁essence	-10.8229
hol	-10.823
▁1999	-10.8233
▁awareness	-10.8236
▁bite	-10.8241
▁Barr	-10.8243
▁forever	-10.8244
▁lying	-10.8246
unk	-10.8249
tai	-10.8251
TE	-10.8253
▁Earlier	-10.8261
▁nurse	-10.8262
▁Hillary	-10.8264
▁lust	-10.8274
▁burning	-10.8285
▁excess	-10.8291
▁maker	-10.8292
▁Shenzhen	-10.8294
▁Turkey	-10.8294
▁deliberate	-10.8294
▁pursuit	-10.8294
▁reliable	-10.8294
▁integrated	-10.8295
▁Multi	-10.8296
▁metres	-10.8298
asse	-10.8298
▁involve	-10.83
far	-10.8304
▁nut	-10.8307
▁disadvantage	-10.8326
▁serum	-10.8332
▁crops	-10.8333
▁grasp	-10.8333
▁tape	-10.8334
▁ads	-10.8339
▁passage	-10.8339
after	-10.8348
▁impress	-10.835
▁tele	-10.8352
▁cri	-10.8354
▁orbit	-10.8354
mel	-10.8355
▁maxim	-10.8357
▁hidden	-10.8359
▁ownership	-10.8361
ended	-10.8361
order	-10.8363
boy	-10.8369
▁exists	-10.837
ache	-10.837
▁coverage	-10.8372
udge	-10.8375
▁AD	-10.8388
▁shortage	-10.8389
▁underway	-10.839
new	-10.839
▁Defense	-10.8391
▁cigarette	-10.8391
▁Corporation	-10.8391
▁tendency	-10.8394
▁bare	-10.8397
▁Song	-10.8399
▁plea	-10.84
▁blend	-10.84
▁Cheng	-10.8402
▁battery	-10.8402
▁enjoyed	-10.8405
100	-10.8407
▁swing	-10.8407
▁probe	-10.8414
Our	-10.8414
cum	-10.8417
▁detected	-10.8418
▁immigrant	-10.8424
▁stimulus	-10.8424
▁shout	-10.8426
▁gay	-10.8437
48	-10.8437
▁coup	-10.8437
▁somebody	-10.8442
▁mall	-10.8444
▁tune	-10.8446
PO	-10.8453
oz	-10.8459
-20	-10.8459
▁captured	-10.8465
oxy	-10.8465
▁modernization	-10.8471
▁OK	-10.8477
▁Due	-10.8478
lysis	-10.8481
▁interpret	-10.8482
gla	-10.849
▁demonstration	-10.849
▁choosing	-10.849
▁trillion	-10.849
▁Samsung	-10.849
▁sudden	-10.85
▁nomination	-10.8504
▁recognized	-10.8513
▁inspired	-10.8513
▁Euro	-10.8523
▁extension	-10.8523
▁privacy	-10.8523
▁Valley	-10.8524
▁translate	-10.8525
▁manufacturer	-10.8527
▁payments	-10.8528
▁examined	-10.8531
▁halt	-10.8532
▁conscious	-10.8535
bre	-10.8536
▁artistic	-10.8538
▁exact	-10.8539
▁everyday	-10.8539
shaped	-10.8549
▁unexpected	-10.8556
▁defence	-10.8556
▁alliance	-10.8557
▁greet	-10.8559
▁pipeline	-10.8559
easing	-10.8563
▁spare	-10.8579
▁Za	-10.8581
▁Set	-10.8586
lecommunications	-10.859
▁kilometres	-10.859
▁everywhere	-10.8594
▁damp	-10.8602
▁Auto	-10.8607
▁rejected	-10.8611
IR	-10.8612
third	-10.8614
▁citizen	-10.862
▁Financial	-10.8623
▁embrace	-10.8623
▁pregnant	-10.8623
▁disrupt	-10.8623
▁heaven	-10.8623
▁mould	-10.8624
▁backward	-10.8624
▁spell	-10.8628
▁earnings	-10.8628
▁journalists	-10.8629
▁inspection	-10.8631
▁Force	-10.8636
cias	-10.8637
▁nobody	-10.8638
▁fees	-10.8639
ouch	-10.8642
▁neuro	-10.8648
▁advocate	-10.8657
▁syndrome	-10.8657
▁tobacco	-10.8657
▁Saudi	-10.8657
▁grateful	-10.8657
▁malaria	-10.8657
▁denied	-10.8658
izer	-10.8659
▁letting	-10.8661
▁Sil	-10.8662
▁bonus	-10.8664
▁Santa	-10.8673
▁attacked	-10.8677
▁abandon	-10.8678
▁Language	-10.869
She	-10.8692
▁glad	-10.8693
▁38	-10.8698
▁tooth	-10.8699
▁alert	-10.8701
▁drilling	-10.8703
▁employed	-10.8711
ppy	-10.8712
Th	-10.8717
▁commonly	-10.8718
nger	-10.872
▁math	-10.8722
▁vertical	-10.8725
▁charm	-10.8727
▁entrepreneurs	-10.8728
▁Doctor	-10.8729
▁preference	-10.873
▁Tro	-10.8731
▁Mari	-10.8732
▁exported	-10.8735
▁emotion	-10.8739
▁Mali	-10.8742
other	-10.8743
▁Flo	-10.8746
▁statistical	-10.8746
▁barely	-10.8749
▁Read	-10.8751
▁volunteer	-10.8751
▁Zhu	-10.8756
▁Canadian	-10.8758
▁Scientists	-10.8758
▁protocol	-10.8758
▁ambition	-10.8758
▁1,000	-10.8759
▁capability	-10.8761
▁hypo	-10.8762
▁Feng	-10.8776
mol	-10.8777
▁stressed	-10.8778
▁entering	-10.879
▁tickets	-10.8792
▁condemn	-10.8792
▁convenient	-10.8792
▁widespread	-10.8792
▁rebuild	-10.8792
▁ecological	-10.8792
▁convey	-10.8792
▁handling	-10.8795
TC	-10.8802
oriented	-10.8808
▁manufacturers	-10.881
▁fee	-10.8819
▁cleaning	-10.8825
▁Festival	-10.8826
▁Macauhub	-10.8826
▁accelerate	-10.8826
▁arbitra	-10.8826
▁perfectly	-10.8829
▁anyway	-10.8832
▁Stra	-10.8833
▁Product	-10.8833
▁Road	-10.884
21	-10.8841
▁staying	-10.8842
ram	-10.8843
▁investor	-10.8848
▁Bon	-10.8849
▁Sho	-10.8849
84	-10.8852
▁portion	-10.8856
▁roughly	-10.8856
▁motivate	-10.886
▁understood	-10.886
▁Scott	-10.886
▁eager	-10.8861
▁inherit	-10.8861
▁bedroom	-10.8863
▁grape	-10.8867
▁musical	-10.8871
▁apparent	-10.8872
▁possession	-10.8876
▁limb	-10.888
▁surely	-10.8885
▁reflection	-10.8888
▁blank	-10.8891
▁Spe	-10.8893
▁Ken	-10.8894
▁decent	-10.8894
▁genuine	-10.8895
▁qualities	-10.8895
▁babies	-10.8895
▁behalf	-10.8895
▁voting	-10.8895
▁Kingdom	-10.8895
▁thermal	-10.8896
▁treating	-10.8902
▁wealthy	-10.8906
▁machinery	-10.891
▁DO	-10.8916
tention	-10.8924
▁prospects	-10.8929
▁accumulate	-10.8929
▁motivation	-10.8929
▁Management	-10.8929
▁Cy	-10.8935
▁Jane	-10.894
▁dozens	-10.8944
▁stated	-10.895
▁systematic	-10.8952
OD	-10.8954
▁peers	-10.8955
▁implemented	-10.8961
▁affection	-10.8961
▁humanitarian	-10.8964
▁treasure	-10.8964
▁twist	-10.8964
▁emissions	-10.8964
▁passenger	-10.8964
▁sink	-10.8966
MD	-10.8969
▁(1	-10.8969
hui	-10.897
▁Start	-10.8973
▁trap	-10.8973
hrew	-10.8974
break	-10.8976
▁influenced	-10.8979
▁abilities	-10.8982
Con	-10.8993
had	-10.8993
OL	-10.8993
▁deadly	-10.8994
▁gathering	-10.8996
▁specialist	-10.8998
▁Islamic	-10.8999
▁persuade	-10.8999
▁glance	-10.8999
▁cyber	-10.8999
▁Jones	-10.9003
▁dump	-10.9005
▁butter	-10.9009
kar	-10.9015
▁economists	-10.9019
▁Ana	-10.9022
▁makers	-10.9024
▁prevention	-10.9025
usive	-10.9025
3.5	-10.9026
▁bend	-10.9027
▁See	-10.9031
▁Sir	-10.9032
▁celebration	-10.9033
▁compromise	-10.9033
▁medication	-10.9033
▁Zhao	-10.9033
▁Daniel	-10.9033
▁exciting	-10.9034
▁Book	-10.9049
▁Alex	-10.9049
An	-10.9049
▁somehow	-10.9051
▁hack	-10.9053
▁dear	-10.9054
98	-10.9059
▁Shen	-10.906
▁weekly	-10.9066
cub	-10.9067
▁beneath	-10.9068
▁Would	-10.9068
▁visible	-10.9069
Monetary	-10.9069
▁Power	-10.907
LC	-10.9072
standing	-10.9078
MC	-10.9081
▁handed	-10.9089
▁bother	-10.9106
▁Cuba	-10.9106
▁excessive	-10.9108
▁saved	-10.9108
0.01)	-10.9111
69	-10.9112
▁slide	-10.9114
punct	-10.9115
▁resulting	-10.9116
▁Key	-10.9117
fuse	-10.9118
▁Jun	-10.9122
▁Put	-10.9122
28	-10.9124
24	-10.9126
65	-10.9128
▁challenging	-10.9139
▁struggling	-10.9139
▁terrible	-10.9139
▁optimal	-10.9139
▁regulate	-10.9139
▁highway	-10.914
lio	-10.9141
▁regardless	-10.9142
▁permission	-10.9144
▁Angel	-10.9146
worm	-10.9149
logic	-10.9149
▁dedicated	-10.9151
▁loop	-10.9152
▁replaced	-10.9157
▁Following	-10.9162
▁600	-10.9164
hang	-10.9166
▁Camp	-10.9167
53	-10.9168
▁prominent	-10.9174
▁businesspeople	-10.9177
▁accordance	-10.9178
▁snap	-10.9179
▁civilization	-10.9181
▁minority	-10.9181
▁restrain	-10.9182
front	-10.9186
▁absolute	-10.9186
▁crown	-10.9187
▁twin	-10.919
PR	-10.9191
Be	-10.9196
▁entrance	-10.9209
▁ethanol	-10.9209
▁voted	-10.9211
▁discharge	-10.9211
05	-10.9212
▁Zo	-10.9224
▁refuse	-10.9225
ground	-10.9225
▁derived	-10.9227
▁returning	-10.9228
▁valued	-10.9229
▁stir	-10.9235
▁maintaining	-10.9236
▁mathematic	-10.9239
▁trained	-10.924
▁Which	-10.9245
▁silicon	-10.9245
▁valve	-10.9246
▁Back	-10.9246
▁fairly	-10.9246
▁bud	-10.9247
▁Lake	-10.9254
Li	-10.9254
▁victim	-10.9254
ulous	-10.9256
▁homo	-10.9268
▁bri	-10.9269
▁crossing	-10.9277
▁Young	-10.928
▁portfolio	-10.9281
▁prediction	-10.9281
▁laboratory	-10.9282
▁SA	-10.9282
DM	-10.9284
▁thou	-10.9285
▁1970	-10.9287
▁rh	-10.9291
▁Congo	-10.9299
▁lesson	-10.9304
▁wore	-10.9316
▁Statistics	-10.9317
▁reservoir	-10.9317
▁47	-10.9318
▁1.5	-10.9319
▁arise	-10.9322
▁Press	-10.9324
chang	-10.9324
door	-10.9332
▁slight	-10.9338
▁stab	-10.9338
▁dr	-10.9341
▁fake	-10.9345
xia	-10.9345
including	-10.9348
▁disappointed	-10.9349
▁explosion	-10.9353
▁vulnerable	-10.9353
▁Student	-10.9353
▁memories	-10.9353
▁demanding	-10.9355
▁realistic	-10.9366
ifies	-10.9368
eau	-10.937
▁Ve	-10.937
▁painful	-10.9371
▁Adam	-10.9375
▁opposed	-10.9376
▁satisfied	-10.9389
▁vaccine	-10.9389
▁HIV	-10.9389
▁Space	-10.9389
▁atom	-10.9391
▁conclude	-10.9391
▁literally	-10.9391
serving	-10.9395
▁ultimate	-10.9402
▁targeted	-10.9408
▁installed	-10.9415
▁bike	-10.9415
▁depending	-10.9419
▁Virginia	-10.9425
▁fracture	-10.9425
▁transmit	-10.9426
nthrop	-10.9426
▁recommended	-10.9426
▁fiction	-10.9429
▁cruise	-10.943
aught	-10.943
▁Five	-10.9433
▁elderly	-10.9437
▁cheat	-10.9438
▁economist	-10.944
▁Jia	-10.9442
▁55	-10.9444
▁allies	-10.9449
▁promoted	-10.9451
26	-10.9452
▁attraction	-10.9455
▁projection	-10.9455
▁repeated	-10.9457
▁0.0	-10.9458
▁format	-10.946
▁spray	-10.9464
▁Foundation	-10.9464
▁charity	-10.9467
ING	-10.9468
▁limitation	-10.9469
▁stored	-10.9469
▁crowded	-10.9472
▁notion	-10.9473
▁hip	-10.9481
▁delayed	-10.9482
DE	-10.9487
▁reader	-10.9491
78	-10.9498
▁Ltd	-10.95
▁optical	-10.9502
NT	-10.9503
▁ruin	-10.9508
gui	-10.9508
▁contained	-10.951
▁plug	-10.9511
▁adjustment	-10.9516
▁networking	-10.9519
sight	-10.9533
▁controversial	-10.9534
▁subsidiary	-10.9534
▁thirty	-10.9534
▁stimulate	-10.9534
▁ought	-10.9535
▁retirement	-10.9537
▁originally	-10.9546
▁HR	-10.9547
▁reflected	-10.9554
63	-10.9554
trust	-10.9564
▁spoken	-10.9569
▁Society	-10.9571
▁knife	-10.9571
▁assault	-10.9571
▁gray	-10.9576
▁menu	-10.9578
▁inspect	-10.9579
▁Old	-10.958
4)	-10.9586
OM	-10.9589
zen	-10.9592
▁humanity	-10.9606
4,000	-10.9608
▁Assembly	-10.9608
▁extraordinary	-10.9608
▁satisfaction	-10.9608
▁composed	-10.9608
▁creep	-10.9608
▁outfit	-10.9609
▁Reserve	-10.961
▁Angop	-10.9611
▁Shu	-10.9615
▁sake	-10.9618
arily	-10.9622
HA	-10.9627
▁disagree	-10.9635
▁sho	-10.9641
▁dozen	-10.9642
ique	-10.9642
27	-10.9645
▁tunnel	-10.9645
▁asleep	-10.9645
▁fierce	-10.9646
▁Ireland	-10.9646
▁monkey	-10.9646
▁kidney	-10.9646
▁Project	-10.9648
▁awake	-10.9648
▁quant	-10.965
▁unknown	-10.9651
▁duck	-10.9655
▁frequent	-10.9659
▁destruction	-10.9659
▁cruel	-10.9663
▁checking	-10.9666
▁Boy	-10.9672
▁suspected	-10.9673
▁Data	-10.9673
▁rolling	-10.9674
▁Barb	-10.9677
▁execution	-10.9682
▁qualified	-10.9682
▁precious	-10.9682
▁modified	-10.9682
▁Ly	-10.9688
▁risen	-10.9691
▁lab	-10.9692
uffle	-10.9693
spiration	-10.9694
1.2	-10.9699
▁Up	-10.9702
▁tale	-10.9702
osa	-10.9706
▁bold	-10.9706
gression	-10.9712
▁consulting	-10.9717
▁Unfortunately	-10.972
▁temple	-10.972
▁Gulf	-10.9722
▁Bai	-10.9726
hour	-10.9729
▁grace	-10.9741
▁GM	-10.9743
▁expense	-10.9746
ville	-10.9752
▁toxic	-10.9754
▁hybrid	-10.9757
▁imagination	-10.9757
▁flavor	-10.9757
▁gesture	-10.9757
▁Blue	-10.9757
▁mourn	-10.9758
▁chamber	-10.9758
utter	-10.9758
mir	-10.9758
▁governance	-10.9759
▁lawmakers	-10.976
▁signing	-10.9763
▁collective	-10.9766
▁Lusa	-10.9771
▁equi	-10.9777
RT	-10.9783
▁adventure	-10.9795
▁perception	-10.9795
▁shelter	-10.9795
▁Market	-10.9801
▁exit	-10.9803
▁arc	-10.9805
▁deeper	-10.9811
pathy	-10.9814
▁distinct	-10.982
jun	-10.9821
▁register	-10.9824
▁yard	-10.9826
five	-10.9827
eight	-10.9828
▁slope	-10.9833
▁cheaper	-10.9834
▁honey	-10.9836
▁impressive	-10.9837
▁whenever	-10.9839
human	-10.984
▁depart	-10.9841
stein	-10.9848
▁Bob	-10.9849
▁wounded	-10.9852
workers	-10.9861
bank	-10.9866
▁Jordan	-10.987
▁Islamist	-10.987
▁composite	-10.987
▁contemporary	-10.987
▁diagnose	-10.987
▁festival	-10.987
▁migrant	-10.987
▁participation	-10.987
▁voltage	-10.987
▁essay	-10.987
▁logistics	-10.987
▁banned	-10.9873
logy	-10.9874
▁dwell	-10.9874
▁upset	-10.9874
▁monthly	-10.9878
▁myth	-10.9878
▁deepen	-10.9882
▁behave	-10.9886
▁researcher	-10.9894
37	-10.9899
▁encouraged	-10.9904
Chinese	-10.9908
One	-10.9908
▁Commerce	-10.9908
▁centuries	-10.9908
▁Royal	-10.9909
▁rear	-10.991
▁cultivate	-10.991
▁insight	-10.991
▁dramatic	-10.9913
96	-10.9919
▁hired	-10.9923
▁Dong	-10.9941
▁buried	-10.9947
▁Ohio	-10.9948
▁attain	-10.9948
▁1998	-10.995
▁Bor	-10.9964
▁publication	-10.9967
▁entrepreneur	-10.9979
▁temper	-10.9985
▁prosperity	-10.9985
▁Figure	-10.9985
▁concert	-10.9985
▁Northern	-10.9985
tensive	-10.9986
▁Dutch	-10.9987
▁criticized	-10.9988
Do	-10.999
group	-10.9993
▁assert	-10.9997
▁Fire	-10.9999
▁nest	-11.0002
unch	-11.0007
▁theater	-11.0009
▁repeatedly	-11.0009
▁suspended	-11.0011
▁supplement	-11.0023
▁interior	-11.0023
▁analytic	-11.0024
▁fraction	-11.0025
▁restrictions	-11.0025
agi	-11.0026
▁predicted	-11.0036
▁relieve	-11.0044
dar	-11.005
▁Yuan	-11.0059
▁shore	-11.006
▁Guo	-11.0062
▁nutrition	-11.0062
▁scandal	-11.0062
▁Boston	-11.0062
▁sew	-11.0074
operative	-11.0079
0.1	-11.0087
person	-11.01
▁guidance	-11.0101
▁membrane	-11.0101
▁pregnancy	-11.0101
▁provincial	-11.0101
▁Janeiro	-11.0101
▁organisation	-11.0102
▁equity	-11.0103
▁ongoing	-11.0104
▁audio	-11.0105
week	-11.0106
▁rod	-11.0108
▁thickness	-11.0108
about	-11.0109
ental	-11.0109
▁characterized	-11.0111
▁10%	-11.0112
▁weakness	-11.0114
▁fate	-11.0116
▁march	-11.0117
▁Sen	-11.012
▁outstanding	-11.0121
▁reportedly	-11.0125
▁cord	-11.0126
32	-11.0129
▁dressed	-11.0132
RS	-11.0136
color	-11.0136
▁Petrobras	-11.014
▁vibration	-11.014
▁abstract	-11.014
▁rubber	-11.0142
▁persist	-11.0142
▁tin	-11.0143
▁argued	-11.0149
▁bake	-11.015
▁USA	-11.0151
▁mild	-11.0152
▁integr	-11.0154
▁drill	-11.0165
▁approaches	-11.0173
▁Tai	-11.0177
Cl	-11.0179
▁Agriculture	-11.0179
▁drought	-11.0179
▁embassy	-11.0179
▁46	-11.0179
▁drew	-11.018
▁Chief	-11.018
▁divide	-11.0183
▁stayed	-11.0186
jiang	-11.0186
▁Kate	-11.0188
▁coin	-11.0188
▁Cur	-11.019
gli	-11.0193
▁20%	-11.0196
▁hunt	-11.0197
▁relate	-11.02
▁51	-11.0203
▁norm	-11.0211
▁$6	-11.0212
▁Carolina	-11.0218
▁criteria	-11.0218
▁encouraging	-11.0218
▁circulation	-11.0218
▁fatigue	-11.0218
▁remarkable	-11.0218
▁silent	-11.0218
▁admire	-11.0218
▁Mao	-11.0221
▁foreigners	-11.0222
▁turnover	-11.0225
▁guest	-11.0228
▁alongside	-11.0233
▁(2)	-11.0236
▁instruct	-11.0236
bacter	-11.0254
▁MP	-11.0255
▁illustrate	-11.0257
▁Tian	-11.0261
▁coating	-11.0261
▁Hotel	-11.0261
child	-11.0263
▁punishment	-11.0263
who	-11.0267
four	-11.0267
▁120	-11.0272
▁grid	-11.0274
▁demonstrated	-11.0275
▁protecting	-11.0278
▁39	-11.0289
hear	-11.0293
▁failing	-11.0294
▁cabinet	-11.0297
▁expanded	-11.0297
▁Kerry	-11.0297
▁Andrew	-11.0297
pul	-11.0297
▁Mur	-11.0299
▁ranked	-11.0299
▁Jeff	-11.03
▁bur	-11.03
▁Method	-11.0302
▁pie	-11.0302
▁stamp	-11.0302
▁Everyone	-11.0302
▁calculate	-11.0303
▁shy	-11.0303
▁Lady	-11.0307
▁momentum	-11.0316
▁panic	-11.0317
97	-11.0323
▁44	-11.0325
▁socialist	-11.0327
▁configuration	-11.0336
▁elaborate	-11.0336
▁immigration	-11.0336
▁sediment	-11.0336
▁Open	-11.0337
▁missed	-11.0337
▁Zi	-11.0337
▁jail	-11.0338
▁lending	-11.0339
▁closing	-11.034
electric	-11.0341
▁lens	-11.0343
▁Ren	-11.0346
self	-11.0358
▁Tea	-11.0358
uv	-11.036
icular	-11.0365
▁mm	-11.0371
TP	-11.0373
▁deck	-11.0374
▁inspiration	-11.0375
look	-11.0377
▁Para	-11.0379
worthy	-11.038
pop	-11.0381
▁lamp	-11.0387
▁quote	-11.0389
▁outlook	-11.0394
action	-11.0395
▁Mag	-11.0396
▁outdoor	-11.0396
▁Later	-11.0408
responsibilities	-11.0416
▁Children	-11.0416
▁hormone	-11.0416
▁studio	-11.0416
▁Brother	-11.0417
▁airplane	-11.0418
▁Jackson	-11.042
▁urge	-11.0421
ference	-11.0427
▁spill	-11.0435
▁icon	-11.044
ood	-11.0449
▁meaningful	-11.0449
▁profession	-11.0454
▁pine	-11.0454
▁helicopter	-11.0456
▁striking	-11.0456
▁Article	-11.0456
▁vitamin	-11.0456
▁Tourism	-11.0456
▁straw	-11.0458
▁bombing	-11.0459
▁maintained	-11.046
▁polar	-11.0461
sexual	-11.0461
▁dye	-11.0466
▁Sub	-11.0471
29	-11.0473
▁Sur	-11.0474
ml	-11.0475
▁shower	-11.0476
▁pink	-11.0483
▁headline	-11.0485
▁establishing	-11.0492
81	-11.0495
▁Capital	-11.0497
▁optimistic	-11.0497
ambique	-11.0497
▁Control	-11.0497
kh	-11.0518
▁cru	-11.052
▁lion	-11.0533
▁metric	-11.0535
▁Zealand	-11.0537
▁Resources	-11.0537
▁sentiment	-11.0537
▁indication	-11.0537
▁tag	-11.0539
Some	-11.0542
▁hook	-11.0542
5)	-11.0544
effect	-11.0544
▁extrem	-11.0564
▁Clo	-11.0571
▁punish	-11.0572
▁wider	-11.0577
▁dense	-11.0577
▁Experts	-11.0578
▁accompanied	-11.0578
▁precision	-11.0578
▁deformation	-11.0578
▁Thomas	-11.0578
▁solving	-11.0578
▁Region	-11.0578
▁bathroom	-11.0579
▁offshore	-11.0583
▁poetry	-11.0583
▁Tim	-11.0586
▁42	-11.0587
▁secondary	-11.0589
▁Mother	-11.0592
▁gotten	-11.0594
▁85	-11.0601
▁mock	-11.0604
▁beneficial	-11.0619
▁execute	-11.0619
▁hectares	-11.0619
▁Medical	-11.0619
▁kidnap	-11.062
▁legend	-11.0621
school	-11.0624
▁scrap	-11.0627
▁Play	-11.063
▁Corr	-11.0632
▁Anti	-11.0635
▁cloth	-11.0636
▁manual	-11.0642
▁owe	-11.0651
▁Community	-11.066
▁Atlantic	-11.066
▁anticipate	-11.066
▁lonely	-11.066
▁capabilities	-11.066
chrom	-11.0661
▁anchor	-11.0661
▁fraud	-11.0661
▁hint	-11.0664
government	-11.0666
▁belly	-11.0668
▁briefly	-11.0669
▁hopeful	-11.0671
▁dirty	-11.0671
▁boring	-11.0672
▁controller	-11.0678
yuan	-11.0678
FC	-11.0684
▁Arabia	-11.0685
chen	-11.0686
▁soup	-11.0687
▁rope	-11.0687
▁reaches	-11.0692
▁cognitive	-11.0701
▁occupation	-11.0701
▁facial	-11.0701
▁signature	-11.0703
▁anymore	-11.0709
▁Motor	-11.0714
▁golf	-11.0726
▁adequate	-11.0742
▁Transport	-11.0743
▁dawn	-11.0745
stream	-11.0747
▁tab	-11.0757
▁inventor	-11.076
▁withdrawal	-11.0761
looking	-11.0763
▁chill	-11.0764
▁officially	-11.0768
6,000	-11.0779
59	-11.0781
09	-11.0783
▁Netherlands	-11.0784
▁junior	-11.0784
▁worries	-11.0784
▁leather	-11.0784
▁threaten	-11.0784
▁supervision	-11.0785
quarter	-11.0791
scription	-11.0794
▁rally	-11.0795
▁Somalia	-11.0808
▁tied	-11.0809
▁pleased	-11.081
path	-11.0813
VE	-11.0817
▁Hospital	-11.0825
▁competing	-11.0825
▁isolated	-11.0826
▁Former	-11.0831
▁clip	-11.0831
▁Morgan	-11.0832
ories	-11.0838
▁Sul	-11.0851
$9	-11.0852
▁Chan	-11.0857
▁Pen	-11.0858
▁rhythm	-11.0867
▁anxious	-11.0867
▁Girl	-11.0868
▁unlike	-11.0868
▁underground	-11.0872
▁programming	-11.0874
▁coordinate	-11.088
▁operated	-11.0883
educated	-11.0887
two	-11.089
trans	-11.0891
▁nano	-11.0892
wind	-11.0892
▁upgrade	-11.0898
▁Yo	-11.0901
▁spectrum	-11.0909
Qaida	-11.0909
▁Seoul	-11.0909
▁finite	-11.0909
▁dominated	-11.0909
▁clever	-11.0909
▁Centre	-11.0909
▁spouse	-11.0909
clock	-11.091
▁linking	-11.091
08	-11.091
bol	-11.0911
▁Father	-11.0915
People	-11.0917
▁sharply	-11.0924
storm	-11.0925
▁Mike	-11.0929
▁acceptable	-11.0931
▁soldier	-11.0938
▁$7	-11.0942
▁solved	-11.0951
▁diversity	-11.0951
▁enemies	-11.0951
▁simulate	-11.0952
▁macro	-11.0954
▁actively	-11.0958
▁conform	-11.0972
06	-11.0986
▁bon	-11.0989
▁stag	-11.0993
▁Countries	-11.0994
▁Kennedy	-11.0994
▁decisive	-11.0994
▁puzzle	-11.0994
▁Cameron	-11.0994
▁hungry	-11.0996
▁1997	-11.0997
assa	-11.0997
▁elite	-11.0998
mean	-11.1005
▁2,000	-11.1018
▁tackle	-11.1027
dded	-11.1033
▁Ever	-11.1035
▁veteran	-11.1036
▁County	-11.1036
▁romance	-11.1036
▁interrupt	-11.1036
▁cubic	-11.1036
▁soccer	-11.1036
▁referred	-11.1039
▁2015	-11.1043
▁dying	-11.1043
million	-11.1045
▁responded	-11.1053
▁Home	-11.1054
▁Nan	-11.1056
▁blamed	-11.1062
▁filling	-11.1075
▁inevitable	-11.1079
▁psychologist	-11.1079
▁infected	-11.108
▁Unlike	-11.1081
▁Edward	-11.1081
▁killer	-11.1082
300	-11.1083
▁Change	-11.1083
▁Know	-11.1084
▁sheep	-11.1086
-19	-11.1087
condition	-11.1089
▁harmful	-11.109
minute	-11.1097
▁49	-11.1103
version	-11.1108
07	-11.1108
▁Rome	-11.1113
▁quoted	-11.1117
▁sooner	-11.1118
▁presidency	-11.1122
▁promising	-11.1122
▁Little	-11.1122
▁Oscar	-11.1122
▁pretend	-11.1123
▁pepper	-11.1124
39	-11.1127
▁bolt	-11.1128
33	-11.1131
▁mug	-11.1144
▁regarding	-11.1144
▁arranged	-11.1148
▁pledged	-11.115
lder	-11.1151
▁dictator	-11.1165
▁molecular	-11.1165
▁shark	-11.1165
▁Recently	-11.1165
▁Consider	-11.1165
▁bureau	-11.1165
▁queen	-11.1165
▁lyric	-11.1166
▁priorities	-11.1167
▁suck	-11.1171
▁bullet	-11.1171
▁1960	-11.1173
heat	-11.1175
▁Kha	-11.118
1.4	-11.1182
cycle	-11.1188
page	-11.1188
NC	-11.1194
▁Leg	-11.1198
▁insert	-11.1202
▁packing	-11.1207
▁subsequent	-11.1208
▁Pennsylvania	-11.1208
▁appointment	-11.1208
▁feasibility	-11.1208
▁virtue	-11.1208
▁nominee	-11.1208
▁Cross	-11.1209
▁jeans	-11.1209
▁Carlos	-11.1209
▁whale	-11.1212
▁preferred	-11.1212
▁portray	-11.1213
▁hanging	-11.1213
▁involvement	-11.1214
▁thrown	-11.1216
▁flaw	-11.1218
cell	-11.1223
▁whereas	-11.1227
▁spur	-11.123
▁packed	-11.1233
▁fame	-11.1238
▁contributed	-11.124
▁dash	-11.1246
▁biofuel	-11.1252
▁certificate	-11.1252
▁enthusiasm	-11.1252
▁Potter	-11.1252
▁balloon	-11.1255
▁Val	-11.1258
▁Mitt	-11.1259
generation	-11.1264
▁dive	-11.1264
▁Ze	-11.1267
▁accomplishment	-11.1269
47	-11.1279
▁Telecom	-11.1285
▁Jim	-11.1291
▁shareholder	-11.1292
▁brilliant	-11.1295
▁optimum	-11.1295
▁wander	-11.1296
▁invasion	-11.1296
▁boast	-11.1296
▁balanced	-11.1296
▁brass	-11.1298
▁acknowledged	-11.1299
▁Zu	-11.13
▁operational	-11.1303
resistant	-11.1306
keeping	-11.1307
▁echo	-11.1307
▁exhibition	-11.1308
▁span	-11.1322
▁analysed	-11.1324
▁essentially	-11.1325
4.5	-11.1325
crease	-11.1326
▁jumped	-11.1333
▁entertain	-11.1335
▁clinic	-11.1338
▁neutral	-11.1339
▁Environment	-11.1339
▁Jerusalem	-11.1339
▁calendar	-11.1339
▁expenditure	-11.1339
▁numerical	-11.1339
▁vocabulary	-11.1339
▁fifty	-11.1339
▁compliment	-11.1339
▁fought	-11.1339
▁complication	-11.134
ounce	-11.1342
▁banana	-11.1342
▁forgive	-11.1344
▁brick	-11.1345
▁bride	-11.1347
▁praised	-11.1348
▁determin	-11.135
▁goat	-11.1355
▁govern	-11.1355
plasm	-11.1366
1.6	-11.137
▁McC	-11.137
▁Anna	-11.1374
wide	-11.1378
71	-11.1381
utonomous	-11.1383
▁negotiating	-11.1383
▁velocity	-11.1383
▁polite	-11.1383
▁plasma	-11.1384
▁Again	-11.1384
▁clue	-11.1384
▁nap	-11.1385
▁Disney	-11.1385
▁boundary	-11.1389
▁angel	-11.1394
link	-11.1396
walk	-11.1397
▁abandoned	-11.14
▁50%	-11.1402
eff	-11.1412
speed	-11.1415
CH	-11.1419
▁affair	-11.1426
▁glasses	-11.1428
▁Argentina	-11.1428
▁shrink	-11.1428
▁sweep	-11.1428
▁bump	-11.143
▁1994	-11.143
▁static	-11.1433
▁pension	-11.1433
emon	-11.1438
▁declare	-11.1438
general	-11.1442
▁printing	-11.1445
▁mile	-11.1456
▁skip	-11.1459
▁10,000	-11.1461
▁Elizabeth	-11.1472
▁narrative	-11.1472
▁neglect	-11.1472
▁unprecedented	-11.1472
▁Blood	-11.1472
▁steer	-11.1473
▁worn	-11.1476
▁Turn	-11.1477
▁mathematical	-11.148
▁align	-11.148
▁seller	-11.1482
▁moist	-11.1491
▁bind	-11.1491
▁800	-11.1495
▁hug	-11.1495
lateral	-11.1496
market	-11.15
▁Main	-11.1511
▁Sure	-11.1513
▁shipment	-11.1514
▁physically	-11.1515
▁corrosion	-11.1517
▁thrill	-11.1517
▁unfair	-11.1517
▁delicate	-11.1517
▁pleasant	-11.1517
▁railroad	-11.1517
▁uncertainty	-11.1519
▁fleet	-11.1526
people	-11.1526
▁breathing	-11.1528
▁Care	-11.1528
$7	-11.1528
prop	-11.1531
▁installation	-11.1532
pproximately	-11.1538
1.3	-11.155
bag	-11.1556
▁photographer	-11.1556
▁assumption	-11.1562
▁globe	-11.1562
▁gossip	-11.1562
▁summarize	-11.1562
▁slave	-11.1563
▁utter	-11.1563
▁rigid	-11.1564
▁pronoun	-11.1566
▁surf	-11.1569
gling	-11.1571
▁governing	-11.1571
develop	-11.1575
1.5	-11.1587
GE	-11.1594
$6	-11.16
▁Mugabe	-11.1607
▁jacket	-11.1607
▁snack	-11.1607
▁accent	-11.1607
▁businessman	-11.1608
▁immuno	-11.1615
▁china	-11.1616
▁candle	-11.1617
▁carries	-11.162
rush	-11.162
western	-11.1621
▁darkness	-11.1625
▁dishes	-11.1626
▁mast	-11.1632
▁representing	-11.1634
▁considerable	-11.1637
▁knocked	-11.1637
good	-11.1644
▁Mel	-11.165
▁assemble	-11.1652
▁categories	-11.1652
▁cosmetic	-11.1652
▁spokeswoman	-11.1652
▁unity	-11.1652
▁monarch	-11.1652
▁orientation	-11.1652
▁drunk	-11.1652
▁pulse	-11.1652
▁shame	-11.1654
▁textile	-11.1657
▁wrap	-11.1657
▁scientist	-11.1658
With	-11.1667
fight	-11.1667
▁fever	-11.1667
town	-11.1679
▁convinced	-11.1685
▁Give	-11.1689
▁disk	-11.1693
▁dip	-11.1694
▁Venezuela	-11.1697
▁celebrities	-11.1697
▁happier	-11.1697
▁surrounded	-11.1697
▁Joseph	-11.1697
▁triumph	-11.1697
▁scatter	-11.1697
▁Android	-11.1697
▁shade	-11.1699
▁Labor	-11.1702
▁Show	-11.1702
▁shipping	-11.1703
▁militant	-11.1704
▁oldest	-11.1705
▁Petro	-11.1707
▁aroma	-11.1722
▁cop	-11.1723
▁coordinat	-11.1727
▁Vice	-11.1728
▁fled	-11.1732
▁Rock	-11.1732
▁buck	-11.1743
▁Governor	-11.1743
▁Ukrainian	-11.1743
▁allegations	-11.1743
▁automobile	-11.1743
▁diabetes	-11.1743
▁leisure	-11.1743
▁residence	-11.1743
▁Church	-11.1743
▁suburb	-11.1743
▁palm	-11.1749
▁colleague	-11.1752
▁countryside	-11.1753
▁interpretation	-11.1755
▁approve	-11.1755
▁welcomed	-11.1774
wash	-11.1774
▁Gui	-11.1779
▁pale	-11.178
▁separated	-11.1781
▁bug	-11.1785
▁Sichuan	-11.1789
▁appointed	-11.1789
▁whilst	-11.1789
▁Premier	-11.1789
▁specified	-11.179
▁interviewer	-11.1794
▁announce	-11.1795
▁rig	-11.1802
▁Hall	-11.1802
▁fence	-11.1807
▁neighboring	-11.1816
▁imposed	-11.1822
▁reactor	-11.1825
▁Hai	-11.1827
RC	-11.1827
▁bias	-11.1827
▁43	-11.183
▁Representative	-11.1835
▁Windows	-11.1835
▁ambitious	-11.1835
▁celebrity	-11.1835
▁drove	-11.1835
▁diplomacy	-11.1835
▁registration	-11.1837
▁startup	-11.1837
▁relie	-11.1839
▁fancy	-11.1841
▁membership	-11.1841
oxide	-11.1846
▁Bell	-11.1855
49	-11.1856
▁resign	-11.1876
▁Six	-11.1877
▁prayer	-11.1877
▁Steven	-11.188
▁Ethiopia	-11.1881
▁sensation	-11.1881
▁injuries	-11.1881
▁valley	-11.1881
▁innovative	-11.1881
▁Could	-11.1881
▁Eastern	-11.1881
step	-11.1883
▁fatal	-11.1887
▁pole	-11.1888
▁Rose	-11.1888
tribute	-11.1897
▁41	-11.1917
▁seized	-11.1918
shot	-11.1919
▁Leon	-11.1925
▁Affairs	-11.1928
▁sensitivity	-11.1928
▁separation	-11.1928
▁worship	-11.1928
▁fragment	-11.1928
▁harsh	-11.1928
▁basketball	-11.1928
▁motive	-11.1934
▁loving	-11.1937
▁stepped	-11.1937
▁binding	-11.1942
▁Jen	-11.1942
▁Vol	-11.1942
▁invite	-11.1942
▁barrel	-11.1943
screen	-11.1945
▁pray	-11.1948
▁loyal	-11.1972
▁fertilizer	-11.1974
▁nutrient	-11.1974
▁contrary	-11.1974
▁stupid	-11.1974
▁complement	-11.1974
▁dialect	-11.1974
▁modify	-11.1975
▁Louis	-11.1975
▁Irish	-11.1975
▁residential	-11.1976
▁Club	-11.1978
▁logical	-11.1979
▁patch	-11.1983
▁mandate	-11.1984
▁marine	-11.1985
▁viewers	-11.1993
▁impose	-11.1994
▁pub	-11.1997
stead	-11.2005
▁Chris	-11.2006
▁reply	-11.2008
▁edit	-11.2019
▁Catholic	-11.2021
▁assignment	-11.2021
▁enzyme	-11.2021
▁dominant	-11.2021
▁Manuel	-11.2021
▁curtain	-11.2021
▁linguist	-11.2021
▁primarily	-11.2022
Don	-11.2022
▁hydroelectric	-11.2022
▁Mountain	-11.2022
▁radioactive	-11.2022
▁junk	-11.2023
▁tomato	-11.2024
▁floating	-11.2026
▁Rather	-11.2029
▁swear	-11.2029
▁bang	-11.203
▁engagement	-11.203
▁acceptance	-11.2034
▁convince	-11.2035
▁representation	-11.204
ogenic	-11.2041
▁accomplished	-11.2044
▁settled	-11.2048
0.2	-11.2058
38	-11.206
36	-11.2068
▁Effect	-11.2069
▁autumn	-11.2069
▁scream	-11.2069
▁Family	-11.2069
▁combining	-11.2069
▁internship	-11.2069
▁Airlines	-11.2069
▁await	-11.2069
▁tennis	-11.2069
▁Normal	-11.2071
▁Bridge	-11.2073
▁interval	-11.2073
▁(1)	-11.2076
▁entitled	-11.2079
Portuguese	-11.2087
▁soap	-11.2087
▁Week	-11.2092
methyl	-11.2095
34	-11.2098
▁Thai	-11.2103
▁peri	-11.2105
▁classical	-11.2113
▁Colombia	-11.2116
▁comparative	-11.2116
▁laptop	-11.2116
▁unhappy	-11.2116
▁mammal	-11.2116
▁optimize	-11.2116
▁cynic	-11.2116
▁diesel	-11.2117
▁shine	-11.2117
▁priest	-11.2117
▁undertake	-11.2129
▁wooden	-11.2132
▁hunting	-11.2134
▁perceived	-11.2134
rong	-11.2136
▁proven	-11.2137
▁250	-11.2145
▁opera	-11.2151
▁enrich	-11.2161
▁smiling	-11.2164
▁offensive	-11.2164
▁advisor	-11.2164
▁aluminum	-11.2164
▁Conference	-11.2165
▁Norway	-11.2166
▁Weibo	-11.2167
▁Van	-11.217
31	-11.2172
▁Guide	-11.2178
▁lane	-11.2183
plex	-11.2186
▁effectiveness	-11.2186
food	-11.219
▁endless	-11.2191
amba	-11.2192
▁physics	-11.2195
Now	-11.2196
▁privilege	-11.2211
▁stadium	-11.2211
▁stolen	-11.2211
▁assured	-11.2212
▁admission	-11.2213
▁polish	-11.2215
▁Justice	-11.2217
▁Phil	-11.2226
▁hunger	-11.2227
93	-11.2227
▁threatening	-11.2227
author	-11.2231
largest	-11.2232
Brazilian	-11.2233
▁bay	-11.2233
▁deaf	-11.2235
GF	-11.2235
▁scen	-11.2237
▁endorse	-11.2239
▁Best	-11.2249
▁grip	-11.2251
▁referendum	-11.226
▁AIDS	-11.226
▁frozen	-11.226
▁CH	-11.2261
▁crisp	-11.2265
▁stiff	-11.2265
▁integrity	-11.2265
▁cattle	-11.2266
▁classification	-11.2266
worth	-11.2269
7.5	-11.2277
▁Never	-11.2285
▁consequence	-11.2286
gree	-11.2286
2.4	-11.2297
▁Pay	-11.2298
▁prohibit	-11.2308
▁quantitative	-11.2308
▁sophisticated	-11.2308
▁Podcast	-11.2308
▁Third	-11.2308
▁premium	-11.2308
▁Natural	-11.2308
▁waist	-11.2308
▁Crimea	-11.2308
▁Small	-11.2308
▁invention	-11.2308
▁supermarket	-11.2309
▁moisture	-11.231
▁sword	-11.2312
▁MO	-11.2322
▁inspire	-11.2323
▁wipe	-11.2331
▁cope	-11.2337
▁curb	-11.2352
▁cerebral	-11.2356
▁cooperate	-11.2356
▁gravity	-11.2356
▁assassin	-11.2356
▁pursuing	-11.2356
▁bleeding	-11.2356
▁Peace	-11.2356
think	-11.2356
▁coincide	-11.2356
▁queue	-11.2357
▁Until	-11.2358
▁dorm	-11.236
▁merit	-11.2361
INE	-11.2361
▁occupied	-11.2364
▁Say	-11.2372
2,000	-11.2374
▁Vale	-11.2374
profit	-11.2377
▁$10	-11.238
▁gig	-11.2399
▁disturb	-11.2403
▁enhanced	-11.2403
▁necessity	-11.2405
▁refurbish	-11.2405
▁Museum	-11.2405
▁Civil	-11.2405
▁reckon	-11.2405
▁embryo	-11.2405
▁lymph	-11.2405
▁Chamber	-11.2406
▁midnight	-11.2407
▁celebrated	-11.241
44	-11.2411
▁Taking	-11.2412
▁artery	-11.2414
▁ballot	-11.2416
▁spy	-11.2418
▁Master	-11.2425
▁shoe	-11.2428
▁dual	-11.2438
▁Similar	-11.2454
▁appreciation	-11.2454
▁flexibility	-11.2454
▁institute	-11.2454
▁Standard	-11.2454
▁Stanley	-11.2454
▁penalty	-11.2454
▁Swiss	-11.2454
▁enlarge	-11.2454
▁Information	-11.2454
▁Analysis	-11.2454
scopic	-11.2455
▁hydrogen	-11.2456
▁trauma	-11.2456
▁quo	-11.2457
▁Member	-11.2458
▁gaze	-11.2458
▁occasionally	-11.2459
▁ABC	-11.246
▁shallow	-11.2469
▁prisoners	-11.2472
TT	-11.2486
quality	-11.2488
▁specification	-11.2495
▁elegant	-11.2503
▁incidence	-11.2503
▁WTO	-11.2503
▁obesity	-11.2503
▁supervisor	-11.2503
▁Vegas	-11.2503
▁replied	-11.2503
science	-11.2504
▁Coast	-11.2504
▁Sina	-11.2504
▁gym	-11.2504
▁horizontal	-11.2505
▁screw	-11.2505
▁mechanic	-11.2506
when	-11.2508
▁pond	-11.2515
▁anybody	-11.2518
▁broader	-11.252
▁creditor	-11.2523
Mozambique	-11.2526
cost	-11.2528
Ex	-11.254
▁Costa	-11.2542
ither	-11.2542
▁basket	-11.2553
▁taxpayer	-11.2553
▁NASA	-11.2553
▁discrimination	-11.2553
▁Houston	-11.2553
▁transplant	-11.2553
▁ceiling	-11.2553
▁gently	-11.2553
▁comparing	-11.2553
▁nitrogen	-11.2553
▁Ryan	-11.2553
circula	-11.2554
▁Export	-11.2557
▁1995	-11.2559
▁Democrat	-11.2577
▁marsh	-11.2577
▁quota	-11.2582
▁boxes	-11.2583
▁cave	-11.2587
▁sixth	-11.2596
▁Develop	-11.2598
▁cylinder	-11.2603
▁conservation	-11.2603
▁computing	-11.2603
▁grey	-11.2603
▁decorate	-11.2605
▁caution	-11.2606
▁phenomenal	-11.2607
▁dependence	-11.2608
▁billionaire	-11.2609
▁keyboard	-11.261
▁zoo	-11.2612
▁Whatever	-11.2613
▁handsome	-11.2615
1.8	-11.2619
abilities	-11.2626
46	-11.2628
▁regulatory	-11.2632
▁followers	-11.2639
▁Expo	-11.2641
▁virtually	-11.2649
▁Turkish	-11.2653
▁reluctant	-11.2653
▁piano	-11.2653
▁innocent	-11.2653
corn	-11.2653
▁taxi	-11.2654
▁Wood	-11.2658
▁baking	-11.266
lessness	-11.2664
▁jam	-11.2672
serve	-11.2673
change	-11.268
maid	-11.2685
▁Fox	-11.2689
▁Land	-11.2695
▁institutional	-11.2698
▁Along	-11.27
▁crust	-11.2702
▁absorption	-11.2703
▁judicial	-11.2703
▁uranium	-11.2703
▁varieties	-11.2703
▁Political	-11.2703
▁influential	-11.2703
▁swallow	-11.2703
▁diminish	-11.2703
▁elastic	-11.2703
▁peasant	-11.2703
▁lobby	-11.2703
▁robust	-11.2703
▁classmates	-11.2703
▁funeral	-11.2703
▁crawl	-11.2703
▁Leader	-11.2703
▁Travel	-11.2703
▁Exchange	-11.2704
▁password	-11.2705
▁informed	-11.2709
▁drum	-11.2711
▁DC	-11.2712
▁stack	-11.2713
▁thermo	-11.2713
▁$100	-11.2718
▁Down	-11.2719
acious	-11.2723
big	-11.2726
▁bosses	-11.2727
▁(19	-11.2729
▁vegetable	-11.2745
Between	-11.2753
▁identification	-11.2753
▁cheek	-11.2753
8,000	-11.2754
▁disclose	-11.2754
▁Dream	-11.2754
▁violate	-11.2754
▁Nobel	-11.2759
▁curious	-11.276
▁Industrial	-11.2772
▁Tete	-11.2773
▁evolved	-11.2774
▁devoted	-11.2774
▁architect	-11.2802
▁ancestor	-11.2804
▁senator	-11.2804
value	-11.2804
▁Creat	-11.2807
▁Almost	-11.2807
▁greenhouse	-11.2807
▁preced	-11.2809
▁blade	-11.2811
▁Come	-11.2816
▁confine	-11.2816
▁journalist	-11.2817
▁Given	-11.2822
▁Dun	-11.2825
wave	-11.2825
▁retired	-11.2831
▁Alibaba	-11.2855
▁Cambridge	-11.2855
▁Supreme	-11.2855
▁gambling	-11.2855
▁Zheng	-11.2855
▁multinational	-11.2855
▁nonlinear	-11.2855
▁tragedy	-11.2855
▁Galp	-11.2856
▁arrow	-11.2857
▁Brasilia	-11.2857
▁contend	-11.2857
▁duration	-11.2858
▁Biden	-11.286
▁subtle	-11.2866
▁clay	-11.2872
stress	-11.2877
▁Opera	-11.2881
▁Station	-11.2892
▁publisher	-11.2896
▁disappoint	-11.2905
▁Revolution	-11.2906
▁altogether	-11.2906
▁curriculum	-11.2906
▁debris	-11.2907
▁Square	-11.2907
▁abortion	-11.2907
▁width	-11.2907
▁seismic	-11.2907
▁mystery	-11.2907
▁absent	-11.2907
▁radar	-11.2908
▁paragraph	-11.2908
▁headache	-11.2911
▁Currently	-11.2918
0.6	-11.2928
▁Much	-11.2928
cellular	-11.293
stock	-11.2932
▁complexity	-11.2937
0.3	-11.2943
wei	-11.2949
▁Massachusetts	-11.2958
▁Oxford	-11.2958
▁accommodation	-11.2958
▁deficiency	-11.2958
▁furnace	-11.2958
▁merchant	-11.2958
▁delicious	-11.2958
▁captain	-11.2958
▁pioneer	-11.2958
▁geological	-11.2958
▁steep	-11.2958
▁boundaries	-11.2959
0.4	-11.296
▁dramatically	-11.296
▁advertisement	-11.2967
▁favorable	-11.2972
▁stall	-11.2972
kill	-11.2973
▁analog	-11.2977
▁merge	-11.2992
▁widen	-11.2993
burn	-11.3
▁float	-11.3002
▁Communication	-11.301
▁abundant	-11.301
▁incredible	-11.301
▁optimization	-11.301
▁feather	-11.301
▁unfortunate	-11.301
▁fossil	-11.301
▁drift	-11.301
▁neural	-11.3011
94	-11.3012
▁meanwhile	-11.3013
▁Yao	-11.3019
shore	-11.3021
▁fitness	-11.3035
mitted	-11.3038
▁Hua	-11.3052
izz	-11.3054
▁McDonald	-11.3062
▁discourage	-11.3062
▁Switzerland	-11.3062
▁XML	-11.3062
▁criterion	-11.3062
▁Delhi	-11.3062
▁Delta	-11.3062
▁cartoon	-11.3062
▁instinct	-11.3062
▁seminar	-11.3063
▁calcium	-11.3063
▁costume	-11.3063
▁spite	-11.3081
▁analyse	-11.3083
▁suggestion	-11.3088
Mar	-11.3089
phen	-11.3089
TR	-11.3095
▁continuously	-11.3101
▁atomic	-11.3103
held	-11.3105
▁Different	-11.3114
▁Hawaii	-11.3114
▁Xinhua	-11.3114
▁YouTube	-11.3114
▁displacement	-11.3114
▁frustration	-11.3114
▁athletic	-11.3114
▁evident	-11.3114
▁hurry	-11.3114
▁Austria	-11.3114
▁tropical	-11.3114
▁bulk	-11.3115
▁AAA	-11.3115
▁Watch	-11.3118
▁1996	-11.3119
▁Stock	-11.3119
▁underlying	-11.3119
▁Palin	-11.3124
▁Bei	-11.3127
▁towel	-11.3132
▁Board	-11.3132
▁beaten	-11.3133
credit	-11.3149
▁rob	-11.3154
▁comedy	-11.3155
▁mull	-11.3158
▁flee	-11.3163
▁dignity	-11.3167
▁modification	-11.3167
▁assigned	-11.3167
▁blessing	-11.3167
▁Abbas	-11.3167
▁cinema	-11.3168
▁Bird	-11.317
▁Often	-11.3174
▁hub	-11.3177
▁Check	-11.3182
▁Pope	-11.3184
▁pledge	-11.3186
900	-11.3187
These	-11.3189
▁freeze	-11.3193
▁Test	-11.3196
process	-11.3197
▁render	-11.3197
▁delete	-11.3198
▁adviser	-11.3211
▁commodity	-11.322
▁derivative	-11.322
▁enthusiast	-11.322
▁suppress	-11.322
▁Should	-11.322
▁snake	-11.322
▁invitation	-11.322
▁Stephen	-11.322
▁Tony	-11.322
▁seemingly	-11.3221
▁expound	-11.3221
▁slowdown	-11.3223
▁ascend	-11.3224
▁coordination	-11.3225
ctive	-11.3226
fund	-11.3235
▁travelers	-11.3237
▁oppose	-11.3239
▁100,000	-11.324
▁protective	-11.3249
▁precise	-11.325
function	-11.325
eiro	-11.3258
huang	-11.3261
▁bun	-11.3265
1.9	-11.3272
▁Electric	-11.3273
▁Modern	-11.3273
▁Light	-11.3273
▁carpet	-11.3273
▁tolerance	-11.3273
▁compress	-11.3274
▁Wuhan	-11.3274
▁torture	-11.3274
▁dioxide	-11.3275
▁hind	-11.3275
lift	-11.328
▁informal	-11.3282
▁texture	-11.3285
▁Mul	-11.3288
▁undermine	-11.3292
03	-11.3293
hearted	-11.3296
▁Prof	-11.3301
▁passive	-11.3303
appropriate	-11.3304
800	-11.3315
▁handful	-11.3316
around	-11.3317
▁correspond	-11.3322
flat	-11.3325
▁prim	-11.3326
▁Jewish	-11.3327
▁Pentagon	-11.3327
▁constitute	-11.3327
▁undergraduate	-11.3327
▁dispatch	-11.3327
▁gasoline	-11.3327
▁Victoria	-11.3327
▁pheno	-11.3328
▁Berlin	-11.333
▁diverse	-11.3331
▁lord	-11.3332
▁Silva	-11.3332
▁vein	-11.3333
▁litter	-11.3334
▁foster	-11.3335
▁MBA	-11.3336
▁2020	-11.3342
▁OF	-11.3342
▁blot	-11.3345
▁raid	-11.335
metre	-11.3353
04	-11.3353
▁peel	-11.3357
Every	-11.3358
▁slim	-11.3359
three	-11.336
▁Libyan	-11.336
▁submit	-11.338
▁hazard	-11.338
▁overwhelming	-11.338
▁securities	-11.338
▁vacuum	-11.338
▁emperor	-11.338
▁forgotten	-11.338
▁vector	-11.338
▁applies	-11.338
▁bankruptcy	-11.3381
▁equipped	-11.3381
▁generating	-11.3382
▁mortality	-11.3383
ethyl	-11.3383
▁conversion	-11.3384
miss	-11.3384
▁couch	-11.339
▁bench	-11.3394
▁ramp	-11.3398
▁maize	-11.3398
▁hunter	-11.3402
zar	-11.3404
▁Few	-11.3407
▁defer	-11.3409
income	-11.3412
▁batter	-11.3421
proof	-11.3422
ridge	-11.3425
▁debut	-11.3429
▁1992	-11.3434
▁occurrence	-11.3434
▁spokesperson	-11.3434
▁Network	-11.3434
▁pupil	-11.3434
▁respondents	-11.3435
▁bicycle	-11.3436
▁Southeast	-11.3437
▁duties	-11.3437
▁Airport	-11.3438
▁wireless	-11.3439
▁differential	-11.3453
▁sack	-11.3459
▁pound	-11.3468
▁nitr	-11.3469
shirt	-11.3471
factor	-11.3483
▁fuzzy	-11.3489
▁league	-11.3489
▁uncomfortable	-11.3489
phosphor	-11.3489
▁accompany	-11.3489
▁reliability	-11.3489
▁workforce	-11.3489
▁decoration	-11.3489
▁smack	-11.3489
ennial	-11.3489
▁1993	-11.3492
▁passionate	-11.3498
▁precisely	-11.3512
base	-11.352
▁Gold	-11.3525
tribution	-11.3537
▁curl	-11.3538
▁Analysts	-11.3543
▁Columbia	-11.3543
▁Tanzania	-11.3543
▁harmonious	-11.3543
▁mysterious	-11.3543
▁specimen	-11.3543
▁conceal	-11.3543
▁damaging	-11.3545
▁correspondent	-11.3546
▁mainstream	-11.3546
▁inquire	-11.3549
▁classified	-11.3553
▁700	-11.3553
▁beast	-11.3556
▁blur	-11.3578
▁overnight	-11.3585
▁uncertain	-11.3596
▁Employ	-11.3598
▁Experiment	-11.3598
▁achieving	-11.3598
▁awkward	-11.3598
▁ceramic	-11.3598
▁excitement	-11.3598
▁receipt	-11.3598
▁violation	-11.3598
▁recipe	-11.3598
▁Malawi	-11.3598
▁confess	-11.3598
▁crumb	-11.3605
▁Bio	-11.3605
▁intent	-11.3608
EE	-11.3611
ordinate	-11.3611
▁replacement	-11.3614
▁strive	-11.3616
woman	-11.3619
▁1950	-11.3622
▁strongest	-11.3639
▁utilization	-11.3654
▁Usually	-11.3654
▁throat	-11.3654
▁premier	-11.3654
▁calculating	-11.3654
▁Boeing	-11.3655
▁blanket	-11.3659
▁arrange	-11.3666
▁cough	-11.3667
▁pants	-11.3673
▁Cabo	-11.3678
Why	-11.3692
▁breathe	-11.37
▁Further	-11.3709
▁psycho	-11.3709
▁tsunami	-11.3709
▁elephant	-11.3709
▁Support	-11.3709
▁continual	-11.3709
▁Major	-11.3709
▁relating	-11.3709
▁dried	-11.371
▁sunburn	-11.371
▁fibre	-11.371
▁Learn	-11.3712
▁complaints	-11.3714
▁distant	-11.3715
▁Maria	-11.3719
▁flip	-11.3725
fast	-11.3727
eastern	-11.373
▁politician	-11.3732
▁dining	-11.3735
▁triple	-11.3752
▁Scotland	-11.3765
▁migration	-11.3765
▁petroleum	-11.3765
▁prevail	-11.3765
▁sandwich	-11.3765
▁spoil	-11.3765
▁creator	-11.3765
▁exclud	-11.3765
▁surpass	-11.3766
▁aviation	-11.3767
▁departure	-11.3768
▁electrode	-11.3773
▁comic	-11.3777
check	-11.3777
▁brake	-11.3779
▁thoroughly	-11.378
bow	-11.3796
▁exert	-11.3798
root	-11.3799
▁conception	-11.3808
▁Executive	-11.3821
▁Fernando	-11.3821
▁Ottawa	-11.3821
▁Zhejiang	-11.3821
▁countermeasure	-11.3821
▁magnitude	-11.3821
▁tactics	-11.3821
▁identical	-11.3821
▁generous	-11.3821
7,000	-11.3821
▁affirm	-11.3821
▁frighten	-11.3821
▁glove	-11.3821
▁constitutional	-11.3822
▁mimic	-11.3823
▁Express	-11.3824
▁copies	-11.3824
▁Navy	-11.3824
▁transferred	-11.3826
zone	-11.3829
paid	-11.3835
▁countless	-11.3838
▁quadr	-11.3839
▁musician	-11.3839
Sahara	-11.3839
store	-11.384
▁fastest	-11.3847
▁hitting	-11.3856
Macau	-11.3858
▁Matt	-11.3859
▁eaten	-11.3859
▁distract	-11.3869
scope	-11.3878
▁Energia	-11.3878
▁Lebanon	-11.3878
▁cautious	-11.3878
▁demonstrator	-11.3878
▁preliminary	-11.3878
▁temporarily	-11.3878
▁WHO	-11.3878
▁generator	-11.3878
▁pulp	-11.3878
▁kingdom	-11.3879
▁Music	-11.3889
help	-11.3891
▁Qin	-11.3902
what	-11.3905
▁compact	-11.391
system	-11.3915
▁Farm	-11.3926
▁Jean	-11.3927
cultiva	-11.3932
▁Chairman	-11.3934
▁Embraer	-11.3934
▁possibilities	-11.3934
▁tremendous	-11.3934
▁Sweden	-11.3934
▁bailout	-11.3934
▁bloom	-11.3934
▁implant	-11.3935
▁breach	-11.3935
▁Construction	-11.3938
▁respective	-11.3941
▁expertise	-11.3943
▁subway	-11.3953
integrate	-11.3954
max	-11.3959
▁correction	-11.3972
figure	-11.3973
balance	-11.398
▁fighters	-11.3984
▁corrupt	-11.3987
▁horizon	-11.399
symmetric	-11.3992
▁catalyst	-11.3992
▁consensus	-11.3992
▁despair	-11.3992
▁explosive	-11.3992
▁semiconductor	-11.3992
▁compensate	-11.3992
▁varied	-11.3992
▁Pearl	-11.3992
▁speculation	-11.3993
▁cage	-11.4005
▁muck	-11.4007
feng	-11.4007
▁equality	-11.4015
▁outbreak	-11.4021
▁Low	-11.4022
▁mentor	-11.4023
▁Liang	-11.403
▁broker	-11.4035
▁designated	-11.4036
charge	-11.4039
design	-11.404
▁accumulation	-11.4049
▁administrator	-11.4049
▁liberty	-11.4049
▁recognise	-11.4049
▁squeeze	-11.4049
▁transparent	-11.4049
▁credibility	-11.4049
▁beverage	-11.4049
▁spiral	-11.4051
▁plunge	-11.4052
▁Tam	-11.4054
collar	-11.4056
ifier	-11.4063
▁extraction	-11.4071
▁hail	-11.4088
▁Stanford	-11.4107
▁convenience	-11.4107
▁irregular	-11.4107
▁grammar	-11.4107
▁cousin	-11.4107
▁ladies	-11.4107
▁sodium	-11.4107
▁riot	-11.411
▁venue	-11.411
▁sterility	-11.411
▁favourite	-11.4111
▁chase	-11.4111
▁chaos	-11.4112
green	-11.4114
▁glow	-11.4118
0.9	-11.4122
▁calc	-11.4123
▁deduce	-11.4131
▁Cook	-11.4138
5.5	-11.4139
▁invade	-11.414
cross	-11.4142
▁consult	-11.4154
▁Baghdad	-11.4165
▁Chelsea	-11.4165
▁receptor	-11.4165
▁surveillance	-11.4165
▁removal	-11.4165
▁unclear	-11.4165
▁Fortune	-11.4165
▁displaced	-11.4165
▁glory	-11.4165
▁Class	-11.4167
▁Prize	-11.4167
▁Talk	-11.4167
▁additive	-11.4167
▁afterwards	-11.4167
▁submitted	-11.4169
▁trapped	-11.4169
▁consultation	-11.4175
▁limp	-11.4176
▁deployment	-11.4178
▁crab	-11.4178
craft	-11.4209
▁controversy	-11.4223
▁defensive	-11.4223
▁dinosaur	-11.4223
▁exploring	-11.4223
▁feasible	-11.4223
▁militia	-11.4223
▁rhetoric	-11.4223
▁Application	-11.4223
▁thrust	-11.4223
▁spatial	-11.4224
▁companion	-11.4224
▁Laden	-11.4231
▁revolutionary	-11.4232
activate	-11.4232
▁biology	-11.4233
▁linger	-11.4234
▁organism	-11.4236
▁40%	-11.4247
1.7	-11.4276
▁30%	-11.4277
▁Brussels	-11.4282
▁Mexican	-11.4282
▁Taylor	-11.4282
▁Yahoo	-11.4282
▁grandfather	-11.4282
▁lawsuit	-11.4282
▁imperial	-11.4282
▁Nothing	-11.4283
▁nationwide	-11.4284
▁naked	-11.4284
▁textbook	-11.4284
▁Full	-11.4309
▁totalled	-11.4311
through	-11.4323
▁Direct	-11.4323
General	-11.4324
especially	-11.4324
▁Total	-11.433
▁Photo	-11.4333
▁antibiotic	-11.4341
▁bamboo	-11.4341
▁reception	-11.4341
▁refresh	-11.4341
▁Arctic	-11.4341
▁Palace	-11.4341
▁swift	-11.4342
▁ranging	-11.4346
▁hometown	-11.4346
▁disagreement	-11.4358
▁cyto	-11.437
▁specialized	-11.4371
construct	-11.4391
▁Micro	-11.4399
GetWord	-11.4401
▁Companies	-11.4401
▁Sarkozy	-11.4401
▁Zambezi	-11.4401
▁hydraulic	-11.4401
▁patience	-11.4401
▁prosecutor	-11.4401
▁rehabilitation	-11.4401
▁substitute	-11.4401
▁tournament	-11.4401
▁Shandong	-11.4401
▁jealous	-11.4401
▁nursing	-11.4401
▁Monte	-11.4401
▁simultaneously	-11.4401
▁palace	-11.4401
▁Gross	-11.4401
movable	-11.4403
▁viewpoint	-11.4408
▁compris	-11.4409
▁parliamentary	-11.441
▁Radio	-11.4424
▁Someone	-11.443
▁Wan	-11.4443
▁sixty	-11.4444
▁focuse	-11.4444
▁drown	-11.4444
genesis	-11.4445
▁seize	-11.4447
▁symptom	-11.4449
▁Eric	-11.4457
▁magnifi	-11.446
▁Peng	-11.446
▁Christopher	-11.4461
▁Michigan	-11.4461
▁Geneva	-11.4461
▁computation	-11.4461
▁maturity	-11.4461
▁utilize	-11.4461
▁attorney	-11.4461
▁removing	-11.4461
▁Hydro	-11.4461
esteem	-11.4461
▁olive	-11.4462
▁distress	-11.4463
▁Goldman	-11.4465
▁enforcement	-11.4465
▁lump	-11.4466
▁idle	-11.4468
▁curse	-11.4478
▁Whenever	-11.4483
▁specify	-11.4483
▁suppose	-11.4487
▁rack	-11.449
operation	-11.4501
▁interfere	-11.4506
▁particle	-11.4511
▁Burmese	-11.4521
▁Shakespeare	-11.4521
▁describing	-11.4521
▁introducing	-11.4521
▁sleeve	-11.4521
▁Watson	-11.4521
▁radioactivity	-11.4521
▁menstru	-11.4522
▁salaries	-11.4522
▁cooperative	-11.4526
▁Model	-11.4527
▁warrant	-11.4529
valent	-11.4538
▁accuse	-11.4548
▁Chile	-11.4552
▁gown	-11.4555
▁tick	-11.4556
");	-11.4561
economic	-11.4566
plane	-11.4566
complete	-11.4567
1.1	-11.4573
▁Tehran	-11.4582
▁synthesis	-11.4582
▁threshold	-11.4582
▁vigorous	-11.4582
▁probability	-11.4582
▁ideology	-11.4582
▁garment	-11.4582
▁erupt	-11.4583
▁wax	-11.4585
▁flew	-11.4586
▁sunlight	-11.4588
▁neat	-11.459
▁dancer	-11.4594
▁runway	-11.4609
▁amino	-11.4613
member	-11.4621
bury	-11.4629
▁Thanksgiving	-11.4643
▁astronaut	-11.4643
▁grandmother	-11.4643
▁honour	-11.4643
▁warehouse	-11.4643
▁friction	-11.4645
referring	-11.4647
▁subscribe	-11.4674
▁Kenyan	-11.468
0.7	-11.4685
because	-11.4689
cheng	-11.4698
▁bachelor	-11.4704
▁suspicion	-11.4704
▁Zhong	-11.4704
▁appliance	-11.4704
▁buzz	-11.4704
▁Sarah	-11.4704
▁ideological	-11.4704
▁stipulat	-11.4704
▁decay	-11.4704
▁(3)	-11.4705
▁instability	-11.4705
▁Word	-11.4706
pharma	-11.4707
▁resemble	-11.4707
▁Local	-11.4708
▁rays	-11.4723
▁willingness	-11.4723
▁bunch	-11.4724
▁Dick	-11.4751
2.2	-11.4756
CVRD	-11.4766
▁Ambassador	-11.4766
▁Authority	-11.4766
▁Nanjing	-11.4766
▁corridor	-11.4766
▁societies	-11.4766
▁welfare	-11.4766
▁congressional	-11.4766
▁retreat	-11.4766
▁intimate	-11.4766
selling	-11.4767
▁ethical	-11.4767
▁imaging	-11.4767
▁alkali	-11.4768
patient	-11.4768
▁foolish	-11.477
▁graft	-11.4773
hunt	-11.4774
6.5	-11.4775
▁80%	-11.4776
▁Cahor	-11.4778
▁Golden	-11.4791
▁hung	-11.4812
strain	-11.4818
▁resident	-11.4825
▁acquaint	-11.4828
▁stumble	-11.4828
▁appetite	-11.4828
▁Convention	-11.4828
▁Silicon	-11.4828
▁Zambia	-11.4828
▁synthetic	-11.4828
▁hammer	-11.4828
▁noodle	-11.4828
▁ensuring	-11.4828
vascular	-11.4828
▁Early	-11.4828
▁betray	-11.483
▁tribal	-11.4831
partisan	-11.4831
▁persistent	-11.4832
▁Town	-11.4852
▁Stone	-11.4858
▁adaptation	-11.4864
culture	-11.488
aggr	-11.489
▁Mount	-11.489
▁diffract	-11.489
▁Medicine	-11.489
▁Promotion	-11.489
▁carcinoma	-11.489
▁explicit	-11.489
▁investigating	-11.489
▁navigation	-11.489
▁proliferation	-11.489
▁twelve	-11.489
▁tweet	-11.489
▁scratch	-11.489
▁Summer	-11.489
▁mankind	-11.489
▁Meeting	-11.4891
▁timing	-11.4891
▁bounce	-11.4892
▁interference	-11.4893
▁rude	-11.4893
▁awful	-11.4898
2.1	-11.4898
▁Bassa	-11.49
▁pause	-11.4902
▁stopping	-11.4906
▁massage	-11.4912
osphere	-11.4932
2.6	-11.4938
writer	-11.494
prehensi	-11.4944
▁cultivation	-11.4953
▁legitimate	-11.4953
▁predecessor	-11.4953
▁shield	-11.4953
▁subsidies	-11.4953
▁utility	-11.4953
▁Film	-11.4954
▁safeguard	-11.4954
▁microscope	-11.4954
▁harmony	-11.4955
▁outlined	-11.4955
▁comb	-11.4957
▁allocate	-11.4958
▁polymer	-11.4958
▁lemon	-11.4961
▁citing	-11.4962
▁laughter	-11.4972
phase	-11.4981
▁expose	-11.4985
▁Deng	-11.4991
source	-11.5004
▁trash	-11.5009
▁Lobito	-11.5017
▁Benguela	-11.5017
▁facilitate	-11.5017
▁inferior	-11.5017
▁miracle	-11.5017
▁therapeutic	-11.5017
▁shoppers	-11.5017
▁versus	-11.5017
▁microwave	-11.5018
▁allocation	-11.5018
▁breakthrough	-11.5018
▁batteries	-11.5019
▁humble	-11.502
▁invented	-11.502
▁Michelle	-11.502
▁refus	-11.5025
▁Duke	-11.5027
▁Nature	-11.503
▁rotation	-11.5037
3.3	-11.5053
▁Steel	-11.5055
Portugal	-11.5068
minded	-11.5071
llied	-11.5077
▁Nevertheless	-11.508
▁Petroleum	-11.508
▁administer	-11.508
▁collaboration	-11.508
▁contributing	-11.508
▁fantastic	-11.508
▁incorporate	-11.508
▁precipit	-11.508
▁qualification	-11.508
▁clashes	-11.508
▁tiger	-11.5081
▁bulb	-11.5081
▁ugly	-11.5081
▁fade	-11.5082
TER	-11.5103
▁Sky	-11.5111
dependent	-11.5114
▁Nick	-11.5117
kov	-11.5119
therapy	-11.5133
▁Vladimir	-11.5144
▁mosquito	-11.5144
▁District	-11.5144
▁Jacob	-11.5144
▁eurozone	-11.5145
▁trunk	-11.5146
▁adhere	-11.5147
▁tutor	-11.5148
▁weird	-11.5148
▁pork	-11.5148
▁salad	-11.5151
guard	-11.5154
▁Poland	-11.5159
▁jury	-11.516
▁Relations	-11.5162
▁Walk	-11.5167
▁tire	-11.5183
GDP	-11.5197
▁Nampula	-11.5209
▁dilemma	-11.5209
▁suspension	-11.5209
▁unemployed	-11.5209
▁skirt	-11.521
▁chef	-11.5213
▁antibody	-11.5215
▁wool	-11.5218
location	-11.5242
$10	-11.5251
2.3	-11.5255
fruit	-11.5263
▁dirt	-11.5266
▁caffeine	-11.5274
▁Chongqing	-11.5274
▁Millennium	-11.5274
▁Myanmar	-11.5274
▁beloved	-11.5274
▁constraints	-11.5274
▁unnecessary	-11.5274
▁carriage	-11.5274
▁cliff	-11.5274
▁Mongolia	-11.5274
▁oppress	-11.5274
▁Consumer	-11.5274
▁Madrid	-11.5275
▁silly	-11.5276
▁sovereignty	-11.5276
▁republic	-11.5278
▁coupling	-11.5279
▁compression	-11.528
▁resent	-11.528
▁downtown	-11.5283
▁Found	-11.5287
▁downturn	-11.5289
cyclo	-11.5295
▁distraction	-11.5295
▁retire	-11.5301
▁colorful	-11.5319
present	-11.5321
launch	-11.5334
▁apologize	-11.5339
▁commodities	-11.5339
▁dictionary	-11.5339
▁metaphor	-11.5339
▁soybean	-11.5339
▁okay	-11.5339
▁brutal	-11.5339
▁disabled	-11.534
tropic	-11.5343
▁glut	-11.5343
▁dread	-11.5345
rrhea	-11.5346
strong	-11.5347
▁flock	-11.5351
▁merger	-11.5377
▁swap	-11.5389
technology	-11.5395
century	-11.5395
▁Jonathan	-11.5405
▁ghost	-11.5405
▁dairy	-11.5405
▁packaging	-11.5406
▁wrapped	-11.5406
▁Kevin	-11.5406
▁chunk	-11.5406
▁distinctive	-11.5412
▁disappointment	-11.5413
▁cookie	-11.5414
▁potatoes	-11.5415
▁northeast	-11.543
axe	-11.5434
enberg	-11.5445
▁advertise	-11.546
▁Plat	-11.546
1,000	-11.5462
▁Off	-11.5462
▁Lincoln	-11.5471
▁blossom	-11.5471
▁cholesterol	-11.5471
▁electoral	-11.5471
▁fantasy	-11.5471
▁inevitably	-11.5471
▁freezing	-11.5471
▁dispose	-11.5472
▁entity	-11.5473
▁robber	-11.5473
▁differentiate	-11.5479
▁roommate	-11.5479
▁batch	-11.5479
▁oven	-11.5482
▁Tower	-11.5485
▁Price	-11.5502
▁Mumbai	-11.5538
▁Musharraf	-11.5538
▁Nacional	-11.5538
▁ecosystem	-11.5538
▁experiencing	-11.5538
▁franchise	-11.5538
▁gadget	-11.5538
▁jewelry	-11.5538
▁nickname	-11.5538
▁pricing	-11.5538
▁inquiry	-11.5538
▁quantities	-11.554
▁burger	-11.5541
▁Combin	-11.5541
▁hiding	-11.5544
▁competitiveness	-11.5549
▁Rich	-11.5553
▁Beira	-11.5556
communica	-11.5569
▁troop	-11.557
▁Qian	-11.5586
▁Economist	-11.5605
▁Medvedev	-11.5605
▁Zuckerberg	-11.5605
▁availability	-11.5605
▁megawatts	-11.5605
▁peculiar	-11.5605
▁physician	-11.5605
▁ritual	-11.5605
▁turkey	-11.5605
▁rhyme	-11.5605
▁horror	-11.5605
▁Focus	-11.5608
▁Albert	-11.5608
▁layout	-11.5616
▁bribe	-11.5639
▁germ	-11.5641
▁fond	-11.5653
folia	-11.5658
nomic	-11.566
sufficient	-11.5664
Africa	-11.5664
macauhub	-11.5673
▁Bangkok	-11.5673
▁accusation	-11.5673
▁fragile	-11.5673
▁metabolism	-11.5673
▁purchasing	-11.5673
▁restructuring	-11.5673
▁cavity	-11.5673
▁smash	-11.5673
▁gonna	-11.5673
▁animation	-11.5673
▁adverse	-11.5675
▁multilateral	-11.5675
▁punch	-11.5678
▁resignation	-11.5682
▁contradiction	-11.5683
▁flour	-11.5685
▁sperm	-11.5689
Brazil	-11.5731
current	-11.5733
dynamic	-11.5733
▁Parliament	-11.5741
▁Traditional	-11.5741
▁guitar	-11.5741
▁cyclone	-11.5741
▁macroeconomic	-11.5741
▁prescription	-11.5744
wreck	-11.5747
▁confusion	-11.5749
▁logging	-11.5749
▁suspend	-11.5763
▁negotiation	-11.5771
▁distribute	-11.5779
plat	-11.5786
▁slot	-11.5803
▁phenomena	-11.5803
▁Secret	-11.5806
▁Illinois	-11.5809
▁curiosity	-11.5809
▁epidemic	-11.5809
▁genius	-11.5809
▁investigator	-11.5809
▁kernel	-11.5809
▁asphalt	-11.5809
▁deciding	-11.5809
▁CNN	-11.5809
▁stabilize	-11.5809
▁decree	-11.5809
▁enclos	-11.5809
▁initiate	-11.5809
▁disperse	-11.581
▁Strip	-11.581
▁Place	-11.5811
▁Limit	-11.5811
▁scanning	-11.5813
▁whip	-11.5817
▁Trust	-11.5826
3.6	-11.5856
After	-11.5871
▁enforce	-11.5873
▁Poisson	-11.5878
▁template	-11.5878
▁deflect	-11.5878
▁portrait	-11.5878
▁martial	-11.5878
▁Ghana	-11.5878
▁acoustic	-11.5878
▁credible	-11.5878
▁kilogram	-11.5878
▁elbow	-11.5878
▁benchmark	-11.5879
▁legacy	-11.5879
▁discourse	-11.588
interest	-11.5881
▁spike	-11.5882
▁Susan	-11.5884
▁larva	-11.589
▁kilo	-11.5909
▁educate	-11.5915
world	-11.5941
▁hetero	-11.5945
▁Toyota	-11.5947
▁disposal	-11.5947
▁hemisphere	-11.5947
▁loneliness	-11.5947
▁technician	-11.5947
▁premature	-11.5947
▁refinery	-11.5947
▁empire	-11.5947
▁altitude	-11.5947
▁regain	-11.5948
▁Listen	-11.5949
▁Visit	-11.595
▁livestock	-11.595
▁Tibetan	-11.5953
▁enrichment	-11.5954
▁passport	-11.5954
▁liability	-11.5959
▁stereo	-11.5978
——	-11.5984
▁derive	-11.5984
▁tack	-11.5986
2.8	-11.5998
▁Barcelona	-11.6017
▁Fortunately	-11.6017
▁declining	-11.6017
▁Moatize	-11.6017
▁Alexander	-11.6017
▁Policy	-11.6017
▁Mobile	-11.6017
▁surgical	-11.6017
▁Engineering	-11.6017
▁Break	-11.6018
▁telecom	-11.6018
▁crises	-11.6019
▁Iowa	-11.6019
▁accessories	-11.602
▁wives	-11.602
▁baseball	-11.6021
▁clause	-11.6022
▁knit	-11.6022
▁90%	-11.6027
▁mapping	-11.6029
physical	-11.6084
▁Companhi	-11.6088
▁Economy	-11.6088
▁Yunnan	-11.6088
▁applicable	-11.6088
▁collision	-11.6088
▁confused	-11.6088
▁lunar	-11.6088
▁manipulate	-11.6088
▁magnificent	-11.6089
▁dogmatic	-11.6091
▁Unless	-11.6096
bridge	-11.6104
▁distinction	-11.6105
▁elder	-11.6147
▁sovereign	-11.6156
▁Belgium	-11.6159
▁currencies	-11.6159
▁disclosure	-11.6159
▁assurance	-11.6159
▁mercy	-11.6159
▁inherent	-11.6159
▁consultancy	-11.6159
▁meteor	-11.6159
▁pardon	-11.616
▁viral	-11.6164
▁colonial	-11.6165
▁metallic	-11.6166
▁dropping	-11.6168
▁Haiti	-11.6172
onomy	-11.6174
▁Constitution	-11.623
▁Hemisphere	-11.623
▁Tsvangirai	-11.623
▁accommodate	-11.623
▁acquiring	-11.623
▁apparatus	-11.623
▁cervical	-11.623
▁featuring	-11.623
▁fifteen	-11.623
▁monument	-11.623
▁turbine	-11.623
▁Alaska	-11.623
▁Dubai	-11.623
▁atmospheric	-11.623
▁bronze	-11.623
▁leverage	-11.623
▁sneak	-11.623
▁Jornal	-11.623
▁Monitor	-11.623
▁Matsu	-11.6231
▁Index	-11.6231
▁flourish	-11.6232
▁thunder	-11.6233
▁verification	-11.6233
▁empower	-11.6234
▁bucket	-11.6235
▁loath	-11.6252
▁verify	-11.6263
▁capita	-11.6264
predator	-11.6287
▁Century	-11.6302
▁aggregate	-11.6302
▁consolidate	-11.6302
▁prototype	-11.6302
▁transparency	-11.6302
▁Merkel	-11.6302
▁absurd	-11.6302
▁circum	-11.6302
▁consecutive	-11.6302
▁spectacular	-11.6302
▁liquor	-11.6302
▁diagram	-11.6302
▁semantic	-11.6302
▁dissolve	-11.6302
▁splash	-11.6302
▁licence	-11.6302
▁urging	-11.6302
▁architectural	-11.6302
▁roast	-11.6303
▁Hawk	-11.6303
▁Hunan	-11.6306
▁lesion	-11.6315
▁Pitt	-11.6324
▁Colorado	-11.6375
▁Damascus	-11.6375
▁frustrated	-11.6375
▁gloom	-11.6375
▁impulse	-11.6375
▁trousers	-11.6375
▁GPS	-11.6375
▁premise	-11.6375
▁imbalance	-11.6375
▁sidelines	-11.6376
▁vivid	-11.6377
▁purple	-11.6378
▁loyalty	-11.6379
▁Peking	-11.6381
▁spectra	-11.6384
▁incur	-11.6386
▁racing	-11.6386
▁Eight	-11.64
▁typ	-11.6402
▁Media	-11.6414
script	-11.6434
▁condo	-11.6445
natural	-11.6445
▁Enterprise	-11.6448
▁Jersey	-11.6448
▁Denmark	-11.6448
▁Uganda	-11.6448
▁RMB	-11.6448
▁sorrow	-11.6448
▁immense	-11.6449
▁Serbia	-11.6449
▁isolation	-11.6449
8.5	-11.6451
▁shuttle	-11.6452
▁pirate	-11.6455
▁neurons	-11.6484
0.8	-11.6486
depend	-11.6517
▁Cambodia	-11.6521
▁Digital	-11.6521
▁Sydney	-11.6521
▁Welcome	-11.6521
▁browser	-11.6521
▁desirable	-11.6521
▁diligent	-11.6521
▁memorandum	-11.6521
▁shrimp	-11.6521
▁Chapter	-11.6521
▁conviction	-11.6521
▁diagnostic	-11.6521
▁meditation	-11.6521
▁zinc	-11.6521
▁Glass	-11.6523
▁Write	-11.6525
▁basal	-11.6526
▁Friends	-11.6527
▁NBA	-11.653
▁glue	-11.6533
▁Francis	-11.6592
treatment	-11.6593
South	-11.6594
▁Caribbean	-11.6595
▁detained	-11.6595
▁luxurious	-11.6595
▁pavilion	-11.6595
▁diffuse	-11.6595
▁requiring	-11.6595
▁illusion	-11.6595
▁Sleep	-11.6595
▁miserable	-11.6595
▁stereotype	-11.6595
▁guidelines	-11.6595
▁endanger	-11.6596
▁milestone	-11.6596
▁apology	-11.6597
▁Otherwise	-11.6597
▁swept	-11.6597
▁minimal	-11.6598
▁Dragon	-11.66
vocation	-11.66
activity	-11.6621
▁circumstance	-11.6657
symmetry	-11.667
▁Norwegian	-11.667
▁recipient	-11.667
▁turmoil	-11.667
▁Nacala	-11.667
▁pillar	-11.667
▁elevate	-11.667
▁dictate	-11.667
▁desktop	-11.6672
Reuters	-11.6673
▁slump	-11.6675
▁chew	-11.6679
▁gradual	-11.6722
crates	-11.6728
▁monk	-11.6745
▁Manchester	-11.6745
▁anterior	-11.6745
▁bizarre	-11.6745
▁cushion	-11.6745
▁nowadays	-11.6745
▁Ossetia	-11.6745
▁Rwanda	-11.6745
▁Detroit	-11.6745
▁Nixon	-11.6745
Qaeda	-11.6745
▁Cairo	-11.6745
▁telescope	-11.6745
▁copyright	-11.6747
▁charging	-11.6747
▁disturbance	-11.6749
watt	-11.6752
▁crave	-11.6752
▁lodge	-11.6767
▁asthma	-11.6769
security	-11.6821
▁Benedict	-11.6821
▁Liverpool	-11.6821
▁legislative	-11.6821
▁supplied	-11.6821
▁yarn	-11.6821
Russia	-11.6821
▁dementia	-11.6821
▁explode	-11.6821
▁animated	-11.6821
▁antenna	-11.6821
▁encrypt	-11.6822
▁navy	-11.6823
▁spacecraft	-11.6823
▁wolf	-11.6823
▁spotlight	-11.6826
▁arouse	-11.6838
▁Brasil	-11.6896
▁Philadelphia	-11.6897
▁jurisdiction	-11.6897
▁participating	-11.6897
▁prosperous	-11.6897
▁gradient	-11.6897
▁placing	-11.6897
▁stairs	-11.6897
TION	-11.6898
▁mosque	-11.6898
▁motorcycle	-11.6898
▁welding	-11.6898
▁correlated	-11.6898
social	-11.6898
▁reiterat	-11.6899
▁Forbes	-11.6903
▁Self	-11.6904
▁crane	-11.6912
▁Electronic	-11.6974
▁Thousands	-11.6974
▁degradation	-11.6974
▁dynasty	-11.6974
▁occupy	-11.6974
▁satisfactory	-11.6974
▁sketch	-11.6974
▁Gordon	-11.6974
▁engaging	-11.6974
▁sprout	-11.6974
▁whistle	-11.6974
▁aluminium	-11.6974
▁waking	-11.6974
▁heritage	-11.6974
establish	-11.6975
▁correspondence	-11.6976
▁marrow	-11.6977
▁lazy	-11.6978
▁bald	-11.6982
▁dental	-11.6983
text	-11.7003
▁rust	-11.7023
▁graceful	-11.7042
course	-11.7051
inflammatory	-11.7052
▁Karzai	-11.7052
▁Manhattan	-11.7052
▁discontent	-11.7052
▁eligible	-11.7052
▁negotiator	-11.7052
▁reservation	-11.7052
▁semester	-11.7052
▁Agreement	-11.7052
▁pizza	-11.7052
▁communist	-11.7052
▁bolster	-11.7052
▁envoy	-11.7052
▁Cruz	-11.7052
▁vocal	-11.7052
▁Nearly	-11.7052
▁monster	-11.7052
▁provoke	-11.7052
▁forehead	-11.7052
▁Depend	-11.7053
▁pillow	-11.7054
▁tuition	-11.7055
▁mutation	-11.7056
▁drone	-11.7056
second	-11.7084
▁bankrupt	-11.7129
▁Confucian	-11.713
▁elevator	-11.713
▁happily	-11.713
▁gratitude	-11.713
▁amusement	-11.713
▁buffer	-11.713
▁afflict	-11.713
▁maternal	-11.713
▁volcano	-11.713
▁Huawei	-11.713
▁alternate	-11.7131
▁dividend	-11.7131
IMF	-11.7132
first	-11.7133
▁consent	-11.7133
▁naval	-11.7133
▁jaw	-11.7134
▁craze	-11.7135
▁erect	-11.7151
▁obstruct	-11.7155
2.7	-11.7187
▁Arizona	-11.7208
▁glimpse	-11.7208
▁irrigation	-11.7208
▁earliest	-11.7208
▁likelihood	-11.7208
▁embark	-11.7208
▁meadow	-11.7208
▁clerk	-11.7208
▁eighteen	-11.7208
▁infinite	-11.7209
▁nightmare	-11.7209
▁conquer	-11.7209
▁deemed	-11.7209
▁Taiwanese	-11.721
▁Yemen	-11.7213
▁zip	-11.7214
▁expire	-11.7217
kilometer	-11.725
4.7	-11.725
firm	-11.7264
▁potato	-11.7276
▁malign	-11.7285
▁custody	-11.7288
▁libraries	-11.7288
▁optimism	-11.7288
▁semicolon	-11.7288
▁vague	-11.7288
▁maneuver	-11.7288
▁ridiculous	-11.7288
▁steadily	-11.7288
▁granite	-11.7288
▁arriving	-11.7288
▁statue	-11.7288
▁Everything	-11.7288
▁discern	-11.7288
▁benign	-11.7288
▁Garden	-11.729
▁Jiangsu	-11.729
▁cyst	-11.7295
▁Singh	-11.73
▁Follow	-11.7316
▁congress	-11.7334
▁definite	-11.7345
▁guilt	-11.735
▁Television	-11.7368
▁antioxidant	-11.7368
▁austerity	-11.7368
▁respiratory	-11.7368
▁spontaneous	-11.7368
▁volatile	-11.7368
▁Empire	-11.7368
▁remarkably	-11.7368
▁sampling	-11.7368
▁completion	-11.7368
▁gracious	-11.7368
▁Vicente	-11.7368
▁thumb	-11.7368
▁increment	-11.7368
▁Movement	-11.7368
▁wicked	-11.7368
▁primitive	-11.7368
▁Clark	-11.737
computer	-11.7372
advert	-11.7438
▁Tibet	-11.7442
▁Olmert	-11.7448
▁embedded	-11.7448
▁synthesized	-11.7448
▁voyage	-11.7448
▁maritime	-11.7448
▁Actually	-11.7448
▁hobby	-11.7448
▁DVD	-11.7448
▁believing	-11.7448
▁historian	-11.7448
▁cherish	-11.7448
▁refined	-11.7449
▁inhabitants	-11.7449
▁Discuss	-11.7449
Engil	-11.7449
▁Zhuhai	-11.7449
4.3	-11.7449
▁Castro	-11.7449
▁speculate	-11.7451
▁malignant	-11.7451
▁revised	-11.7452
mouth	-11.7454
▁greed	-11.7454
▁Audi	-11.7468
respect	-11.7484
▁Commercial	-11.753
▁Fujian	-11.753
▁Swedish	-11.753
▁anonymous	-11.753
▁doctrine	-11.753
▁grocery	-11.753
▁surrender	-11.753
▁Together	-11.753
▁comparable	-11.753
▁monopoly	-11.753
▁slogan	-11.753
▁cortex	-11.753
▁yoga	-11.753
▁deceit	-11.753
▁hydrocarbon	-11.753
▁activated	-11.753
▁Front	-11.7531
▁crunch	-11.7533
▁intervene	-11.7533
▁muddle	-11.7533
growing	-11.7537
▁counteract	-11.7588
nunciation	-11.7612
▁ASEAN	-11.7612
▁Buffett	-11.7612
▁Mahmoud	-11.7612
▁Sociedade	-11.7612
▁Tsinghua	-11.7612
▁equilibrium	-11.7612
▁inflammation	-11.7612
▁retrospect	-11.7612
▁Wisconsin	-11.7612
▁seldom	-11.7612
▁Budget	-11.7612
▁sphere	-11.7612
▁Personal	-11.7612
▁racial	-11.7612
▁messaging	-11.7612
efficient	-11.7615
▁brew	-11.7618
▁tolerate	-11.7679
▁Minnesota	-11.7694
▁bourgeois	-11.7694
▁decreasing	-11.7694
▁livelihood	-11.7694
▁outskirts	-11.7694
▁philosopher	-11.7694
▁Federation	-11.7694
▁Spirit	-11.7694
▁picnic	-11.7694
▁baggage	-11.7694
▁Temple	-11.7694
▁mobility	-11.7694
▁Larry	-11.7694
▁awesome	-11.7694
▁Blair	-11.7694
▁eternal	-11.7694
▁Import	-11.7695
▁delta	-11.7695
▁Yellow	-11.7695
▁Jimmy	-11.7696
▁Future	-11.7697
respectively	-11.7701
4.6	-11.7708
spheric	-11.7723
▁devote	-11.7744
bidden	-11.777
3.7	-11.7772
gnostic	-11.7778
▁Imagine	-11.7778
▁Saddam	-11.7778
▁devastating	-11.7778
▁peripheral	-11.7778
▁Deputy	-11.7778
▁translator	-11.7778
▁plague	-11.7778
▁autonomy	-11.7778
▁algae	-11.7778
▁thrive	-11.7778
▁deviation	-11.7778
▁obese	-11.7781
square	-11.7791
lapse	-11.7806
▁Hussein	-11.7862
▁arithmetic	-11.7862
▁efficacy	-11.7862
▁lubric	-11.7862
▁physiological	-11.7862
▁counterfeit	-11.7862
▁arguing	-11.7862
▁Computer	-11.7862
▁Iceland	-11.7862
▁amateur	-11.7862
▁whisk	-11.7863
▁transcript	-11.7864
bodied	-11.7865
▁soaring	-11.7865
great	-11.7867
president	-11.787
carbon	-11.787
cultural	-11.787
▁diploma	-11.79
▁prescribe	-11.7903
3.8	-11.7932
▁Alzheimer	-11.7946
▁Beckham	-11.7946
▁BlackBerry	-11.7946
▁Holmes	-11.7946
▁credentials	-11.7946
▁decompress	-11.7946
▁intermediate	-11.7946
▁luggage	-11.7946
▁territorial	-11.7946
▁dessert	-11.7946
▁banquet	-11.7947
▁staple	-11.7947
▁entities	-11.7947
▁Something	-11.7947
▁Account	-11.7948
▁Neither	-11.7948
▁cube	-11.7952
Pacific	-11.7955
3.1	-11.8011
▁Administrative	-11.8032
▁Agricultural	-11.8032
▁Antarctic	-11.8032
▁Bangladesh	-11.8032
▁Private	-11.8032
▁Titanic	-11.8032
▁evaluating	-11.8032
▁testimony	-11.8032
▁Depression	-11.8032
▁Parents	-11.8032
▁discrete	-11.8032
▁disgust	-11.8032
▁patriot	-11.8032
▁Field	-11.8032
▁Nepal	-11.8032
▁supervise	-11.8035
▁Large	-11.8036
▁thorough	-11.8095
axial	-11.8117
▁Galaxy	-11.8118
▁grammatical	-11.8118
▁litigation	-11.8118
▁pesticide	-11.8118
▁vegetation	-11.8118
▁Antonio	-11.8118
▁OPEC	-11.8118
▁widow	-11.8118
▁harass	-11.8118
▁Czech	-11.8118
▁craving	-11.8118
▁compiled	-11.8118
▁Death	-11.8118
▁indicating	-11.8118
▁lottery	-11.8118
▁ATM	-11.8118
▁goodbye	-11.8119
▁carrot	-11.8119
▁undergoing	-11.8119
▁dilute	-11.8119
▁Plus	-11.8121
2.9	-11.816
▁Murdoch	-11.8205
▁energetic	-11.8205
▁Cabinda	-11.8205
▁Lebanese	-11.8205
▁convincing	-11.8205
▁enhancing	-11.8205
▁envelope	-11.8205
▁graduating	-11.8205
▁simplicity	-11.8205
▁sympathy	-11.8205
▁terrain	-11.8205
▁disciple	-11.8205
▁offspring	-11.8205
▁replacing	-11.8205
▁ladder	-11.8205
▁abolish	-11.8205
▁closure	-11.8205
SADC	-11.8206
▁extinct	-11.8207
▁insulin	-11.8207
▁Short	-11.8208
▁Help	-11.8211
▁Somali	-11.8241
▁Basic	-11.8241
8.8	-11.8257
▁influenc	-11.8273
▁Mohammed	-11.8293
▁Namibia	-11.8293
▁artifact	-11.8293
▁dissertation	-11.8293
▁embarrassing	-11.8293
▁questionnaire	-11.8293
▁uncommon	-11.8293
▁Lawrence	-11.8293
▁Urban	-11.8293
▁memorial	-11.8293
▁Sofala	-11.8293
▁inclined	-11.8293
▁demographic	-11.8293
▁morphology	-11.8293
▁retrieve	-11.8293
▁aggression	-11.8293
▁Better	-11.8293
▁Hainan	-11.8294
▁Algeria	-11.8294
▁tragic	-11.8296
different	-11.8305
stroke	-11.8306
2.0	-11.8321
▁abduct	-11.8339
▁evolve	-11.8346
aldehyde	-11.8381
▁Johannesburg	-11.8381
▁Nicolas	-11.8381
▁cucumber	-11.8381
▁marathon	-11.8381
▁practicing	-11.8381
▁residue	-11.8381
▁wavelength	-11.8381
▁sunshine	-11.8381
▁communicating	-11.8381
▁shaking	-11.8381
▁Bernard	-11.8381
▁Night	-11.8381
▁Ronald	-11.8382
▁primaries	-11.8382
▁Sudanese	-11.8382
▁pearl	-11.8386
▁postpone	-11.8391
3.2	-11.8392
writing	-11.8394
white	-11.8394
▁faint	-11.8408
7.9	-11.841
▁steril	-11.8421
trained	-11.8428
▁inhabit	-11.847
▁Condoleezza	-11.8471
▁Hundreds	-11.8471
▁Snowden	-11.8471
▁Thompson	-11.8471
▁bladder	-11.8471
▁nucleus	-11.8471
▁cuisine	-11.8471
▁mushroom	-11.8471
▁peanut	-11.8471
▁Culture	-11.8471
▁Disease	-11.8471
▁Election	-11.8471
▁unwilling	-11.8471
▁examining	-11.8471
▁Tianjin	-11.8471
▁Process	-11.8471
▁cosmic	-11.8471
▁Sachs	-11.8474
6.6	-11.8507
intestin	-11.853
▁Bloomberg	-11.8561
▁Domestic	-11.8561
▁Intelligence	-11.8561
▁Jennifer	-11.8561
▁Kremlin	-11.8561
▁Mediterranean	-11.8561
▁whisper	-11.8561
▁capsule	-11.8561
▁freight	-11.8561
▁saturated	-11.8561
▁grief	-11.8561
▁Nelson	-11.8561
▁Miami	-11.8561
▁qualify	-11.8561
▁denounce	-11.8562
▁urine	-11.8562
▁genre	-11.8562
scarcely	-11.8568
terrorism	-11.8575
Because	-11.8575
3.4	-11.8575
▁perceive	-11.8618
▁resembl	-11.8647
toxic	-11.8651
▁Buddhist	-11.8652
▁bewilder	-11.8652
▁biodiesel	-11.8652
▁commemorat	-11.8652
▁pharmaceutical	-11.8652
▁Arthur	-11.8652
▁Census	-11.8652
▁NEW	-11.8652
▁Except	-11.8652
▁Command	-11.8652
▁blaze	-11.8661
language	-11.8667
business	-11.8667
girl	-11.8683
▁Geocapital	-11.8743
▁Valentine	-11.8743
▁Catherine	-11.8743
▁Participa	-11.8743
▁Xinjiang	-11.8743
▁alleviate	-11.8743
▁dispersion	-11.8743
▁fluctuation	-11.8743
▁magnate	-11.8743
▁mattress	-11.8743
▁sculpture	-11.8743
▁Critics	-11.8743
▁rifle	-11.8743
▁indulge	-11.8743
▁massacre	-11.8743
▁divine	-11.8744
equal	-11.8747
▁marvel	-11.8748
▁idol	-11.8749
modern	-11.8759
4.8	-11.8804
▁Chevron	-11.8836
▁magnesium	-11.8836
▁mercury	-11.8836
▁refrigerator	-11.8836
▁Especially	-11.8836
▁destiny	-11.8836
▁destructive	-11.8836
▁exercising	-11.8836
▁flavour	-11.8836
▁merchandise	-11.8836
▁refrain	-11.8836
▁Emperor	-11.8836
▁patrol	-11.8836
▁stunt	-11.8837
service	-11.8853
invest	-11.8856
▁dedicate	-11.8895
continuation	-11.8929
▁Benjamin	-11.8929
▁Botswana	-11.8929
▁abundance	-11.8929
▁certification	-11.8929
▁chromosome	-11.8929
▁geometric	-11.8929
▁hemiplegia	-11.8929
▁limestone	-11.8929
▁sanitation	-11.8929
▁stimulation	-11.8929
▁unhealthy	-11.8929
▁Atlanta	-11.8929
▁glucose	-11.8929
▁judging	-11.8929
▁mortar	-11.8929
▁recreation	-11.8929
▁throne	-11.8929
▁erosion	-11.8929
▁blessed	-11.8929
▁Fresh	-11.893
▁multiply	-11.893
between	-11.8947
▁osteo	-11.8953
abolic	-11.8961
▁contradict	-11.9009
ggie	-11.9019
▁Guangxi	-11.9024
▁Kwanza	-11.9024
▁Santiago	-11.9024
▁bilingual	-11.9024
▁garbage	-11.9024
▁ignorance	-11.9024
▁indispensable	-11.9024
▁stunning	-11.9024
▁Seattle	-11.9024
▁enrolled	-11.9024
▁releasing	-11.9024
▁yourselves	-11.9024
▁completing	-11.9024
▁renowned	-11.9024
▁shining	-11.9024
▁ulcer	-11.9024
▁Airbus	-11.9024
▁Lewis	-11.9024
www	-11.9024
▁ornament	-11.9025
4.2	-11.9064
▁approximate	-11.9073
5.8	-11.9084
▁Bernanke	-11.9119
▁Jiabao	-11.9119
▁Starbucks	-11.9119
▁etiquette	-11.9119
▁juvenile	-11.9119
▁kindergarten	-11.9119
▁suspicious	-11.9119
▁umbrella	-11.9119
▁abrupt	-11.9119
▁feudal	-11.9119
▁podcast	-11.9119
▁skull	-11.9119
▁coronary	-11.9119
▁drastic	-11.9119
▁Cruise	-11.9119
▁fortunate	-11.9119
▁1982	-11.9119
▁turtle	-11.9119
▁overthrow	-11.9119
▁shaft	-11.9119
▁defining	-11.9119
▁bundle	-11.912
▁modal	-11.912
▁youngsters	-11.912
6.9	-11.9122
eliminating	-11.9215
▁Bitcoin	-11.9215
▁Hurricane	-11.9215
▁Twenty	-11.9215
▁abdominal	-11.9215
▁cognition	-11.9215
▁faculty	-11.9215
▁inauguration	-11.9215
▁logarithm	-11.9215
▁malicious	-11.9215
▁Football	-11.9215
▁Mandela	-11.9215
▁dedication	-11.9215
▁metropolis	-11.9215
▁peninsula	-11.9215
▁immunity	-11.9215
▁lithium	-11.9215
▁jungle	-11.9215
▁inclusive	-11.9215
▁nominated	-11.9215
zhong	-11.9215
▁minimize	-11.9216
▁nasty	-11.9216
▁flirt	-11.9216
▁AIM	-11.9216
▁mobilize	-11.9219
significant	-11.9236
should	-11.9236
Just	-11.9236
▁dialog	-11.9312
▁Assistant	-11.9312
▁Kibaki	-11.9312
▁advancing	-11.9312
▁blockbuster	-11.9312
▁correlative	-11.9312
▁hippocamp	-11.9312
▁landlord	-11.9312
▁laundry	-11.9312
▁residual	-11.9312
▁simplifie	-11.9312
▁vertebra	-11.9312
▁critique	-11.9312
▁decomposition	-11.9312
▁discretion	-11.9312
▁Labour	-11.9312
▁Toronto	-11.9312
▁dubbed	-11.9312
▁practise	-11.9312
▁pencil	-11.9312
▁enlighten	-11.9312
▁sacred	-11.9312
▁Alliance	-11.9312
▁Manager	-11.9312
▁deceive	-11.9312
▁Access	-11.9312
▁asteroid	-11.9312
▁articulate	-11.9313
written	-11.9334
protein	-11.9334
▁Finn	-11.9338
3.9	-11.9349
▁OECD	-11.941
▁Strategic	-11.941
▁Taobao	-11.941
▁acceleration	-11.941
▁cottage	-11.941
▁depreciation	-11.941
▁fascinating	-11.941
▁poultry	-11.941
▁treasury	-11.941
▁distortion	-11.941
▁Growth	-11.941
▁Survey	-11.941
▁Resort	-11.941
▁gauge	-11.941
▁compelling	-11.941
▁vocational	-11.941
▁mulch	-11.941
▁revenge	-11.941
▁Hebei	-11.941
▁sliding	-11.941
▁fireworks	-11.9411
▁inequality	-11.9411
▁unstable	-11.9411
▁grim	-11.9429
6.7	-11.9454
▁Engine	-11.9509
▁Championship	-11.9509
▁Sinopec	-11.9509
▁Suddenly	-11.9509
▁algebra	-11.9509
▁celebrating	-11.9509
▁combustion	-11.9509
▁devastated	-11.9509
▁diffusion	-11.9509
▁hurricane	-11.9509
▁miraculous	-11.9509
▁obliged	-11.9509
▁potassium	-11.9509
▁straightforward	-11.9509
▁clutter	-11.9509
▁deprive	-11.9509
▁deflation	-11.9509
▁composer	-11.9509
▁blunt	-11.951
▁saint	-11.951
▁Anderson	-11.951
▁surname	-11.951
birth	-11.9533
4.4	-11.9554
▁Michel	-11.9605
▁CCTV	-11.9609
▁Orleans	-11.9609
▁distributor	-11.9609
▁sensible	-11.9609
▁volcanic	-11.9609
▁Safety	-11.9609
▁Avenue	-11.9609
▁Jintao	-11.9609
▁lofty	-11.9609
▁infectious	-11.9609
▁contemplat	-11.9609
▁asylum	-11.961
▁Clean	-11.961
▁gratify	-11.961
ucci	-11.9624
6.4	-11.9633
profile	-11.9634
sensitive	-11.9634
something	-11.9634
plastic	-11.9635
▁devise	-11.9675
▁Cabinet	-11.971
▁LinkedIn	-11.971
▁apoptosis	-11.971
▁appraisal	-11.971
▁frequencies	-11.971
▁inadequate	-11.971
▁propaganda	-11.971
▁sophomore	-11.971
▁butterfly	-11.971
▁temptation	-11.971
▁jazz	-11.971
▁restoration	-11.971
▁guiding	-11.971
▁maiden	-11.971
▁garage	-11.9711
▁parasite	-11.9711
compete	-11.9712
▁intestine	-11.9712
black	-11.9736
crypt	-11.9779
calorie	-11.9812
▁adjacent	-11.9812
▁cumulative	-11.9812
▁endeavor	-11.9812
▁grasshopper	-11.9812
▁skeleton	-11.9812
▁thyroid	-11.9812
▁dwarf	-11.9812
▁disparity	-11.9812
▁kinetic	-11.9812
▁overhaul	-11.9812
▁Diego	-11.9812
▁Hindu	-11.9812
▁trivial	-11.9812
▁steak	-11.9812
▁Credit	-11.9813
▁Leave	-11.9813
▁prophet	-11.9813
▁niche	-11.9813
▁dentist	-11.9813
▁Reagan	-11.9817
dustrialization	-11.9823
blood	-11.9839
billion	-11.9839
9.9	-11.984
indicat	-11.9866
5.6	-11.9892
phosphate	-11.9915
▁Captain	-11.9915
▁Nowadays	-11.9915
▁Taipei	-11.9915
▁astronomer	-11.9915
▁automotive	-11.9915
▁clutch	-11.9915
▁glorious	-11.9915
▁hypothesis	-11.9915
▁pragmatic	-11.9915
▁pulmonary	-11.9915
▁Chemical	-11.9915
▁furnish	-11.9915
▁harbor	-11.9915
▁siege	-11.9915
▁Abstract	-11.9915
▁perfume	-11.9915
▁Avoid	-11.9915
▁intensify	-11.9915
▁Fight	-11.9917
▁lounge	-11.992
▁Coordinat	-12.0012
▁alphabet	-12.002
▁cycling	-12.002
▁discriminate	-12.002
▁influenza	-12.002
▁intriguing	-12.002
▁renminbi	-12.002
▁ribbon	-12.002
▁verdict	-12.002
▁voluntary	-12.002
▁census	-12.002
consequent	-12.002
▁dismantle	-12.002
▁regulating	-12.002
▁Hubei	-12.002
▁connotation	-12.002
▁BMW	-12.002
▁automated	-12.002
▁Matola	-12.002
emorrhag	-12.002
▁appraise	-12.002
▁circular	-12.002
▁sponge	-12.0021
▁statistic	-12.0059
9.5	-12.0093
▁Douglas	-12.0125
▁Investimento	-12.0125
▁Matthew	-12.0125
▁Thaksin	-12.0125
▁amplitude	-12.0125
▁interpersonal	-12.0125
▁licensing	-12.0125
▁prosecution	-12.0125
▁Chavez	-12.0125
▁Senegal	-12.0125
▁pseudo	-12.0125
arthritis	-12.0125
▁Isaac	-12.0125
▁modulation	-12.0125
▁Question	-12.0125
▁revelation	-12.0125
▁Duchess	-12.0125
▁notorious	-12.0125
figuring	-12.0126
▁physio	-12.0129
▁denote	-12.013
▁immerse	-12.0143
purpose	-12.0155
▁crocodile	-12.0231
▁congratulate	-12.0231
▁hijack	-12.0231
▁lucrative	-12.0231
▁rigorous	-12.0231
▁unilateral	-12.0231
▁Military	-12.0231
▁cricket	-12.0231
▁demolish	-12.0231
▁horrible	-12.0231
▁truce	-12.0231
▁demise	-12.0231
9,000	-12.0232
▁hesitate	-12.0232
spirit	-12.0264
create	-12.0289
▁Current	-12.0315
conserv	-12.0326
ustainable	-12.0336
▁exterior	-12.0339
▁Empresa	-12.0339
▁Eventually	-12.0339
▁Guebuza	-12.0339
▁Kosovo	-12.0339
▁breeze	-12.0339
▁cardiovascular	-12.0339
▁cocktail	-12.0339
▁grandparents	-12.0339
▁infrared	-12.0339
▁insurgency	-12.0339
▁manipulation	-12.0339
▁morbid	-12.0339
▁quarrel	-12.0339
▁recognizing	-12.0339
▁scrutiny	-12.0339
▁splendid	-12.0339
