<unk>	0
<s>	0
</s>	0
,	-2.98671
的	-3.33259
。	-3.37117
▁	-3.8752
在	-4.77473
和	-4.84313
、	-5.03265
了	-5.11059
是	-5.20074
中	-5.5588
上	-5.75284
有	-5.76581
对	-5.80224
(	-5.82232
不	-5.83917
人	-5.86254
)	-5.87595
说	-5.88938
我	-5.89261
与	-5.91684
为	-5.93602
他	-5.96059
“	-5.96711
你	-6.00063
将	-6.10169
年	-6.13945
”	-6.1407
一	-6.14448
时	-6.17621
地	-6.19941
他们	-6.22937
:	-6.23671
大	-6.24853
到	-6.25672
我们	-6.25823
来	-6.27793
而	-6.2851
会	-6.28894
一个	-6.30935
.	-6.38959
从	-6.41294
被	-6.43449
用	-6.4584
性	-6.48391
就	-6.49756
公司	-6.52554
里	-6.55139
也	-6.56349
。”	-6.56922
后	-6.5704
以	-6.59138
这	-6.60003
都	-6.61207
出	-6.61278
她	-6.61825
?	-6.61852
下	-6.61974
着	-6.64035
多	-6.64163
并	-6.64422
要	-6.64943
月	-6.65169
或	-6.6597
于	-6.69257
可以	-6.73041
能	-6.74715
-	-6.75904
但	-6.76119
中国	-6.77452
这些	-6.78418
美国	-6.81471
所	-6.82936
向	-6.83351
把	-6.83358
去	-6.83443
子	-6.8419
▁在	-6.84699
工作	-6.87135
新	-6.87611
前	-6.88802
者	-6.90201
:“	-6.91089
过	-6.92103
水	-6.92302
这个	-6.92353
小	-6.92862
进行	-6.93034
它	-6.93497
;	-6.94522
可	-6.94653
称	-6.96733
1	-6.9691
高	-6.97136
斯	-6.97668
等	-6.97814
尔	-6.98072
没有	-6.98333
自己	-6.99726
好	-6.99845
其	-7.00203
比	-7.01176
3	-7.01666
已经	-7.02899
还	-7.03746
更	-7.04147
及	-7.04684
2	-7.05435
该	-7.05451
5	-7.06153
以及	-7.06896
·	-7.07108
特	-7.07727
得	-7.08781
无	-7.09064
政府	-7.09846
日	-7.10544
化	-7.1073
表示	-7.11429
手	-7.12275
内	-7.1265
家	-7.12738
》	-7.13494
的人	-7.13838
《	-7.14156
一些	-7.15527
拉	-7.16085
——	-7.16316
个	-7.16319
头	-7.17007
点	-7.1731
▁“	-7.17465
很	-7.17544
4	-7.18428
之	-7.18803
德	-7.19129
可能	-7.1936
研究	-7.19655
最	-7.19969
•	-7.20435
但是	-7.21377
法	-7.21547
6	-7.21821
力	-7.23614
长	-7.23854
那	-7.24137
7	-7.24816
们	-7.24848
分	-7.25125
问题	-7.25193
做	-7.25425
需要	-7.25902
开始	-7.26894
心	-7.26987
名	-7.2708
起	-7.28929
让	-7.29528
认为	-7.30467
因为	-7.31452
通过	-7.31856
发	-7.3201
使	-7.32118
国家	-7.32202
▁我	-7.32969
8	-7.3308
使用	-7.3322
克	-7.33569
外	-7.34287
体	-7.34881
这种	-7.3547
时间	-7.35562
成	-7.35841
想	-7.35882
开	-7.36883
看	-7.37034
P	-7.37396
那些	-7.37536
行	-7.37848
机	-7.37871
给	-7.38154
s	-7.38425
经济	-7.39516
天	-7.40488
生	-7.41743
你的	-7.42899
9	-7.42931
人们	-7.44679
事	-7.44739
或者	-7.45038
就是	-7.45082
利	-7.45229
现在	-7.45451
马	-7.45896
又	-7.46301
自	-7.46461
▁他	-7.46845
学	-7.47777
当	-7.48445
面	-7.48867
提供	-7.49178
达	-7.49876
由	-7.50036
车	-7.50165
海	-7.50721
A	-7.50864
度	-7.51515
国	-7.51863
系统	-7.52242
气	-7.52245
已	-7.52952
C	-7.53037
S	-7.5353
技术	-7.54597
光	-7.54786
如果	-7.55033
重	-7.55145
本	-7.55185
项目	-7.55796
发展	-7.5583
10	-7.56342
正	-7.56439
加	-7.57015
量	-7.57776
动	-7.57799
发现	-7.57975
一种	-7.59233
B	-7.59764
像	-7.59939
自己的	-7.60098
计划	-7.60224
的时候	-7.60521
能够	-7.60771
同	-7.60854
方法	-7.61116
流	-7.61336
市场	-7.61968
这样	-7.62453
包括	-7.63061
三	-7.63194
两	-7.63425
入	-7.63491
打	-7.64083
定	-7.64169
电	-7.64268
世界	-7.6458
西	-7.65303
”。	-7.65391
花	-7.65662
再	-7.66101
分析	-7.67479
其他	-7.67501
道	-7.67836
投资	-7.67857
爱	-7.69103
非常	-7.69157
美	-7.6918
带	-7.69628
希望	-7.69797
位	-7.70125
D	-7.70215
安	-7.70619
活动	-7.71205
方	-7.7207
正在	-7.72089
身	-7.72881
组织	-7.7367
型	-7.73825
任何	-7.73837
却	-7.73868
E	-7.7392
部	-7.73951
器	-7.7401
M	-7.74106
国际	-7.74535
万	-7.74589
!	-7.74908
这一	-7.75074
门	-7.75184
成为	-7.76289
管理	-7.76991
期	-7.77388
区	-7.77883
卡	-7.77914
线	-7.78035
一样	-7.78179
受	-7.7819
选择	-7.78387
金	-7.79048
中的	-7.79129
只	-7.79132
率	-7.79408
帮助	-7.79504
纳	-7.79521
不能	-7.79623
巴	-7.79685
20	-7.79832
处	-7.80253
之后	-7.80481
相	-7.80626
口	-7.80864
全	-7.81237
大学	-7.81486
a	-7.81611
还是	-7.81682
而且	-7.82063
L	-7.82393
低	-7.82529
场	-7.8313
T	-7.83157
物	-7.83357
它们	-7.83396
控制	-7.83735
作	-7.83863
他的	-7.83909
不同	-7.84154
如	-7.8442
必须	-7.8463
影响	-7.84666
格	-7.84849
关系	-7.85392
社会	-7.85501
那么	-7.85583
约	-7.86109
总	-7.86218
不会	-7.86321
H	-7.86408
老	-7.86423
文	-7.86516
罗	-7.8699
主要	-7.87284
企业	-7.87339
/	-7.87592
银行	-7.87672
生产	-7.87788
获得	-7.87833
地区	-7.87861
数	-7.87963
米	-7.88524
制	-7.88575
书	-7.88813
所有	-7.88872
总统	-7.89176
尼	-7.8926
亚	-7.89611
层	-7.89699
服务	-7.89785
y	-7.90006
e	-7.90464
决定	-7.90468
设计	-7.90484
应	-7.9063
O	-7.91081
什么	-7.91155
布	-7.91232
得到	-7.91545
回	-7.9159
此	-7.91943
风	-7.92067
走	-7.92076
方面	-7.92217
作为	-7.92231
19	-7.92337
I	-7.92366
变	-7.92465
安哥拉	-7.92582
▁我们	-7.92947
并且	-7.93005
次	-7.93199
热	-7.93224
一次	-7.93342
亿美元	-7.94001
科	-7.94046
目前	-7.9415
G	-7.94206
支持	-7.94441
R	-7.94639
非	-7.94679
信息	-7.94723
病	-7.949
基	-7.95014
生活	-7.95248
巴西	-7.95279
例	-7.9531
组	-7.95351
对于	-7.95492
球	-7.95574
如何	-7.95959
因	-7.95994
之前	-7.96012
至	-7.96112
不是	-7.96455
知道	-7.96686
学生	-7.9673
发生	-7.97273
主	-7.97427
具有	-7.97733
要求	-7.97857
,“	-7.97937
权	-7.97979
州	-7.98043
路	-7.98283
则	-7.98545
语	-7.98641
产品	-7.9883
安全	-7.98912
情	-7.98945
拥有	-7.98996
吗	-7.99332
山	-7.99678
阿	-8.0038
然后	-8.00582
莫桑比克	-8.00719
来说	-8.00925
片	-8.00987
许多	-8.01091
都是	-8.01221
F	-8.01375
商	-8.01449
其中	-8.0165
还有	-8.01934
装	-8.0217
钱	-8.02318
四	-8.02384
▁但是	-8.02398
写	-8.02665
处理	-8.0268
解	-8.03022
应该	-8.03024
感	-8.03098
"	-8.03179
很多	-8.0323
这是	-8.03269
N	-8.0327
声	-8.03333
信	-8.03987
看到	-8.04044
业	-8.0423
号	-8.04467
白	-8.04948
方式	-8.04972
色	-8.05234
他们的	-8.05244
增长	-8.05379
报	-8.05631
▁如果	-8.05729
吃	-8.0577
提高	-8.05906
转	-8.06209
调	-8.06609
增加	-8.06814
日电	-8.06834
跟	-8.06836
南	-8.07181
每	-8.07315
我的	-8.07376
▁但	-8.07386
员	-8.07562
皮	-8.07568
式	-8.07677
一直	-8.0769
利用	-8.07811
意	-8.08164
12	-8.08168
波	-8.08284
没	-8.0833
只是	-8.0837
别	-8.08425
图	-8.08479
V	-8.08636
血	-8.08719
有关	-8.08839
英国	-8.08963
二	-8.09003
取	-8.09177
近	-8.09181
类	-8.09808
女	-8.09932
原	-8.10074
先	-8.1012
教育	-8.10236
呢	-8.10538
▁这	-8.10636
之一	-8.10649
进	-8.10692
放	-8.10769
由于	-8.10817
平	-8.10818
合作	-8.10889
来自	-8.10969
g	-8.10995
d	-8.11458
深	-8.11742
是一个	-8.12148
出现	-8.12166
才	-8.12295
所以	-8.12444
林	-8.1245
n	-8.12528
市	-8.12591
孩子	-8.12708
结果	-8.12997
种	-8.13034
眼	-8.13279
只有	-8.13435
i	-8.13721
城市	-8.13764
甚至	-8.14014
单	-8.14105
反	-8.14308
曾	-8.14366
明	-8.14528
工	-8.14542
u	-8.14562
条	-8.14737
结构	-8.14958
▁你	-8.15207
听	-8.15304
起来	-8.1547
你们	-8.15519
油	-8.15527
数据	-8.15563
各	-8.15675
太	-8.15906
火	-8.16383
合	-8.1662
落	-8.16736
存在	-8.16738
值	-8.16956
两个	-8.17088
表	-8.17102
强	-8.17472
死	-8.17484
学习	-8.17637
感到	-8.17643
环境	-8.17647
石	-8.18012
上的	-8.18173
间	-8.18309
)。	-8.18402
文化	-8.18532
问	-8.18958
接受	-8.19152
公	-8.19231
因此	-8.19261
t	-8.19372
实现	-8.19392
奥	-8.19443
并不	-8.19521
空	-8.1962
网络	-8.19641
继续	-8.19917
是否	-8.19946
保持	-8.19946
不要	-8.21238
今年	-8.2154
调查	-8.21633
选	-8.21697
管	-8.21861
全球	-8.22239
运动	-8.22616
能力	-8.22783
便	-8.22893
较	-8.22894
的话	-8.23009
▁他们	-8.23064
维	-8.23118
细胞	-8.23188
m	-8.23371
喜欢	-8.23483
11	-8.23487
作用	-8.23576
同时	-8.24053
朋友	-8.24055
新的	-8.24251
华	-8.24337
核	-8.24489
无法	-8.24642
er	-8.24657
交	-8.24865
健康	-8.25009
经	-8.25009
岁	-8.25127
机构	-8.25354
第	-8.25449
关于	-8.25475
解决	-8.25753
”,	-8.25924
30	-8.26047
萨	-8.26276
努力	-8.26343
省	-8.2642
少	-8.26446
形	-8.26471
汽车	-8.26531
改变	-8.2676
我们的	-8.26767
如此	-8.26951
十	-8.27779
首	-8.27873
欧洲	-8.279
目标	-8.28063
微	-8.28127
部分	-8.2823
板	-8.28285
达到	-8.28349
完全	-8.28358
▁她	-8.2839
收	-8.28652
边	-8.28791
一位	-8.28833
日本	-8.28945
吧	-8.2895
k	-8.29032
费	-8.2931
过去	-8.29313
台	-8.29444
双	-8.29445
进入	-8.29889
占	-8.29937
一家	-8.30335
o	-8.30351
个人	-8.30451
行为	-8.30598
通	-8.30617
红	-8.30825
人员	-8.30893
政治	-8.31007
战	-8.312
协议	-8.31277
神	-8.31368
可能会	-8.31448
即	-8.31802
建设	-8.31839
石油	-8.31869
极	-8.3194
几	-8.31956
民	-8.3203
买	-8.32036
就会	-8.32099
干	-8.32114
保护	-8.32263
最后	-8.32289
报告	-8.32297
中心	-8.32301
产	-8.32313
雷	-8.32475
莫	-8.32549
切	-8.32611
哈	-8.32628
葡萄牙	-8.32726
导致	-8.32885
局	-8.33133
儿	-8.33191
半	-8.3356
电影	-8.33598
也是	-8.33666
之间	-8.33741
理论	-8.33799
▁他说	-8.33868
女性	-8.3404
会议	-8.34189
告诉	-8.34389
远	-8.34449
理	-8.34486
压	-8.34592
收入	-8.34752
难	-8.34754
集团	-8.34862
品	-8.34921
质	-8.35146
自由	-8.35366
级	-8.35411
完成	-8.35498
他说	-8.35498
这样的	-8.3561
网	-8.35634
您	-8.3569
减少	-8.35761
一起	-8.35922
代表	-8.36009
印度	-8.36025
传	-8.36109
视	-8.36372
兰	-8.36427
塔	-8.36578
结	-8.36618
夫	-8.36997
站	-8.3707
治疗	-8.37241
俄罗斯	-8.37361
价	-8.37487
f	-8.37491
应用	-8.37644
军	-8.37648
报道	-8.37728
船	-8.37932
迪	-8.37952
水平	-8.38016
失	-8.38144
件	-8.38206
成功	-8.38367
人类	-8.38481
精	-8.38794
队	-8.38916
建立	-8.39053
最近	-8.39073
了解	-8.39079
参加	-8.39339
采用	-8.39342
an	-8.39537
比较	-8.39693
言	-8.40153
见	-8.40237
▁当	-8.40258
实	-8.40352
教	-8.40399
指出	-8.40428
家庭	-8.40502
c	-8.40533
掉	-8.40681
为了	-8.40701
情况	-8.40802
显示	-8.40866
星	-8.40907
美元	-8.4091
真	-8.40912
学校	-8.40939
奥巴马	-8.41177
托	-8.41673
草	-8.4195
准备	-8.42083
新闻	-8.42169
指	-8.4222
产生	-8.42229
黑	-8.42232
出口	-8.42346
价格	-8.42679
开发	-8.42787
一名	-8.43155
用户	-8.43205
河	-8.43434
受到	-8.43444
更多	-8.4371
令人	-8.43833
b	-8.43882
一下	-8.4389
温	-8.43924
的影响	-8.44151
树	-8.44161
早	-8.44327
快	-8.44347
仍	-8.44373
的问题	-8.44494
普	-8.44527
p	-8.4461
未	-8.44612
提	-8.44621
语言	-8.44703
政策	-8.44747
词	-8.44855
曼	-8.45028
森	-8.45133
功能	-8.45277
▁该	-8.45696
仍然	-8.45698
模型	-8.45963
不过	-8.4612
非洲	-8.46149
因素	-8.46302
她的	-8.46312
进行了	-8.46368
接	-8.46476
超过	-8.46492
药	-8.46503
根据	-8.46649
奇	-8.46691
抗	-8.46823
越	-8.46953
节	-8.4698
住	-8.47054
最终	-8.47238
请	-8.47255
一份	-8.47256
15	-8.47301
其它	-8.47411
通常	-8.47443
那个	-8.47445
直接	-8.47684
岁的	-8.47784
50	-8.4799
伊	-8.4815
张	-8.48174
重要	-8.48462
清	-8.48541
相关	-8.48607
事件	-8.48699
别人	-8.48906
恩	-8.49025
立	-8.49093
世纪	-8.4913
比如	-8.49581
元	-8.4994
动物	-8.5026
自然	-8.5032
鱼	-8.50392
想要	-8.50432
一项	-8.50456
▁本文	-8.50657
常	-8.50688
剂	-8.50731
连	-8.50745
人的	-8.50764
王	-8.50881
如果你	-8.51006
断	-8.5105
设备	-8.51214
的工作	-8.5125
倒	-8.51352
代	-8.51355
有些	-8.51483
▁如果你	-8.51557
用于	-8.5161
标准	-8.51635
党	-8.51677
考虑	-8.51766
五	-8.5189
h	-8.52044
资源	-8.52085
人民	-8.52508
酸	-8.52601
食	-8.52673
增	-8.52879
更加	-8.53257
话	-8.53373
东	-8.53426
源	-8.5377
反应	-8.53835
降低	-8.54024
直	-8.54291
建议	-8.54326
18	-8.54394
尽管	-8.54552
列	-8.54561
似乎	-8.54627
排	-8.5463
轮	-8.5465
行动	-8.54694
官员	-8.54695
派	-8.54814
事情	-8.54881
▁然而	-8.55052
K	-8.55059
措施	-8.55096
in	-8.55211
脑	-8.55365
配	-8.55498
到了	-8.55605
各种	-8.55911
致	-8.56155
传统	-8.56242
科学	-8.56429
这次	-8.56455
共	-8.56477
贸易	-8.56542
停	-8.56694
项	-8.56699
包	-8.56816
脚	-8.56851
至少	-8.56857
al	-8.56881
去年	-8.56987
知	-8.57004
周	-8.57011
价值	-8.57203
离	-8.57205
读	-8.57316
观	-8.5751
塞	-8.57645
出来	-8.57661
叫	-8.57695
万美元	-8.57728
诺	-8.57789
保	-8.57835
击	-8.57938
0	-8.58183
木	-8.58226
总是	-8.58267
千	-8.58322
%	-8.5833
令	-8.58538
求	-8.58575
提出	-8.58609
表达	-8.58624
精神	-8.58822
北京	-8.58927
现	-8.59017
索	-8.59082
关注	-8.59128
整个	-8.59155
一点	-8.59208
骨	-8.5933
莱	-8.59777
院	-8.59807
运	-8.59889
世	-8.59939
是在	-8.5995
的是	-8.60065
料	-8.60149
防	-8.60321
音	-8.60397
觉得	-8.60646
城	-8.60697
伯	-8.6081
步	-8.609
几乎	-8.60958
照	-8.6102
澳门	-8.61073
酒	-8.61246
飞	-8.61612
古	-8.61636
l	-8.61675
穿	-8.61744
专家	-8.61892
条件	-8.61918
然	-8.61998
将会	-8.62066
资金	-8.62136
乐	-8.62187
活	-8.62224
▁美国	-8.62315
质量	-8.62333
毛	-8.62468
表明	-8.62474
网站	-8.62514
赛	-8.62514
的时间	-8.62574
商业	-8.62599
变化	-8.62625
土	-8.62786
地方	-8.62809
最大的	-8.62839
期间	-8.62883
en	-8.63034
六	-8.63045
过程	-8.63086
业务	-8.63267
讲	-8.63267
找到	-8.63717
专业	-8.63736
记	-8.63826
做出	-8.63938
员工	-8.64052
未来	-8.64157
实验	-8.64157
游	-8.64452
重新	-8.64735
采取	-8.64806
为什么	-8.65
而不是	-8.65004
’	-8.65014
工业	-8.6503
均	-8.65048
第一	-8.6505
吉	-8.65098
▁据	-8.65371
音乐	-8.65379
北	-8.65386
交易	-8.65414
东西	-8.65455
房	-8.65693
修	-8.65757
主义	-8.65785
贝	-8.65804
字	-8.66073
肉	-8.66186
室	-8.66195
相信	-8.66237
了一个	-8.66309
讨论	-8.6631
游戏	-8.66337
r	-8.66472
店	-8.66567
先生	-8.66586
伤	-8.66614
不断	-8.66637
沙	-8.66641
剧	-8.66694
矿	-8.66824
师	-8.66826
re	-8.66894
委员会	-8.66912
意义	-8.66991
形成	-8.6705
留	-8.67054
—	-8.67129
虽然	-8.67311
当地	-8.67312
的一个	-8.67421
结束	-8.67728
工程	-8.67793
当时	-8.6783
亿	-8.67914
任	-8.67945
才能	-8.68058
找	-8.6807
界	-8.68281
举行	-8.68301
测试	-8.68346
推	-8.68355
经常	-8.68395
更多的	-8.68461
是个	-8.68464
该公司	-8.68516
满	-8.68608
往	-8.68722
样	-8.68746
金融	-8.68805
or	-8.69021
宣布	-8.69112
法国	-8.69212
计算	-8.69237
亲	-8.69245
画	-8.69279
标	-8.6934
假	-8.69365
养	-8.69382
造成	-8.69401
集	-8.69412
联	-8.69428
客户	-8.69451
黄	-8.69457
士	-8.69572
卖	-8.69735
销售	-8.69824
飞机	-8.69872
论	-8.69907
都会	-8.69964
根	-8.69985
降	-8.70028
超	-8.70115
ar	-8.70183
‘	-8.7026
压力	-8.70309
差	-8.70349
就像	-8.70411
生命	-8.70433
整	-8.70497
预	-8.7084
姆	-8.70858
投	-8.70858
衣	-8.70876
税	-8.70891
离开	-8.70985
担心	-8.71008
笑	-8.71042
香	-8.71289
历史	-8.71362
法律	-8.71398
叶	-8.71519
岛	-8.71604
效果	-8.71678
支	-8.71804
一般	-8.71972
观察	-8.72182
每个	-8.72201
库	-8.72221
的东西	-8.72286
的事情	-8.72308
她们	-8.7247
迷	-8.72544
博	-8.72588
百	-8.72642
联系	-8.72758
换	-8.72874
电子	-8.72891
过程中	-8.72934
票	-8.73068
领域	-8.73098
共同	-8.73117
第二	-8.7312
瓦	-8.73188
随	-8.7326
洛	-8.73376
素	-8.73379
模式	-8.73482
液	-8.73533
且	-8.73583
以来	-8.73645
关	-8.73787
架	-8.73807
的地方	-8.73828
杀	-8.73846
段	-8.74197
厂	-8.74203
谈	-8.74234
客	-8.74371
数字	-8.74581
不仅	-8.7462
角	-8.74621
据	-8.74731
试图	-8.74936
参与	-8.74938
圣	-8.74956
一天	-8.74977
味	-8.75235
短	-8.75639
状态	-8.7567
今天	-8.75767
造	-8.75834
U	-8.75843
部门	-8.75875
足	-8.7597
勒	-8.75972
建筑	-8.75989
材料	-8.7599
选举	-8.76
以色列	-8.76071
位于	-8.76124
身体	-8.76211
建	-8.76248
系	-8.7639
▁尽管	-8.76405
行业	-8.76465
套	-8.76507
16	-8.76579
▁这些	-8.76607
贷款	-8.76622
访问	-8.76653
W	-8.76797
领	-8.76893
福	-8.76923
粉	-8.76927
端	-8.77096
40	-8.77099
空间	-8.77428
尽	-8.77528
夜	-8.77533
有人	-8.7758
大多数	-8.77724
货	-8.77772
年的	-8.77777
生物	-8.77794
软件	-8.77883
▁从	-8.77888
底	-8.77958
改革	-8.77964
减	-8.78023
每天	-8.7803
下降	-8.781
班	-8.7824
松	-8.78249
跑	-8.78269
的生活	-8.78303
特别	-8.78384
现代	-8.78514
100	-8.78522
丝	-8.78554
证	-8.78562
按	-8.78615
试验	-8.78805
男人	-8.78818
居	-8.78894
成本	-8.79045
除	-8.79115
领导人	-8.79304
也许	-8.7935
坐	-8.79391
从而	-8.7941
针对	-8.79457
算	-8.79845
性的	-8.79881
十分	-8.79957
战争	-8.79958
解释	-8.80067
下来	-8.80195
所有的	-8.80198
之间的	-8.80245
艺术	-8.80289
危机	-8.80327
块	-8.80336
拿	-8.80342
大部分	-8.80447
载	-8.80642
同样	-8.80687
购买	-8.8073
数量	-8.80919
密	-8.80936
晚	-8.8121
座	-8.81267
团	-8.81304
预计	-8.8138
表现	-8.81382
服	-8.8145
群	-8.81462
25	-8.81616
原因	-8.81754
带来	-8.81823
玩	-8.81824
发布	-8.81898
制度	-8.81923
积极	-8.82057
八	-8.82144
成员	-8.82208
纸	-8.82306
大约	-8.82355
确定	-8.82408
送	-8.82505
保证	-8.82536
▁中国	-8.82566
稳定	-8.82582
真的	-8.82608
手机	-8.82613
盘	-8.82627
袭击	-8.82744
▁而	-8.82782
一年	-8.82912
冰	-8.82913
蒂	-8.82972
象	-8.83151
这项	-8.8319
患者	-8.83298
冷	-8.83306
导	-8.8331
也会	-8.83318
职	-8.83637
持续	-8.83717
明显	-8.83761
异	-8.83916
错误	-8.83969
罪	-8.8403
文件	-8.84042
亚洲	-8.8411
阶段	-8.84306
使得	-8.84477
弗	-8.84558
乱	-8.84606
5%	-8.84722
坏	-8.84927
是一种	-8.84929
复	-8.85023
挑战	-8.85056
份	-8.85111
轻	-8.85113
严重	-8.8512
小时	-8.85137
公共	-8.85186
或是	-8.85224
le	-8.85417
属	-8.85433
理解	-8.85437
人士	-8.85446
那样	-8.85489
内容	-8.85553
牛	-8.85622
佛得角	-8.8575
登	-8.85827
果	-8.86125
顶	-8.86187
程度	-8.86254
发表	-8.8644
存	-8.86545
基于	-8.86566
人口	-8.86701
升	-8.86728
思想	-8.86747
不同的	-8.86749
14	-8.86836
旅游	-8.86968
媒体	-8.87102
效	-8.87162
必	-8.87213
冲	-8.87286
顿	-8.87306
避免	-8.87326
这里	-8.87338
及其	-8.87418
而言	-8.87441
野	-8.87585
你可以	-8.87593
散	-8.87653
怎么	-8.87862
改善	-8.87894
变得	-8.87903
具	-8.87976
第三	-8.8813
全国	-8.88142
加入	-8.88159
初	-8.88282
随着	-8.8835
曾经	-8.88357
on	-8.88385
儿童	-8.88414
机会	-8.88448
感觉	-8.88453
毒	-8.88586
每年	-8.88693
教授	-8.88717
我国	-8.88771
17	-8.88852
13	-8.88863
女人	-8.88918
的方式	-8.88996
一条	-8.8904
基因	-8.89071
或许	-8.89398
J	-8.89448
食品	-8.89458
促进	-8.89515
营	-8.89585
刚	-8.89608
方案	-8.89628
)、	-8.89755
引	-8.89809
实际	-8.8998
甲	-8.90017
的方法	-8.90059
演	-8.90084
伊拉克	-8.90299
吸引	-8.90322
倍	-8.90383
基础	-8.90408
额	-8.90455
平均	-8.90473
竞争	-8.90554
埃	-8.90615
那里	-8.90631
紧	-8.90668
时候	-8.90743
德国	-8.91045
记者	-8.91077
聚	-8.91082
计	-8.91138
60	-8.91155
牌	-8.91224
伦	-8.91229
形式	-8.91284
脱	-8.9133
记录	-8.91403
时期	-8.91552
时代	-8.91659
弹	-8.91742
进一步	-8.91792
刻	-8.91913
医生	-8.91963
仅	-8.92275
2006	-8.92319
症	-8.92337
有效	-8.92353
某些	-8.92366
简单	-8.92384
寻找	-8.92409
势	-8.92441
程序	-8.9253
副	-8.92596
鲁	-8.92802
偏	-8.92816
现象	-8.92906
▁这个	-8.92946
一切	-8.93011
实施	-8.93027
独立	-8.93027
有一个	-8.93121
大量	-8.93164
错	-8.93234
个月	-8.93288
注	-8.93325
枪	-8.93345
只要	-8.93349
广告	-8.93389
规定	-8.934
伊朗	-8.93447
X	-8.93544
英语	-8.93654
若	-8.93675
职业	-8.93742
状	-8.93762
证明	-8.93859
以上	-8.94181
宽	-8.94245
任务	-8.94431
退	-8.94561
放在	-8.94597
年代	-8.94733
允许	-8.9486
曲	-8.94864
疾病	-8.94891
亮	-8.9491
跳	-8.9496
几个	-8.94974
分钟	-8.95013
进口	-8.95117
援助	-8.95191
公司的	-8.95318
一场	-8.95353
负责	-8.95403
谈判	-8.95473
特征	-8.95596
反对	-8.95622
的新	-8.95622
国内	-8.95769
置	-8.95797
知识	-8.9581
影	-8.95812
正常	-8.95936
警	-8.95958
藏	-8.95988
七	-8.96022
改	-8.96026
容	-8.96077
环	-8.96077
绝	-8.96116
该国	-8.96145
现实	-8.9619
获	-8.962
在一起	-8.96203
糖	-8.96213
电视	-8.9631
▁因此	-8.96363
息	-8.96386
另一个	-8.96423
承认	-8.96517
显著	-8.96589
真正	-8.96653
富	-8.96706
射	-8.96718
基本	-8.96736
死亡	-8.96754
洗	-8.96784
款	-8.96823
痛	-8.96848
责任	-8.96933
电话	-8.96943
护	-8.96953
体系	-8.97007
而是	-8.9716
境	-8.97174
贵	-8.97179
一定	-8.9721
分别	-8.9726
制造	-8.97282
某	-8.97339
坚持	-8.97374
长期	-8.97413
易	-8.97458
取得	-8.97499
专	-8.97588
最高	-8.97686
意味着	-8.97705
父母	-8.97735
将于	-8.97738
需求	-8.97924
领导	-8.97935
状况	-8.97945
和平	-8.97991
恢复	-8.97993
经营	-8.98007
2007	-8.98047
程	-8.98097
巴基斯坦	-8.98106
将在	-8.98238
试	-8.98248
的主要	-8.983
经过	-8.98449
宝	-8.98473
旧	-8.98498
笔	-8.98544
雪	-8.98563
欧盟	-8.98566
执行	-8.986
航	-8.98639
纽约	-8.98733
这位	-8.98901
完	-8.99138
大家	-8.99158
说明	-8.99284
蒙	-8.99309
谁	-8.99349
面对	-8.99471
睡	-8.99641
联合国	-8.99657
校	-8.99669
背	-8.99696
它的	-8.99752
些	-8.99762
检查	-8.99894
脸	-8.99911
龙	-9.00001
思	-9.00034
描述	-9.00119
困难	-9.00128
农业	-9.00147
确保	-9.00179
重要的	-9.00193
韩国	-9.00269
威胁	-9.0041
▁为了	-9.0045
另一	-9.00454
风险	-9.00471
铁	-9.00504
旅行	-9.00544
咖啡	-9.00584
联合	-9.00695
杰	-9.00752
雨	-9.0076
最大	-9.00796
2008	-9.00817
当然	-9.00934
并不是	-9.01064
让你	-9.01115
食物	-9.01131
义	-9.01146
速	-9.01334
el	-9.01548
愿意	-9.01561
的小	-9.01598
团队	-9.01649
危险	-9.01819
经验	-9.02011
2005	-9.0207
结合	-9.02194
目	-9.02309
特别是	-9.02395
24	-9.02448
80	-9.02577
满足	-9.02708
英	-9.02731
w	-9.02782
能源	-9.02887
比赛	-9.02894
直到	-9.02898
看起来	-9.02942
母	-9.02958
政	-9.0307
战略	-9.03143
艾	-9.03172
美国人	-9.03174
男性	-9.03188
三个	-9.03202
苹果	-9.03346
区域	-9.03364
▁由于	-9.03531
苦	-9.03652
▁现在	-9.03746
神经	-9.03842
x	-9.03846
的研究	-9.0387
处于	-9.03874
烟	-9.03877
案	-9.03914
救	-9.04003
以前	-9.04067
犯	-9.04175
也不	-9.04208
怎样	-9.04272
分子	-9.0432
年前	-9.04327
总理	-9.04362
快速	-9.04412
注意	-9.04556
以后	-9.04616
阿富汗	-9.04634
电脑	-9.04652
苏	-9.04657
不可	-9.04756
实际上	-9.04826
创造	-9.04989
▁不过	-9.0514
事实	-9.05182
奖	-9.0523
查	-9.05517
并没有	-9.05862
成立	-9.06015
威	-9.06084
展	-9.06123
固	-9.06168
▁S	-9.06222
身上	-9.06268
出了	-9.06341
部长	-9.06429
帕	-9.06474
加强	-9.06502
21	-9.06596
香港	-9.06614
细	-9.0668
凯	-9.06739
不再	-9.06803
术	-9.06894
在美国	-9.06974
性能	-9.07094
限制	-9.07103
滑	-9.0727
ra	-9.07273
很难	-9.07352
课程	-9.07357
觉	-9.07366
膜	-9.07399
军队	-9.07424
就可以	-9.07445
既	-9.07514
著	-9.07566
惊	-9.07646
都有	-9.07651
看看	-9.07665
梅	-9.0772
节目	-9.07734
课	-9.07759
工具	-9.07872
丽	-9.07916
戴	-9.08071
拒绝	-9.08166
含	-9.0817
科技	-9.08216
床	-9.08345
老板	-9.08435
歌	-9.08484
一个人	-9.08584
供	-9.08591
消息	-9.08745
告	-9.08821
另外	-9.08878
投票	-9.08878
园	-9.08896
提供了	-9.08924
预测	-9.08929
大脑	-9.09003
军事	-9.09091
版	-9.09114
办公室	-9.09122
财政	-9.09152
速度	-9.09161
菜	-9.09334
届	-9.09427
习惯	-9.09556
提出了	-9.09564
负	-9.09576
的原因	-9.09623
月份	-9.09801
驻	-9.0981
港	-9.09816
容易	-9.0982
肯定	-9.09906
灯	-9.09938
上升	-9.09991
声明	-9.10075
办法	-9.1008
麦	-9.10093
资产	-9.10189
李	-9.10223
磁	-9.10259
不到	-9.10525
婚	-9.10741
▁对于	-9.10743
ri	-9.10754
越来越	-9.10767
2009	-9.10831
举	-9.10877
正式	-9.10914
相比	-9.1093
制作	-9.11227
暴	-9.11278
归	-9.11322
有时	-9.11329
不得不	-9.11345
消费者	-9.11431
▁虽然	-9.11457
同意	-9.11465
支付	-9.11565
ch	-9.1157
恶	-9.1157
靠	-9.11671
酒店	-9.1171
▁它	-9.11757
方向	-9.1194
孔	-9.12141
经历	-9.12146
控	-9.12254
葡	-9.12271
杂志	-9.12279
官	-9.12287
股	-9.12366
女孩	-9.12405
尝试	-9.1243
不管	-9.12452
冲突	-9.12608
农	-9.12651
一旦	-9.12654
态	-9.12759
充满	-9.12772
▁根据	-9.12857
利益	-9.12892
简	-9.12909
移动	-9.12932
失败	-9.12942
的发展	-9.12945
2010	-9.13061
攻击	-9.1307
地位	-9.13072
检测	-9.13126
华盛顿	-9.13128
在中国	-9.13274
助	-9.13335
牙	-9.13585
再次	-9.13653
上海	-9.13715
他在	-9.13716
确实	-9.13736
待	-9.13791
我认为	-9.13815
--	-9.14027
批评	-9.14197
视频	-9.14284
一只	-9.14297
让人	-9.14432
～	-9.14461
就能	-9.14502
年龄	-9.14505
是因为	-9.1453
在于	-9.14539
平衡	-9.14545
一致	-9.14582
引起	-9.14696
也有	-9.14766
债务	-9.14822
喝	-9.14838
情绪	-9.14939
箱	-9.15051
承诺	-9.15079
免	-9.15095
200	-9.15098
自我	-9.15228
历	-9.15267
照片	-9.15298
赶	-9.15336
汉	-9.15512
文章	-9.15526
圆	-9.15539
岩	-9.15579
静	-9.15672
备	-9.15742
往往	-9.15776
双方	-9.15997
虫	-9.16081
申请	-9.16094
九	-9.16219
具体	-9.16243
菌	-9.1627
即使	-9.16304
劳	-9.16545
说道	-9.16596
望	-9.16726
瑞	-9.16813
关键	-9.16872
尾	-9.16904
同事	-9.16948
务	-9.17048
楼	-9.171
心理	-9.17178
竞选	-9.17264
博士	-9.17274
南非	-9.17289
沉	-9.17453
澳大利亚	-9.17524
云	-9.17525
田	-9.17539
创新	-9.17649
70	-9.17737
破	-9.1791
听到	-9.17972
协会	-9.17973
和其他	-9.17974
投资者	-9.18033
故事	-9.18045
植物	-9.18111
差异	-9.18361
这么	-9.18384
es	-9.18396
狗	-9.18476
怀	-9.18487
充	-9.18544
让我们	-9.18554
弱	-9.18686
Y	-9.18706
创	-9.1877
学院	-9.18783
警察	-9.18854
社	-9.18882
的事	-9.18953
有可能	-9.18956
全部	-9.19054
谷	-9.19112
雅	-9.19114
500	-9.19129
盛	-9.19197
迅速	-9.19339
余	-9.19367
运行	-9.19384
综合	-9.19426
用来	-9.19436
民主	-9.19478
主席	-9.19598
教学	-9.19704
合同	-9.19782
缺乏	-9.19906
外国	-9.20087
卷	-9.20116
操作	-9.20184
圈	-9.20187
费用	-9.20192
朝	-9.20251
硬	-9.20277
广泛	-9.20402
急	-9.20501
地球	-9.20599
只能	-9.2065
餐	-9.20812
终	-9.20818
探	-9.20848
衣服	-9.20881
最好	-9.2106
对象	-9.21196
例如	-9.21223
范围	-9.21326
杂	-9.21377
我想	-9.21402
年轻人	-9.21436
物质	-9.2144
表面	-9.21447
男	-9.21448
胜	-9.21649
相对	-9.21673
3%	-9.2171
破坏	-9.21711
炎	-9.2176
部队	-9.2182
然而	-9.21829
杯	-9.21862
折	-9.21891
产量	-9.21964
友	-9.22004
你会	-9.22204
何	-9.22311
并非	-9.22348
两国	-9.22354
品牌	-9.22367
启动	-9.22505
清楚	-9.22555
盖	-9.22616
灵	-9.22621
训练	-9.2263
计算机	-9.22666
议	-9.22674
类型	-9.2269
季	-9.22789
▁B	-9.22815
▁所以	-9.22823
母亲	-9.22849
分布	-9.22866
句	-9.22952
的一部分	-9.23051
梦	-9.23113
伦敦	-9.23131
2%	-9.23142
其实	-9.23159
侧	-9.23213
信号	-9.23261
施	-9.23346
开展	-9.23391
让我	-9.23537
自动	-9.23626
章	-9.23662
普通	-9.23713
at	-9.23755
招	-9.23781
戈	-9.23874
意识	-9.23874
7%	-9.23987
有所	-9.24203
最好的	-9.24247
兵	-9.24434
培养	-9.24472
希	-9.24537
考	-9.2457
公开	-9.2463
露	-9.24646
大型	-9.24704
软	-9.24708
孩子们	-9.24718
族	-9.24736
陈	-9.24755
胡	-9.24762
温度	-9.2481
第一次	-9.24817
围	-9.24941
含量	-9.24945
机场	-9.24979
编	-9.2501
介绍	-9.25056
作者	-9.25095
广	-9.25099
拍	-9.25104
弄	-9.25284
如今	-9.25292
效率	-9.25468
交通	-9.25471
鸟	-9.25554
愿	-9.25597
发言人	-9.2566
害	-9.2584
馆	-9.25844
消费	-9.25845
准	-9.25855
按照	-9.25868
尤其是	-9.25878
可能是	-9.26083
联盟	-9.26268
22	-9.26327
年轻	-9.26422
回答	-9.26432
显	-9.26448
机制	-9.26483
也可以	-9.26486
统计	-9.2653
批准	-9.26568
潮	-9.26588
评估	-9.2664
is	-9.26677
卫	-9.26771
认识	-9.26813
首先	-9.26844
私	-9.26853
胶	-9.26863
医疗	-9.26872
属于	-9.26977
航空公司	-9.27017
的国家	-9.2713
佩	-9.27292
回到	-9.27398
幸福	-9.2743
作出	-9.27479
周围	-9.27508
妇女	-9.27604
放弃	-9.27642
ro	-9.27651
徒	-9.27652
4%	-9.27702
晚上	-9.27808
的目标	-9.27971
是为了	-9.28078
民主党	-9.28111
斯特	-9.2816
▁对	-9.28177
相当	-9.2824
趋势	-9.28245
享受	-9.28252
as	-9.28367
▁这种	-9.2838
展示	-9.28382
青	-9.28386
工厂	-9.28411
持	-9.28452
应当	-9.28456
一张	-9.28494
阻	-9.2854
意大利	-9.28627
有着	-9.28796
约翰	-9.28858
ing	-9.28905
安排	-9.28958
征	-9.28967
欧	-9.28986
力量	-9.2899
......	-9.29018
1%	-9.29042
积	-9.29095
▁这是	-9.29112
资	-9.29135
游客	-9.29212
叙利亚	-9.29246
佛	-9.29297
开放	-9.29301
正是	-9.29399
缺	-9.29408
流行	-9.29445
钢	-9.29541
评价	-9.29562
发出	-9.29593
末	-9.29618
墙	-9.29635
一系列	-9.29644
这一点	-9.29717
守	-9.29772
西方	-9.29784
8%	-9.29867
工艺	-9.29984
移	-9.30009
止	-9.30029
经理	-9.30045
快乐	-9.30205
厚	-9.30207
土地	-9.30219
耳	-9.30338
湖	-9.30418
连接	-9.30481
玛	-9.30486
兹	-9.30497
赫	-9.30497
引发	-9.30509
遇到	-9.30541
对此	-9.30554
伴	-9.30569
体育	-9.30658
好的	-9.30675
追	-9.30714
策略	-9.30736
商品	-9.30869
可是	-9.30933
突然	-9.30997
原则	-9.31027
停止	-9.31148
丁	-9.31151
常常	-9.31218
交流	-9.31283
菲	-9.31287
暴力	-9.31297
布什总统	-9.3132
手术	-9.31439
瓶	-9.31446
st	-9.31462
预算	-9.31474
化学	-9.31564
指数	-9.31604
优势	-9.31619
医院	-9.31626
基金	-9.31662
?”	-9.31681
推动	-9.31734
的关系	-9.31773
类似	-9.31787
烧	-9.3184
6%	-9.31857
她说	-9.31883
猫	-9.31918
霍	-9.31924
首次	-9.31945
摩	-9.31986
以便	-9.32017
审	-9.3203
鸡	-9.32078
小说	-9.32116
人物	-9.32126
的经济	-9.32166
患	-9.32194
自身	-9.32199
_	-9.32239
除了	-9.32244
对方	-9.32405
唯一	-9.32454
签署	-9.32552
即将	-9.32576
重大	-9.32583
9%	-9.32615
那种	-9.32669
北韩	-9.32677
+	-9.32727
成了	-9.3281
23	-9.32863
真实	-9.32982
是什么	-9.33079
西班牙	-9.33129
面临	-9.33179
阅读	-9.33246
播	-9.33309
意识到	-9.33312
达成	-9.33319
资料	-9.33333
都在	-9.33353
规	-9.33431
空气	-9.33438
保险	-9.3346
方面的	-9.33475
最新	-9.3349
il	-9.33502
值得	-9.33545
默	-9.33684
运用	-9.33752
z	-9.33814
卫生	-9.3386
制定	-9.33889
000	-9.33896
适合	-9.33938
优	-9.34007
适应	-9.34015
饭	-9.34054
租	-9.34103
录	-9.34111
史	-9.34118
后来	-9.3415
当你	-9.34171
规模	-9.34264
不知道	-9.34293
评论	-9.34367
是由	-9.34388
钟	-9.34405
实践	-9.34597
永远	-9.34617
目的	-9.34631
第一个	-9.34647
中国的	-9.34658
妈妈	-9.34678
作品	-9.34686
感染	-9.34696
距离	-9.34697
示	-9.34715
坐在	-9.34783
娜	-9.34877
评	-9.34916
▁结果	-9.34928
几年	-9.34991
官方	-9.35036
紧张	-9.35037
针	-9.35096
景	-9.35106
灰	-9.35139
90	-9.35275
补	-9.35312
独	-9.35318
消	-9.35318
采访	-9.35343
▁目前	-9.35373
am	-9.35497
在这个	-9.35616
it	-9.35708
兴	-9.35775
付	-9.35881
印	-9.35921
银	-9.36135
26	-9.36161
捕	-9.36163
国会	-9.36232
码	-9.36285
调整	-9.36304
▁《	-9.36316
误	-9.36385
内部	-9.36406
帮	-9.36451
妻子	-9.36518
强调	-9.36576
本身	-9.36648
镇	-9.36707
吸	-9.3672
一件	-9.36727
病毒	-9.36743
意见	-9.36774
理由	-9.36875
一半	-9.36901
v	-9.36903
堆	-9.36917
父亲	-9.36992
多少	-9.37135
南部	-9.37155
似	-9.37158
重点	-9.37187
▁G	-9.37203
沃	-9.3723
参	-9.37259
损失	-9.3733
乳	-9.37338
蓝	-9.3738
淡	-9.37422
培训	-9.37423
左右	-9.37429
寻求	-9.37432
限	-9.37455
产业	-9.3746
探讨	-9.37643
工人	-9.37723
隐	-9.37738
科学家	-9.37741
首都	-9.37757
难以	-9.37762
明确	-9.37769
病人	-9.37858
接触	-9.37868
居民	-9.37992
泥	-9.37993
复杂	-9.38063
的情况	-9.38102
高级	-9.38117
根本	-9.38132
刀	-9.38269
发挥	-9.38295
以下	-9.38314
薄	-9.38343
药物	-9.38509
鼓励	-9.38525
设	-9.3862
给你	-9.38639
共和党	-9.38643
湿	-9.38695
公里	-9.38703
办	-9.38708
股票	-9.38802
扩大	-9.39085
普遍	-9.39133
供应	-9.39158
27	-9.39265
喷	-9.39381
民族	-9.3942
久	-9.39715
文学	-9.39763
扎	-9.39797
全面	-9.3984
观众	-9.39842
访	-9.39858
羊	-9.39866
比例	-9.3989
想象	-9.39944
▁因为	-9.40023
幕	-9.40068
在这里	-9.40106
盐	-9.40158
刺激	-9.40166
怪	-9.40277
北部	-9.40396
邮	-9.40396
》(	-9.40436
命	-9.40498
翻	-9.4057
主题	-9.40594
背景	-9.40606
屋	-9.40628
分享	-9.40679
许	-9.40776
思考	-9.40795
零	-9.40802
▁(	-9.40853
私人	-9.40873
汇	-9.41145
家人	-9.41165
手段	-9.41274
江	-9.41292
et	-9.41334
影片	-9.41376
智	-9.41416
里面	-9.41419
残	-9.41434
la	-9.41442
平台	-9.41499
出售	-9.41545
出生	-9.41566
购	-9.41642
皮肤	-9.41653
系统的	-9.4167
陆	-9.41701
'	-9.41732
▁A	-9.41769
明白	-9.41794
贴	-9.41811
袋	-9.41888
公众	-9.42021
形象	-9.42042
左	-9.42078
事业	-9.42106
变成	-9.4219
权力	-9.42197
舞	-9.42218
魔	-9.4235
28	-9.42359
很快	-9.42458
育	-9.42538
人数	-9.42591
结婚	-9.42673
材	-9.42774
▁D	-9.42873
幅	-9.42874
偷	-9.42883
很多人	-9.43009
订	-9.43009
铁路	-9.43037
航空	-9.43053
奶	-9.43106
借	-9.43179
▁本	-9.43209
封	-9.43301
啊	-9.43329
尖	-9.43329
技能	-9.43352
下面	-9.43375
乔	-9.43411
镜	-9.43492
房间	-9.43498
特性	-9.43562
兴趣	-9.43571
巨	-9.43582
决	-9.43582
道路	-9.43594
~	-9.43689
收购	-9.43713
巨大的	-9.43714
附	-9.43749
呼	-9.43853
外交	-9.43898
▁通过	-9.44037
房子	-9.44106
地区的	-9.44107
蛋白	-9.44279
证据	-9.44349
人生	-9.44516
模	-9.4453
金属	-9.44586
的大	-9.44591
赢得	-9.44677
谷歌	-9.44699
这场	-9.44733
礼	-9.44799
坦	-9.44802
估计	-9.44822
货币	-9.44847
采	-9.44899
闪	-9.45044
有助于	-9.45046
婚姻	-9.4505
旨在	-9.4506
留下	-9.45135
井	-9.45156
刺	-9.45184
▁M	-9.45294
废	-9.45297
梦想	-9.45351
互联网	-9.45409
2000	-9.45412
武器	-9.45419
分析了	-9.45421
他人	-9.45457
不可能	-9.45485
绿	-9.4556
全世界	-9.45591
失去	-9.45625
司	-9.45663
肠	-9.45683
参议员	-9.45689
维持	-9.45722
圣普	-9.45726
齐	-9.45775
最佳	-9.45827
杜	-9.45867
还没有	-9.46028
当前	-9.46033
的情况下	-9.46047
完美	-9.4608
布什	-9.46086
暗	-9.46112
爆炸	-9.46128
于是	-9.4619
志	-9.46204
康	-9.46215
这个问题	-9.46238
莉	-9.46327
有点	-9.46394
这样做	-9.46407
把它	-9.46447
犯罪	-9.46474
当局	-9.46475
泰	-9.46492
的信息	-9.46574
诗	-9.46625
还要	-9.46652
ce	-9.46675
对话	-9.46757
2012	-9.46774
痛苦	-9.46808
承	-9.46872
壁	-9.46882
测量	-9.46897
时刻	-9.46907
男孩	-9.46928
顺	-9.46942
毕业	-9.46988
世界上	-9.46995
扬	-9.47064
的行为	-9.47085
善	-9.47091
振	-9.47189
怀疑	-9.47261
特点	-9.47365
相互	-9.47379
▁H	-9.47415
其他人	-9.47456
演员	-9.47497
女儿	-9.47534
耐	-9.47556
能量	-9.47601
障碍	-9.47626
资本	-9.47738
隔	-9.47802
你就	-9.4781
缓	-9.47887
th	-9.47905
丈夫	-9.48002
混合	-9.48049
克林顿	-9.48107
逐渐	-9.4819
元素	-9.4819
观点	-9.4821
之外	-9.48267
上面	-9.48385
位置	-9.48444
测	-9.48445
在一个	-9.48449
指导	-9.4847
忙	-9.48552
接近	-9.48556
老师	-9.48557
符合	-9.48605
参数	-9.48675
规则	-9.4873
治	-9.48756
涉及	-9.48812
组成	-9.48846
哪	-9.4886
饰	-9.48863
持有	-9.48911
甜	-9.49132
响	-9.49151
有很多	-9.49175
强烈	-9.49182
逃	-9.49242
更为	-9.49246
执	-9.49271
移民	-9.49286
腿	-9.49322
理想	-9.49375
地震	-9.49437
等待	-9.49485
▁今年	-9.4949
肯	-9.49555
虚	-9.49587
毁	-9.49602
辛	-9.49623
的重要	-9.49712
颜色	-9.49901
附近	-9.49964
忘	-9.49971
之中	-9.49974
抽	-9.49974
集中	-9.49978
▁例如	-9.49983
宁	-9.50075
纹	-9.50078
选民	-9.50104
▁P	-9.50106
展开	-9.50144
幼	-9.5018
谱	-9.50231
磨	-9.50232
某个	-9.50275
出去	-9.50301
阴	-9.50451
欢迎	-9.50533
浆	-9.50564
粘	-9.50565
相反	-9.50614
不想	-9.50649
生长	-9.50685
公路	-9.50725
运输	-9.50776
略	-9.50817
打击	-9.50879
学家	-9.50971
社区	-9.51026
摆	-9.51033
设施	-9.51042
投入	-9.51058
看来	-9.51197
ic	-9.5123
情况下	-9.51313
埃及	-9.51409
下去	-9.51476
呼吁	-9.51531
珠	-9.51615
涂	-9.51628
应对	-9.51677
我会	-9.51748
村	-9.51802
酶	-9.51824
构	-9.51831
星期	-9.51915
充分	-9.51937
得到了	-9.52013
Z	-9.52019
就在	-9.52111
事务	-9.52155
来看	-9.5216
us	-9.52184
职位	-9.52186
都不	-9.52216
睡眠	-9.52219
鞋	-9.52289
街	-9.5229
阵	-9.52297
依	-9.52328
兼	-9.52409
坚	-9.52508
污染	-9.52511
怕	-9.52586
上了	-9.5262
to	-9.52627
夏	-9.52633
定义	-9.52671
里的	-9.52697
透	-9.527
卢	-9.52703
不足	-9.52742
表演	-9.52786
麻	-9.52795
在那里	-9.52858
就业	-9.52861
防止	-9.52924
朗	-9.52942
的作用	-9.52959
面前	-9.53036
缅甸	-9.53098
挂	-9.53196
让他们	-9.53214
的机会	-9.53224
洋	-9.53236
▁不要	-9.53254
寄	-9.53295
途	-9.5332
氧化	-9.53372
的能力	-9.53412
依然	-9.53413
ur	-9.53422
在过去	-9.53486
的结果	-9.53631
上涨	-9.5403
禁	-9.54058
提到	-9.54098
真正的	-9.54225
2011	-9.5435
进展	-9.54356
众	-9.5439
喜	-9.54404
从事	-9.5442
面积	-9.54424
太阳	-9.54451
推出	-9.54471
认	-9.54474
的孩子	-9.54486
户	-9.54523
闻	-9.54548
▁目的	-9.54621
很少	-9.54632
担任	-9.54656
触	-9.5466
特殊	-9.5467
应用程序	-9.54732
检	-9.54879
慢	-9.54901
各国	-9.54903
显然	-9.55015
混	-9.55024
un	-9.55049
抑制	-9.55111
会有	-9.55138
300	-9.5524
狂	-9.55353
提升	-9.55359
迈	-9.55393
临床	-9.55437
哥	-9.5548
嘴	-9.55492
的确	-9.5552
这就是	-9.55523
这类	-9.5559
麦凯恩	-9.55595
议会	-9.55729
搜索	-9.55908
纤维	-9.55913
链	-9.55979
加拿大	-9.56001
两种	-9.5605
某种	-9.56091
糟糕	-9.56103
2004	-9.56115
讲话	-9.56164
想法	-9.56381
给予	-9.56426
临	-9.56501
周五	-9.56522
浮	-9.56714
肺	-9.56715
候选人	-9.56814
的想法	-9.56833
教师	-9.56871
学会	-9.56889
需	-9.56912
角色	-9.56924
碎	-9.56979
做了	-9.57099
来源	-9.57124
域	-9.57157
阳	-9.57181
大学的	-9.57194
遗	-9.57282
泡	-9.5733
茶	-9.5733
此次	-9.57356
ta	-9.57368
组合	-9.57396
该项目	-9.57408
预期	-9.5743
机械	-9.57447
最重要的	-9.57508
粒	-9.57531
打算	-9.57641
许多人	-9.57652
述	-9.57671
商务	-9.57688
因为他们	-9.57695
高度	-9.57705
禁止	-9.57752
必要	-9.57793
癌	-9.57832
右	-9.57838
律	-9.57878
早期	-9.57903
胸	-9.5795
纯	-9.58003
风格	-9.58078
旁	-9.58236
丹	-9.58238
道德	-9.58266
连续	-9.58276
免费	-9.5846
炉	-9.58469
29	-9.58471
一段	-9.58518
算法	-9.58534
日报	-9.58587
指标	-9.58665
横	-9.58677
绝对	-9.5868
煤	-9.58699
创建	-9.58723
休	-9.58838
收到	-9.58838
还会	-9.58918
巨大	-9.58978
来到	-9.59032
周四	-9.59097
规划	-9.59103
顾客	-9.5911
医	-9.59128
利润	-9.59136
太多	-9.59185
身份	-9.59293
厅	-9.59354
迹	-9.59375
两年	-9.59377
泽	-9.59396
女士	-9.59415
航班	-9.59543
会谈	-9.5965
粗	-9.59726
乌	-9.59726
氧	-9.59961
作家	-9.59979
花费	-9.60006
宫	-9.60011
▁F	-9.60024
抗议	-9.60033
追求	-9.60067
▁当然	-9.60135
石油公司	-9.60224
增强	-9.60231
打开	-9.603
生活中	-9.60328
会在	-9.60542
出版	-9.60614
欲	-9.6067
详细	-9.60684
激	-9.60711
测定	-9.60739
洞	-9.60972
裂	-9.60981
朝鲜	-9.61008
的一种	-9.61017
一部	-9.61093
浪	-9.61183
联邦	-9.61187
不久	-9.61272
无论	-9.61274
同时也	-9.61299
腹	-9.6132
可以在	-9.6142
美国的	-9.61448
稳	-9.61457
以为	-9.61468
以外	-9.61514
铺	-9.61642
周二	-9.61648
佳	-9.61722
看见	-9.61733
35	-9.61748
货物	-9.61748
棒	-9.61816
搞	-9.61857
穆	-9.61965
▁C	-9.61967
获得了	-9.62038
很大	-9.62042
罗安达	-9.62068
重建	-9.62168
乌克兰	-9.62181
动力	-9.62185
te	-9.62186
好处	-9.62262
模拟	-9.62294
我要	-9.62323
彩	-9.62346
争	-9.62351
人群	-9.62401
de	-9.62425
▁同时	-9.62539
依赖	-9.62604
摇	-9.62609
桑	-9.62614
记忆	-9.62615
满意	-9.6263
很好	-9.62688
序	-9.62705
准确	-9.62725
途径	-9.6273
财富	-9.62733
战斗	-9.62744
武	-9.62744
你要	-9.62862
站在	-9.62882
径	-9.62903
仅仅	-9.62916
意思是	-9.62918
▁那	-9.62922
碳	-9.6294
行政	-9.63012
结论	-9.63041
研究了	-9.63149
单位	-9.63171
宗教	-9.63216
构成	-9.63261
免疫	-9.63271
设置	-9.63284
尤	-9.63285
加工	-9.63305
正确	-9.63321
沿	-9.63355
相似	-9.6343
净	-9.63461
我就	-9.63465
▁随着	-9.63482
带着	-9.63685
传播	-9.63737
一直在	-9.63809
°	-9.63815
页	-9.63829
还在	-9.63887
峰	-9.63979
克斯	-9.64036
and	-9.6404
包含	-9.64054
▁最后	-9.64055
▁此外	-9.64059
陷入	-9.64068
更好的	-9.64088
诉	-9.64123
粮食	-9.64153
的一些	-9.64163
”(	-9.64191
题	-9.64207
警方	-9.64237
篇	-9.64254
骑	-9.64255
进程	-9.64313
▁她说	-9.64323
成就	-9.64337
伤害	-9.64344
否则	-9.64376
情感	-9.64376
给我	-9.64584
成长	-9.64615
经济增长	-9.64652
改进	-9.64693
上帝	-9.64715
灾	-9.64737
前往	-9.64851
...	-9.64913
穿着	-9.64952
堡	-9.6502
感谢	-9.65063
的股份	-9.65076
面试	-9.65108
想到	-9.65117
刚刚	-9.65171
安装	-9.6518
好像	-9.65182
随后	-9.65194
农民	-9.65248
固定	-9.65248
吹	-9.65253
图像	-9.65291
说话	-9.65325
的声音	-9.65355
▁结论	-9.65356
▁莫桑比克马普托	-9.65366
唱	-9.65386
上述	-9.65393
-1	-9.65401
诚	-9.65408
也没有	-9.65506
多数	-9.65522
阻止	-9.65601
谢	-9.65634
每一个	-9.65661
演讲	-9.65736
国家的	-9.65796
常见	-9.65799
一代	-9.65818
装置	-9.65878
举行的	-9.65898
呈	-9.65902
胜利	-9.65906
结果表明	-9.65967
效应	-9.6598
撒	-9.66034
答案	-9.66047
数学	-9.66049
主管	-9.6608
当中	-9.6609
期望	-9.66105
亿美元的	-9.6612
债	-9.66125
的朋友	-9.6616
桥	-9.66183
se	-9.66223
邮件	-9.66273
介绍了	-9.66341
者的	-9.66388
潜在	-9.66416
销	-9.66505
伊斯兰	-9.66599
高于	-9.66619
周三	-9.66623
ed	-9.66638
刑	-9.66653
子里	-9.66686
的数据	-9.6669
春	-9.66702
决策	-9.66713
敌	-9.66721
添加	-9.66736
周一	-9.66794
消失	-9.66866
信心	-9.66871
猎	-9.66938
做到	-9.66939
li	-9.6695
成绩	-9.66966
指控	-9.66976
毫无	-9.67075
天然气	-9.67082
系列	-9.671
生态	-9.67114
天气	-9.67129
另	-9.67177
红色	-9.67255
衰	-9.67266
夺	-9.6727
万吨	-9.67327
可靠	-9.67347
时尚	-9.67392
纪念	-9.67407
回家	-9.67434
运营	-9.6744
工资	-9.67447
特定	-9.67462
招聘	-9.67511
合理	-9.6752
猪	-9.67735
电力	-9.67783
搭	-9.67807
肝	-9.67848
灌	-9.67849
晶	-9.67877
在你	-9.67975
有时候	-9.67982
拖	-9.68073
男子	-9.68134
中间	-9.68155
得出	-9.68274
念	-9.68281
论文	-9.68282
ter	-9.68318
台湾	-9.68558
艺	-9.68588
凝	-9.68653
鲜	-9.68663
的故事	-9.68688
明星	-9.68696
事物	-9.68699
婴儿	-9.68774
本文	-9.68782
举办	-9.68792
适	-9.68821
饮	-9.6896
代表团	-9.68978
仪	-9.68986
他们在	-9.6903
绿色	-9.69039
损	-9.69041
45	-9.69156
细节	-9.6916
律师	-9.69186
ir	-9.69217
运动员	-9.6925
小组	-9.69256
不错	-9.69271
到底	-9.69299
钻	-9.69315
污	-9.69342
信任	-9.69465
公布	-9.69467
营养	-9.69501
商店	-9.69543
几个月	-9.69556
妮	-9.69579
更高	-9.69582
协调	-9.69595
释放	-9.69651
恋	-9.69652
杆	-9.69685
疑	-9.69716
一步	-9.69738
译	-9.69785
动作	-9.6987
邀请	-9.69932
冠	-9.69955
ol	-9.69982
肌	-9.70026
填	-9.70035
担忧	-9.70164
提醒	-9.70191
权利	-9.702
突	-9.70208
察	-9.70237
尚	-9.70339
娱乐	-9.70398
伙伴	-9.7049
到达	-9.70505
烤	-9.70749
潜	-9.7075
十年	-9.70751
一边	-9.708
恐惧	-9.70868
宾	-9.70976
唐	-9.70985
接下来	-9.71038
回来	-9.71056
州的	-9.71066
领袖	-9.71108
介	-9.71148
售	-9.71162
足球	-9.71271
那就是	-9.71316
▁方法	-9.71353
▁”	-9.71359
乎	-9.71395
这份	-9.71499
证实	-9.71543
的基本	-9.7155
顾	-9.71597
多个	-9.71608
机器	-9.71666
委	-9.71791
研究人员	-9.71805
住在	-9.7184
眼睛	-9.7196
ne	-9.7199
范	-9.71999
诊断	-9.72069
承担	-9.72071
最初	-9.72121
筹	-9.72172
深入	-9.72173
Al	-9.72245
进步	-9.72247
依据	-9.7231
除非	-9.72367
良好的	-9.72386
壮	-9.72411
分离	-9.72423
那时	-9.72445
但他	-9.72445
有了	-9.72448
大小	-9.72467
爱情	-9.72468
转变	-9.72478
貌	-9.72523
震	-9.726
有些人	-9.72649
房地产	-9.72663
原理	-9.72671
出现在	-9.72701
强度	-9.72704
透露	-9.72824
co	-9.73069
的名字	-9.73094
就要	-9.73108
豆	-9.73144
▁T	-9.73145
中央	-9.73147
监管	-9.73147
的支持	-9.73177
一块	-9.73197
缩	-9.73233
分配	-9.73303
什	-9.73332
显得	-9.73337
让他	-9.73378
ay	-9.73432
燃料	-9.73493
人民币	-9.73627
革命	-9.73631
顾问	-9.73644
有什么	-9.7366
避	-9.73711
剪	-9.73737
lo	-9.73837
终于	-9.7384
代码	-9.739
珍	-9.73967
▁当你	-9.73981
划	-9.74014
汁	-9.74101
你能	-9.74107
耶	-9.74222
玻璃	-9.74223
大会	-9.74241
▁W	-9.74243
相同	-9.7426
凡	-9.7431
的所有	-9.74357
指责	-9.74361
对你	-9.74385
蛋	-9.74425
呆	-9.74466
壳	-9.74467
轴	-9.74467
的观点	-9.74492
签	-9.7459
给了	-9.74642
乘	-9.74669
闭	-9.74676
斗	-9.74677
居住	-9.74741
民众	-9.74841
态度	-9.74848
物理	-9.74854
发生的	-9.74889
良	-9.74919
收集	-9.75067
荣	-9.75071
铜	-9.75079
桌	-9.7514
国外	-9.75181
掌握	-9.75205
良好	-9.75329
足够	-9.7535
隆	-9.75384
毕业生	-9.75448
成果	-9.75468
本周	-9.75479
的变化	-9.75484
拍摄	-9.75577
儿子	-9.75598
窗	-9.75648
的价格	-9.75672
辆	-9.75702
飞行	-9.75758
每次	-9.75765
四个	-9.75806
维护	-9.75879
大量的	-9.75931
ma	-9.75964
的需求	-9.75997
种植	-9.76011
体验	-9.76041
垃圾	-9.76068
农村	-9.76082
裤	-9.76192
400	-9.76262
请求	-9.76392
功	-9.76396
不用	-9.76483
一些人	-9.76488
成熟	-9.76498
荷	-9.76531
释	-9.76543
Facebook	-9.76565
事故	-9.76604
加州	-9.76643
氏	-9.76691
烈	-9.76739
识	-9.7681
批	-9.7687
Mo	-9.76893
柱	-9.7694
也就是	-9.76977
公园	-9.77002
肥	-9.77048
会上	-9.77062
医学	-9.7715
墨西哥	-9.77192
都要	-9.77198
感兴趣	-9.77237
浓度	-9.77242
完整	-9.77301
条件下	-9.77304
尘	-9.77317
很容易	-9.77355
一座	-9.77405
专门	-9.77412
立即	-9.77417
辞	-9.77428
饮食	-9.77465
生存	-9.77473
脏	-9.77484
岸	-9.775
几天	-9.77579
不需要	-9.77589
基础设施	-9.77593
意思	-9.77677
秘密	-9.77701
辩论	-9.77707
我们将	-9.77769
症状	-9.77793
敬	-9.77818
搬	-9.77821
胃	-9.77822
周末	-9.77849
下的	-9.77885
低于	-9.77935
阿尔	-9.77948
感情	-9.78016
多种	-9.78018
了一些	-9.7802
法院	-9.78033
我们可以	-9.78072
法庭	-9.78091
多年	-9.78095
ad	-9.78095
严格	-9.78113
的学生	-9.78158
发生了	-9.78163
悲	-9.78167
讯	-9.78176
遭到	-9.78187
▁然后	-9.78301
一大	-9.78337
标志	-9.78413
呼吸	-9.78467
判断	-9.78515
蜂	-9.78578
答	-9.78624
两位	-9.78626
将其	-9.78663
互	-9.78671
关心	-9.78675
礼物	-9.78679
▁一个	-9.78737
抱怨	-9.78839
乡	-9.78845
哪些	-9.78854
统治	-9.78892
问题上	-9.78928
昂	-9.78952
锻炼	-9.78964
印象	-9.78988
今	-9.79087
冻	-9.79221
希腊	-9.79221
财	-9.79223
得多	-9.79234
插	-9.793
频	-9.79319
各个	-9.79386
读者	-9.79411
日益	-9.79425
在线	-9.79446
莎	-9.79477
庆祝	-9.79479
正确的	-9.79535
削减	-9.79556
严	-9.79628
ie	-9.79646
记得	-9.79651
输	-9.79671
美好	-9.79687
洁	-9.79714
柔	-9.79725
穷	-9.7973
im	-9.79739
候	-9.79754
▁首先	-9.79779
耗	-9.79861
▁K	-9.79861
稀	-9.79863
马普托	-9.79991
他们会	-9.80036
消除	-9.80122
公民	-9.8015
成功的	-9.80202
缘	-9.80211
当我	-9.80236
芬	-9.80251
武装	-9.80278
ia	-9.80289
这两个	-9.80296
将来	-9.80324
的关键	-9.80325
有望	-9.80331
等等	-9.80331
更好	-9.80352
丰	-9.80357
俗	-9.80377
兄弟	-9.80381
创作	-9.80383
=	-9.8045
发生在	-9.80455
很有	-9.80484
都能	-9.80512
放松	-9.80594
朱	-9.8064
我们在	-9.80665
钻石	-9.80805
▁19	-9.80822
▁作为	-9.80868
庆	-9.80898
俱乐部	-9.809
对其	-9.80917
事实上	-9.80965
长时间	-9.80988
足够的	-9.81017
支出	-9.81071
一周	-9.81102
即便	-9.81164
na	-9.81174
尊重	-9.812
om	-9.81201
咨询	-9.81223
Q	-9.81257
但我	-9.8133
10%	-9.81361
闲	-9.81416
研究表明	-9.81476
典	-9.81598
整体	-9.81666
接着	-9.81749
吸收	-9.81796
还可以	-9.81883
传统的	-9.8192
迫	-9.82019
体现	-9.82021
▁英国	-9.82032
报纸	-9.82033
这是一个	-9.8206
记住	-9.8206
白宫	-9.8212
看着	-9.82123
每个人都	-9.82123
ge	-9.82149
思维	-9.82287
这家	-9.82299
概念	-9.82319
愤怒	-9.82346
保障	-9.82349
看上去	-9.82352
下午	-9.82352
不够	-9.82454
累	-9.82458
小型	-9.82503
现有	-9.8251
识别	-9.82528
贡献	-9.82609
啤酒	-9.82614
自从	-9.8262
在这	-9.82654
股东	-9.82658
话题	-9.82673
遭受	-9.82767
抓	-9.82787
欢	-9.82803
简单的	-9.82863
动态	-9.83002
da	-9.83035
也在	-9.83112
斑	-9.8314
熟	-9.83205
婚礼	-9.8321
聪明	-9.83276
名为	-9.83309
群体	-9.83413
面包	-9.83528
抱	-9.83536
央行	-9.83562
扩展	-9.83608
腰	-9.8366
的第一	-9.83661
覆盖	-9.83679
巴勒斯坦	-9.83688
规律	-9.83692
现场	-9.83708
薪	-9.83762
溶	-9.83792
宣传	-9.83827
黑色	-9.8386
过来	-9.83908
熊	-9.83934
勤	-9.83943
]	-9.83943
利亚	-9.83952
判	-9.83955
期待	-9.83965
主人	-9.83978
海洋	-9.84023
年来	-9.84036
爆	-9.84063
害怕	-9.84091
探索	-9.84113
所在	-9.84125
出发	-9.84158
夹	-9.84212
技巧	-9.84215
一片	-9.84219
最低	-9.8422
戏	-9.84312
对手	-9.8433
有限	-9.84372
产生的	-9.84427
不太	-9.84461
早上	-9.84465
[	-9.84481
警告	-9.84502
吨	-9.84559
发射	-9.84603
浅	-9.84617
妇	-9.84635
伸	-9.8464
关闭	-9.84647
优化	-9.84765
缝	-9.84888
延	-9.84935
后的	-9.85011
秀	-9.85014
休息	-9.8504
的基础上	-9.85093
此前	-9.85131
韦	-9.85159
含有	-9.85162
餐厅	-9.85232
体重	-9.85261
他是	-9.85276
第四	-9.85333
败	-9.85337
明年	-9.85352
堂	-9.85364
人才	-9.85375
斯坦	-9.85385
耶和华	-9.85432
31	-9.85451
续	-9.85467
是不是	-9.85499
身边	-9.85505
港口	-9.85518
我知道	-9.85545
三年	-9.85546
你在	-9.85601
方便	-9.85648
上市	-9.85689
很可能	-9.85691
刘	-9.85704
脂肪	-9.85705
我觉得	-9.85719
取消	-9.85753
流动	-9.85824
原因是	-9.85836
路上	-9.8584
湾	-9.85953
对他	-9.86039
万人	-9.86057
故	-9.86067
灭	-9.86086
须	-9.86101
约会	-9.86131
掌	-9.86132
我在	-9.8616
鼠	-9.8621
自信	-9.86211
尼亚	-9.86233
▁摘要	-9.86255
勘探	-9.86255
ul	-9.86264
奥运会	-9.86329
替	-9.86338
20%	-9.86412
前景	-9.86487
大学生	-9.86488
驾驶	-9.86529
益	-9.86531
做的	-9.8655
构建	-9.8658
旋	-9.86704
很重要	-9.86743
考试	-9.86807
还将	-9.86881
迟	-9.8692
获取	-9.86927
我们必须	-9.86967
还能	-9.87074
从未	-9.87131
化的	-9.87153
总额	-9.87321
议员	-9.87439
的政治	-9.87449
问题的	-9.87468
跌	-9.87472
的产品	-9.87511
扮演	-9.87514
劳动	-9.87529
建立了	-9.87549
档	-9.87559
异常	-9.87575
热情	-9.87587
公寓	-9.87644
电信	-9.87684
健	-9.87718
假如	-9.87755
1000	-9.87763
你需要	-9.87789
球员	-9.8796
头发	-9.87971
有一些	-9.87976
nd	-9.8802
工作的	-9.8804
士兵	-9.88115
那就	-9.88143
──	-9.88336
龄	-9.88383
形态	-9.88391
甘	-9.88417
土壤	-9.88481
非法	-9.88503
立法	-9.8853
市场的	-9.88599
继	-9.88604
循环	-9.88619
数据显示	-9.88655
渴望	-9.88761
写道	-9.88774
法案	-9.88817
尿	-9.88899
舰	-9.88899
腔	-9.88899
麻烦	-9.88905
血管	-9.88922
清单	-9.8893
其中包括	-9.88936
通信	-9.8902
损害	-9.89052
财务	-9.89068
网上	-9.89071
▁of	-9.89085
声称	-9.8911
学生们	-9.89173
爬	-9.89182
称为	-9.89194
失望	-9.89229
海外	-9.89319
地点	-9.8934
细菌	-9.89347
观念	-9.8939
海岸	-9.894
声音	-9.89441
怒	-9.89464
的人们	-9.89502
雇主	-9.89559
资助	-9.89627
仪式	-9.89646
之处	-9.89673
账	-9.89742
注意力	-9.89776
贫困	-9.89789
▁奥巴马	-9.8982
同样的	-9.89834
盟	-9.89836
收益	-9.89841
这对	-9.89846
彼此	-9.89902
该地区	-9.89903
救援	-9.89939
对待	-9.8999
不起	-9.9001
脂	-9.90013
誉	-9.90029
它是	-9.90134
下跌	-9.90204
轻松	-9.90206
数据库	-9.90325
▁去年	-9.90334
基地	-9.90356
房屋	-9.90422
县	-9.90464
提名	-9.90464
32	-9.90533
有效的	-9.90539
这些人	-9.90581
递	-9.90584
森林	-9.90591
扫	-9.90607
枝	-9.90608
小孩	-9.90763
现状	-9.90803
涨	-9.90836
!”	-9.90872
Ca	-9.90901
每周	-9.91039
ha	-9.91114
制造商	-9.91124
com	-9.91176
黄金	-9.91179
▁这位	-9.91183
总结	-9.91219
冒	-9.91292
▁E	-9.91304
马上	-9.91323
辨	-9.91328
伏	-9.91328
▁安哥拉罗安达	-9.91333
哪里	-9.91405
种族	-9.91427
幻	-9.91473
激烈	-9.9148
的风险	-9.9149
二十	-9.91544
鼓	-9.91609
能在	-9.91616
这件事	-9.91619
植	-9.91699
更有	-9.91767
亿欧元	-9.91772
建造	-9.91802
服装	-9.9181
受伤	-9.91824
性和	-9.91836
信用	-9.91858
紧急	-9.91948
富有	-9.91979
的设计	-9.92003
白色	-9.92023
滚	-9.92047
席	-9.92054
漂亮	-9.92061
退休	-9.92072
促	-9.92099
国民	-9.92117
开心	-9.92147
论坛	-9.92208
优秀	-9.92209
上周	-9.92225
主要是	-9.92302
周期	-9.92324
争取	-9.92351
中国人	-9.92435
空中	-9.92445
活性	-9.92467
生意	-9.9249
GDP	-9.92491
纪录	-9.92501
高兴	-9.92534
超级	-9.92604
注意到	-9.92607
出现了	-9.92612
荒	-9.92637
囊	-9.92638
泰国	-9.92643
me	-9.92726
发明	-9.92746
乙	-9.92779
童	-9.92784
Ch	-9.92885
谈论	-9.92892
不好	-9.92917
j	-9.92931
贝尔	-9.92937
桶	-9.92959
也能	-9.93015
众多	-9.93068
坡	-9.93079
拼	-9.93079
长的	-9.93116
谋	-9.93139
取决于	-9.93226
鬼	-9.93226
都可以	-9.9333
出席	-9.93361
挤	-9.93371
闹	-9.93373
信仰	-9.93389
通讯	-9.93402
您的	-9.93424
ou	-9.93442
▁一些	-9.93442
回应	-9.9348
翻译	-9.93531
那是	-9.93599
个国家	-9.93617
在此	-9.93675
例子	-9.93725
提交	-9.93782
季度	-9.93814
后面	-9.93914
爆发	-9.94005
受欢迎	-9.94018
更新	-9.94038
补充说	-9.94061
午	-9.94075
孙	-9.94114
株	-9.94115
的可能性	-9.94123
修改	-9.94225
两人	-9.94253
肿	-9.94259
宇宙	-9.94263
塑料	-9.9428
减轻	-9.94358
中有	-9.9438
扣	-9.94403
则是	-9.94409
统一	-9.94468
负责人	-9.94561
密切	-9.94564
熟悉	-9.94566
表现出	-9.94578
乘客	-9.94581
命令	-9.94611
真是	-9.9463
锋	-9.9471
去了	-9.94717
美国总统	-9.94717
范围内	-9.94729
玉米	-9.94737
旗	-9.94784
的一项	-9.94857
大幅	-9.94863
指的是	-9.94932
税收	-9.94963
适当	-9.94995
卵	-9.9501
悬	-9.9501
0.0	-9.9509
秋	-9.95098
气候	-9.95103
公布的	-9.95158
跨	-9.95182
醒	-9.95197
精力	-9.95203
皇	-9.95217
盗	-9.95256
妙	-9.95261
撞	-9.95289
茨	-9.95301
In	-9.95367
包装	-9.95426
浪费	-9.95497
谈话	-9.95527
造成的	-9.95574
永	-9.95635
一套	-9.95684
漫	-9.95728
冠军	-9.9573
勃	-9.95763
血液	-9.95867
丰富	-9.95902
硅	-9.95914
夸	-9.95915
几比	-9.95927
00	-9.95941
发展的	-9.95957
校园	-9.95968
保留	-9.95971
大陆	-9.95971
没有人	-9.96066
年度	-9.96102
发现了	-9.96227
存在的	-9.96249
发行	-9.96352
的内容	-9.96379
亡	-9.96583
司法	-9.96621
推广	-9.96709
给他	-9.96718
创业	-9.96744
争议	-9.96761
者们	-9.96773
贫	-9.96778
诊	-9.96807
单词	-9.96807
重视	-9.96808
600	-9.96833
彻底	-9.96839
沟通	-9.96842
火车	-9.96857
原来	-9.9688
角度	-9.96906
胎	-9.96978
出来的	-9.97017
的态度	-9.97026
团体	-9.9705
代理	-9.97106
分别为	-9.9724
这将	-9.97307
▁除了	-9.97311
同学	-9.97342
股市	-9.97379
映	-9.97398
图片	-9.97415
法官	-9.97438
津巴布韦	-9.9744
脉	-9.97497
提前	-9.97608
名字	-9.97618
购物	-9.97679
深刻	-9.97703
困境	-9.9772
额外	-9.97726
埋	-9.97748
合成	-9.97799
并在	-9.978
诱	-9.97825
是如何	-9.97847
边界	-9.97873
做好	-9.97881
绕	-9.9792
敏感	-9.97935
立场	-9.97944
社交	-9.97948
灾难	-9.97948
敏	-9.97949
一部分	-9.97959
染	-9.97959
预防	-9.97968
实行	-9.97973
裁	-9.9799
慢慢	-9.98068
拜	-9.98082
锁	-9.98103
ss	-9.98145
装饰	-9.98165
惠	-9.98203
亦	-9.98212
注册	-9.98221
信贷	-9.98226
哲学	-9.98248
晓	-9.98367
企业家	-9.98375
输入	-9.98425
生活在	-9.98576
是中国	-9.98578
攻	-9.98629
主任	-9.98637
逐	-9.98652
相关的	-9.9866
饱	-9.98678
乔治	-9.9869
尚未	-9.98755
极端	-9.9876
大规模	-9.98854
夫妇	-9.9886
一段时间	-9.98867
弃	-9.98947
暖	-9.98968
的感觉	-9.99047
的照片	-9.99047
稍	-9.99053
性质	-9.99101
胆	-9.99106
太空	-9.99141
杨	-9.99145
但在	-9.99161
因为他	-9.99223
告诉我	-9.99238
实在	-9.99249
汤	-9.99256
腾	-9.99302
对比	-9.99389
利率	-9.99391
排名	-9.99391
瑟	-9.99458
屏幕	-9.99465
完善	-9.99479
带来的	-9.9949
ry	-9.99494
▁另外	-9.99506
我们会	-9.99527
束	-9.99554
这部	-9.99559
感受	-9.99589
依靠	-9.99634
会让	-9.99772
幸运	-9.99849
新生	-9.99895
每一	-9.99914
鲍	-9.9993
做什么	-9.99992
确认	-10.0006
墨	-10.0009
青年	-10.0009
是最	-10.001
呈现	-10.0012
ow	-10.0013
地面	-10.0014
润	-10.0019
大选	-10.0023
瓜	-10.0024
拔	-10.0025
过于	-10.003
所谓的	-10.0034
捷	-10.0039
贯	-10.004
图书馆	-10.0041
密度	-10.0044
不良	-10.0046
奇怪	-10.0047
▁请	-10.0047
考虑到	-10.0048
动脉	-10.0048
我希望	-10.0049
不得	-10.005
分为	-10.0054
催	-10.0056
St	-10.0059
家里	-10.0061
的历史	-10.0071
抢	-10.0072
琳	-10.0072
2003	-10.0077
决心	-10.0084
更容易	-10.0085
出于	-10.0089
我是	-10.009
夫人	-10.009
股份	-10.0092
▁人们	-10.0093
燃	-10.0098
塑	-10.0102
的公司	-10.0106
观看	-10.0108
麦克	-10.0113
具备	-10.0116
不少	-10.0116
成分	-10.0117
垫	-10.012
可行	-10.0124
方程	-10.0124
让自己	-10.013
球队	-10.0132
转移	-10.0133
颈	-10.0136
▁事实上	-10.0136
情报	-10.0137
较大	-10.014
的计划	-10.0141
电池	-10.0141
son	-10.0141
浴	-10.0143
一辆	-10.0144
发动	-10.0149
圣诞	-10.015
iPhone	-10.0152
逆	-10.0152
没有任何	-10.0154
被称为	-10.0156
还说	-10.0158
不安	-10.0159
也不会	-10.016
交换	-10.0161
你知道	-10.0163
打电话	-10.0166
下了	-10.0168
万欧元	-10.0171
但这	-10.0173
乐观	-10.0174
潜力	-10.0178
像是	-10.0183
早些时候	-10.0184
英镑	-10.0184
一定要	-10.0185
微笑	-10.0186
经济学家	-10.0192
否认	-10.0193
陷	-10.0194
它们的	-10.0196
愈	-10.0199
猛	-10.0199
疯狂	-10.0201
都没有	-10.0208
曲线	-10.021
因为它	-10.0213
付出	-10.0216
铝	-10.0216
榜	-10.0216
回报	-10.022
AC	-10.0223
生成	-10.0225
侵	-10.0226
池	-10.0227
的安全	-10.023
漏	-10.0232
sh	-10.0235
挑	-10.0243
马克	-10.0246
很好的	-10.0246
欠	-10.0248
牢	-10.0248
现代化	-10.0253
▁巴西	-10.0254
48	-10.0255
遭遇	-10.0256
通知	-10.0259
函数	-10.0267
机器人	-10.0269
▁结果表明	-10.0276
敌人	-10.0279
蜜	-10.028
重复	-10.0282
损伤	-10.0283
复合	-10.0283
经济发展	-10.0285
虎	-10.0296
是我	-10.0297
赖	-10.0302
带有	-10.0304
不论	-10.0308
定位	-10.0309
返回	-10.0311
监督	-10.0313
参考	-10.0315
服务器	-10.0318
要么	-10.0319
饼	-10.0327
焦虑	-10.033
债券	-10.033
激励	-10.033
对自己	-10.0337
会让你	-10.0345
摆脱	-10.0348
理念	-10.0351
局势	-10.0352
现金	-10.0354
增加了	-10.0356
和他的	-10.0363
巴黎	-10.0364
宪法	-10.0367
▁今天	-10.0371
商人	-10.0381
饮料	-10.0381
设立	-10.0383
召开	-10.0387
英里	-10.0389
艰难	-10.0396
规范	-10.0399
赢	-10.0402
为此	-10.0407
开支	-10.0418
你必须	-10.0421
抓住	-10.0422
原子	-10.0424
对照组	-10.0432
西部	-10.0434
性别	-10.0437
北约	-10.0443
砂	-10.0444
这只	-10.0446
导弹	-10.0449
75	-10.0453
▁R	-10.0457
凭	-10.046
后者	-10.0461
临时	-10.0462
大多数人	-10.0469
父	-10.0471
同一	-10.0472
寻	-10.0473
框架	-10.0478
体制	-10.048
舒适	-10.0482
并将	-10.0483
大使	-10.0493
裙	-10.0494
利比亚	-10.0494
不喜欢	-10.0496
肌肉	-10.0496
间的	-10.0499
金融危机	-10.05
目前的	-10.0509
展现	-10.0511
宜	-10.0522
的社会	-10.0524
阿拉伯	-10.0527
回忆	-10.0528
man	-10.0531
得以	-10.0534
严重的	-10.0534
支持者	-10.0537
新型	-10.0541
梁	-10.0542
迁	-10.0543
当我们	-10.0549
财产	-10.055
叫做	-10.055
之所以	-10.0552
有个	-10.0557
总裁	-10.0557
扔	-10.056
仁	-10.056
中国政府	-10.0564
▁J	-10.0569
宿	-10.0577
东帝汶	-10.0577
目的是	-10.058
培	-10.0592
栏	-10.0593
逊	-10.0593
刷	-10.0593
抛	-10.0593
我们都	-10.0599
一定的	-10.0599
▁L	-10.0601
要是	-10.0607
尤其	-10.0609
贾	-10.0611
▁最近	-10.0615
幸	-10.0616
人工	-10.0619
赚	-10.0624
荷兰	-10.0631
假设	-10.0633
他对	-10.0635
不必	-10.0642
奔	-10.0644
诉讼	-10.0645
恐怖	-10.0647
人体	-10.0648
边缘	-10.0649
为自己	-10.0653
游泳	-10.0662
已有	-10.0665
ba	-10.0665
责	-10.0672
mm	-10.0672
大众	-10.0673
走了	-10.0681
始	-10.069
庄	-10.0694
踏	-10.0695
微软	-10.0701
ell	-10.0704
浓	-10.0704
过度	-10.0705
少数	-10.0709
邦	-10.071
提取	-10.071
有趣	-10.071
生活的	-10.0711
未能	-10.0714
署	-10.0716
懂	-10.0719
开采	-10.0723
伴侣	-10.0729
将是	-10.0737
合法	-10.0739
的看法	-10.0745
俄	-10.0745
大大	-10.0751
的投资	-10.0759
2013	-10.0759
中东	-10.0761
恒	-10.0762
浏览	-10.0763
腐败	-10.0763
突出	-10.077
难民	-10.0773
恨	-10.078
雾	-10.078
肾	-10.078
与中国	-10.0782
忘记	-10.0783
这就	-10.0784
影响力	-10.0786
这意味着	-10.0786
品质	-10.0787
转换	-10.0792
形势	-10.0795
浸	-10.0797
练习	-10.0797
此外	-10.0798
他还	-10.0798
一群	-10.08
保守	-10.0801
任何人	-10.0806
罗马	-10.0811
敲	-10.0814
土耳其	-10.0814
迹象	-10.0816
地上	-10.0818
打破	-10.0824
市场上	-10.0824
另一方面	-10.0825
vi	-10.0825
伍	-10.0827
寒	-10.083
教堂	-10.083
活力	-10.0831
储蓄	-10.0831
写作	-10.0832
意外	-10.0833
基金会	-10.0837
卫星	-10.0838
召	-10.084
的那	-10.084
物品	-10.0844
项目的	-10.0844
吓	-10.0848
矛盾	-10.0848
编辑	-10.0848
面临的	-10.086
酷	-10.0864
悉	-10.0865
颇	-10.0865
马里	-10.0866
等方面	-10.0866
某人	-10.087
告诉你	-10.087
政府的	-10.0872
一本	-10.0873
认真	-10.0875
肿瘤	-10.0883
把你	-10.0883
英尺	-10.0883
领先	-10.0884
远远	-10.0886
甚	-10.0895
家长	-10.0898
BBC	-10.09
▁许多	-10.09
地说	-10.09
宗	-10.0908
有趣的	-10.0909
内心	-10.0911
品种	-10.0916
名称	-10.0917
宴	-10.0917
罗姆尼	-10.0917
穆斯林	-10.0917
新鲜	-10.092
关联	-10.0922
人权	-10.0926
你自己	-10.0928
轨	-10.093
这段	-10.0932
兴奋	-10.0935
在接受	-10.094
因为我	-10.0941
▁N	-10.0945
频率	-10.0946
增长率	-10.0946
的女性	-10.0948
齿	-10.0951
对我	-10.0951
炮	-10.0952
五年	-10.0956
年以来	-10.0957
截	-10.0959
起了	-10.0961
36	-10.0962
率为	-10.0964
更大	-10.0967
词汇	-10.0968
这条	-10.0983
这两	-10.0986
兽	-10.0986
智慧	-10.0987
赤字	-10.0988
融	-10.099
今后	-10.0991
▁来自	-10.0991
取代	-10.0994
把自己	-10.0994
营销	-10.0995
肯尼亚	-10.1005
未来的	-10.1012
▁要	-10.1018
ill	-10.1019
雕	-10.1021
这个国家	-10.1023
无论是	-10.1023
干扰	-10.1023
才会	-10.1028
问题是	-10.1035
忍	-10.1043
阳光	-10.1046
经济体	-10.1047
共有	-10.1048
般	-10.1051
学术	-10.1053
清晰	-10.1056
说服	-10.1057
签署了	-10.106
遗传	-10.106
去做	-10.1061
给出了	-10.1065
的角色	-10.1068
困	-10.1069
工作人员	-10.107
的努力	-10.107
格鲁吉亚	-10.1074
滴	-10.1074
类似的	-10.1075
是对	-10.1075
清洁	-10.1077
um	-10.1083
威尔	-10.1085
辩	-10.1086
走向	-10.1089
邻	-10.1089
会议上	-10.1094
不愿	-10.1095
组成的	-10.1096
足以	-10.1097
转化	-10.1106
哭	-10.1109
腺	-10.1109
高校	-10.111
有限公司	-10.1114
作为一个	-10.1115
我们需要	-10.1115
取得了	-10.1116
我们要	-10.1119
主动	-10.1126
>	-10.1127
繁荣	-10.1127
粉丝	-10.1133
博客	-10.1133
通用	-10.1134
纪	-10.1134
度假	-10.1135
较高	-10.1135
CD	-10.114
我也	-10.1141
总体	-10.1141
是指	-10.1141
牧	-10.1143
拟	-10.1143
吞	-10.1144
后果	-10.1148
变形	-10.1151
版本	-10.1152
著名的	-10.1153
解决方案	-10.1153
的压力	-10.1154
条款	-10.1157
的速度	-10.1157
炸	-10.116
尼日利亚	-10.1162
「	-10.1162
模糊	-10.1163
只会	-10.1163
技	-10.1164
的日子	-10.1167
驱	-10.1169
谈到	-10.117
百万	-10.117
平等	-10.1173
大卫	-10.1177
秒	-10.1179
越来越多的	-10.118
此类	-10.1184
她在	-10.1185
你想	-10.1189
大概	-10.1192
各自	-10.1193
丢	-10.1195
排放	-10.1199
在内的	-10.1199
撤	-10.1203
初步	-10.1206
这款	-10.1206
喜爱	-10.1206
在北京	-10.1207
迎	-10.121
把他	-10.1214
37	-10.1219
tt	-10.1222
峰会	-10.1225
焦	-10.1225
导演	-10.1231
繁	-10.1231
宣	-10.1232
的食物	-10.1232
星期二	-10.1235
实验室	-10.1235
而非	-10.1236
合作伙伴	-10.1238
研究所	-10.124
公平	-10.1242
奥巴马总统	-10.1247
献	-10.1247
极大	-10.1248
日常	-10.1251
你可能	-10.1256
的世界	-10.1257
40%	-10.1259
而不	-10.1266
新加坡	-10.1269
青少年	-10.1269
援引	-10.127
照顾	-10.1272
酒吧	-10.128
应力	-10.1282
发送	-10.1284
老人	-10.1284
晒	-10.1287
雄	-10.1287
正如	-10.1289
遇	-10.1293
名单	-10.1299
伪	-10.1305
有机	-10.1308
与其	-10.1309
这座	-10.1312
创意	-10.1313
他将	-10.1314
讨论了	-10.1315
发育	-10.1318
os	-10.1319
吻	-10.1321
所说的	-10.1321
文字	-10.1323
逻辑	-10.1323
坎	-10.1323
威廉	-10.1323
越南	-10.1324
倾	-10.1327
吸引力	-10.1329
150	-10.1334
的要求	-10.1335
疏	-10.1341
才是	-10.1346
割	-10.1348
会被	-10.1348
指定	-10.1351
ec	-10.1355
代价	-10.1355
在他	-10.1355
习	-10.1356
拉斯	-10.1357
鼻	-10.1361
高达	-10.1362
枚	-10.1377
ti	-10.1377
负担	-10.1378
实习	-10.1379
会计	-10.1382
住房	-10.1385
操	-10.1392
An	-10.1392
或者是	-10.1393
金钱	-10.1393
牵	-10.1395
缺陷	-10.1396
核心	-10.1398
睡觉	-10.1399
黑暗	-10.1399
2002	-10.14
成员国	-10.1404
地下	-10.1406
夏天	-10.1406
舒	-10.1406
有利于	-10.1408
本人	-10.1409
一篇	-10.1412
舍	-10.1413
烂	-10.1413
斗争	-10.1414
外部	-10.1414
是一位	-10.1417
ke	-10.1427
男女	-10.1428
爸爸	-10.1431
个小时	-10.1431
慈善	-10.1432
一支	-10.1441
的位置	-10.1444
赌	-10.1445
没有什么	-10.1448
王子	-10.145
冒险	-10.145
对抗	-10.1453
葡萄酒	-10.147
施工	-10.1471
的表现	-10.1474
总部	-10.1475
伙	-10.1479
负面	-10.1484
吐	-10.1486
诸如	-10.1492
危	-10.1492
优先	-10.1493
车辆	-10.1494
汇率	-10.1499
矿业	-10.1503
▁即使	-10.1504
是美国	-10.151
若干	-10.1513
反对派	-10.1513
找出	-10.1515
▁阿	-10.1518
纽	-10.1519
启	-10.152
肩	-10.1523
屈	-10.1523
复杂的	-10.1534
推进	-10.1541
酱	-10.1541
创始人	-10.1541
800	-10.1545
个性	-10.1545
各地	-10.155
析	-10.1552
葡萄	-10.1557
▁"	-10.156
城镇	-10.1564
(1	-10.1565
提供的	-10.1566
▁Co	-10.1567
微博	-10.1572
加速	-10.1574
50%	-10.1579
争论	-10.158
便宜	-10.1585
智能	-10.1587
ab	-10.1588
非常重要	-10.1593
纵	-10.1596
押	-10.1596
」	-10.1596
致力于	-10.1596
总统候选人	-10.1597
65	-10.1611
回归	-10.1625
制裁	-10.1628
▁而且	-10.1634
水果	-10.1639
关节	-10.164
保存	-10.1643
凉	-10.1652
给出	-10.166
星期五	-10.1663
38	-10.1667
如果我们	-10.1668
揭	-10.167
巧	-10.167
翼	-10.1671
博物馆	-10.1671
私营	-10.1686
自杀	-10.1688
歌曲	-10.169
至今	-10.1691
统	-10.1693
▁这一	-10.1701
艺术家	-10.1702
高中	-10.1703
不如	-10.1706
骗	-10.1708
传递	-10.1711
前进	-10.1713
配置	-10.1715
冲击	-10.1715
蓝色	-10.1717
的身体	-10.1718
▁用	-10.1721
色彩	-10.1723
糟	-10.1727
涌	-10.1727
碱	-10.1727
会导致	-10.1727
混乱	-10.173
万美元的	-10.173
选手	-10.173
遍	-10.1733
胺	-10.1746
欣赏	-10.1746
步骤	-10.1747
炸弹	-10.175
ve	-10.1753
也将	-10.1759
过了	-10.176
四年	-10.1762
戒	-10.1762
孕	-10.1763
相同的	-10.1763
友好	-10.1763
洛杉矶	-10.1764
紫	-10.1765
象征	-10.1769
的目的	-10.177
区的	-10.1772
存储	-10.1775
场景	-10.1778
外面	-10.1779
更大的	-10.1782
我可以	-10.1782
烦	-10.1782
役	-10.1783
韩	-10.1783
的行动	-10.1785
一开始	-10.1787
的力量	-10.1789
布朗	-10.179
你们的	-10.1792
激光	-10.1794
书中	-10.1796
滞	-10.1802
展览	-10.1803
始终	-10.1803
克服	-10.1809
随机	-10.1817
虚拟	-10.1822
豪	-10.1826
酒精	-10.1828
工程师	-10.1829
以往	-10.1831
前面	-10.1838
醇	-10.184
聊	-10.1842
却是	-10.1842
透明	-10.1846
CA	-10.1849
开设	-10.1852
见到	-10.1856
蔬菜	-10.1859
复苏	-10.1863
领域的	-10.1864
世界各地	-10.1877
巡	-10.1878
灵魂	-10.1878
尽量	-10.188
强大的	-10.1885
ig	-10.1895
跃	-10.1895
哦	-10.1897
并对	-10.1898
浪漫	-10.1898
背后	-10.1899
失业	-10.1901
对中国	-10.1906
发起	-10.191
弯	-10.1912
区别	-10.1913
我们就	-10.1913
账户	-10.1917
玛丽	-10.1919
局面	-10.1924
克里斯	-10.1927
提出的	-10.1928
在未来	-10.1933
场合	-10.1934
腐	-10.1934
疯	-10.1934
的建议	-10.1937
分析师	-10.1937
勇气	-10.194
在其	-10.1953
喊	-10.1954
一生	-10.1954
忽视	-10.1956
保罗	-10.1958
斯说	-10.1959
盒	-10.197
34	-10.1973
佐	-10.1973
锅	-10.1974
首席	-10.1977
有机会	-10.1977
水泥	-10.1978
47	-10.198
经典	-10.198
IT	-10.1983
机遇	-10.199
时光	-10.1991
破产	-10.1997
的消息	-10.1999
人们对	-10.2002
不知	-10.2004
多么	-10.2005
这么做	-10.2006
BA	-10.2009
不满	-10.2012
柜	-10.2012
自行车	-10.2012
灵活	-10.2026
mg	-10.2029
啦	-10.2031
不确定	-10.2032
层次	-10.2038
为主	-10.204
▁采用	-10.2042
郁	-10.205
志愿者	-10.2051
窃	-10.2051
很大的	-10.2052
旅游业	-10.2053
已经在	-10.2053
补充	-10.2055
不应该	-10.2057
手中	-10.206
设定	-10.2062
附近的	-10.2062
适用于	-10.2063
可以通过	-10.2065
历史上	-10.2066
学者	-10.207
炼	-10.207
仔细	-10.2071
的同时	-10.2073
发电	-10.2077
主义者	-10.2087
泪	-10.2089
敢	-10.2091
你应该	-10.2092
给他们	-10.2099
掉了	-10.2103
试着	-10.2103
产品的	-10.2105
犬	-10.2109
司机	-10.2112
质疑	-10.2117
min	-10.212
暂时	-10.2121
每个人	-10.2122
荡	-10.2123
卡拉	-10.2125
性格	-10.2126
羞	-10.2128
串	-10.2128
诸	-10.2129
辞职	-10.2131
的角度	-10.2132
运作	-10.2132
促使	-10.2132
he	-10.2139
泄	-10.2144
寿命	-10.2148
对他们	-10.2151
▁以	-10.2153
33	-10.2157
将继续	-10.2159
1.5	-10.216
验证	-10.2161
叠	-10.2168
愉快	-10.2168
魅力	-10.2168
▁联合国	-10.2168
走出	-10.2169
作物	-10.2171
籍	-10.2175
女子	-10.2176
形状	-10.2177
文明	-10.2178
干预	-10.2178
的任务	-10.2182
目前正在	-10.2187
II	-10.2187
扫描	-10.2187
气候变化	-10.2189
设计师	-10.2192
董事会	-10.2192
轨道	-10.2192
度过	-10.2194
ot	-10.2196
驱动	-10.2199
的员工	-10.2201
他会	-10.2202
东部	-10.2202
伟大的	-10.2202
就有	-10.2206
至关重要	-10.2207
疼痛	-10.2207
岗位	-10.2208
能否	-10.2208
并未	-10.221
不利	-10.2212
这也是	-10.2213
家伙	-10.2213
本质	-10.2215
远离	-10.2219
农场	-10.222
要做	-10.222
琴	-10.2226
本地	-10.2228
加快	-10.2229
不仅仅是	-10.223
ac	-10.2231
反映	-10.2233
修复	-10.2233
常规	-10.2242
▁我想	-10.2243
引入	-10.2245
哀	-10.2246
苏丹	-10.2248
CO	-10.2252
必要的	-10.2252
织	-10.2253
大桥	-10.2258
小心	-10.2259
AP	-10.2261
go	-10.2261
爱尔兰	-10.2266
DNA	-10.2266
授权	-10.2269
离婚	-10.2272
袭	-10.2279
特色	-10.2281
那儿	-10.2299
▁一位	-10.2303
bo	-10.2306
有一天	-10.2307
英雄	-10.2307
延长	-10.2312
挡	-10.2325
2.5	-10.2328
39	-10.2331
设法	-10.2331
的做法	-10.2335
▁自	-10.2337
尽可能	-10.2338
大鼠	-10.2339
讨	-10.2342
地图	-10.2345
咬	-10.2345
燃烧	-10.2346
参观	-10.235
够	-10.235
地质	-10.2353
明天	-10.2355
尽快	-10.2355
▁如今	-10.236
双边	-10.2363
乏	-10.2364
为你	-10.2367
旅客	-10.2367
简历	-10.2368
抵达	-10.237
美军	-10.2375
更好地	-10.2378
的特点	-10.2382
专利	-10.2386
管道	-10.2394
▁您	-10.2398
上班	-10.2401
碗	-10.2405
到处	-10.2407
癌症	-10.2408
替代	-10.2408
id	-10.2412
up	-10.2412
构造	-10.2413
研究发现	-10.2415
得很	-10.2419
也要	-10.2422
君	-10.2425
你所	-10.2433
储	-10.2439
星期一	-10.2443
流程	-10.2443
家族	-10.2445
喂	-10.2446
场所	-10.2449
短期	-10.2451
电视台	-10.2455
监测	-10.2458
彻	-10.2464
的过程	-10.2467
所做的	-10.2476
有许多	-10.2477
会使	-10.2479
扰	-10.2483
扩张	-10.2487
较低	-10.2488
厨房	-10.2488
Mar	-10.2489
电子邮件	-10.2489
棉	-10.2494
节日	-10.2494
源于	-10.2496
可爱	-10.2497
推荐	-10.2506
计划在	-10.251
2001	-10.2511
So	-10.2512
1/	-10.2518
伟	-10.2523
之下	-10.2524
墓	-10.2527
被迫	-10.2527
ent	-10.2532
的权利	-10.2535
ca	-10.2536
蛋白质	-10.2541
学位	-10.2545
爵	-10.2545
玩具	-10.2545
当选	-10.2547
衰退	-10.2552
以此	-10.2555
分类	-10.2562
奈	-10.2567
布拉	-10.2575
迫使	-10.2581
承受	-10.2584
相应的	-10.2585
个星期	-10.2585
泉	-10.2588
加以	-10.2598
mo	-10.2604
币	-10.2604
猜	-10.2607
氢	-10.2608
互相	-10.2609
英文	-10.2614
估	-10.2618
风暴	-10.262
军人	-10.2624
执政	-10.2626
踢	-10.2629
况	-10.2641
了很多	-10.2643
被认为是	-10.2643
两名	-10.2647
罐	-10.2649
小姐	-10.2652
在巴西	-10.2658
资格	-10.2659
著名	-10.2662
di	-10.2665
暗示	-10.2672
因而	-10.2672
成为了	-10.2681
ver	-10.2682
拓	-10.2689
助理	-10.2691
do	-10.2691
火箭	-10.2692
离子	-10.2696
尼斯	-10.2697
而已	-10.2698
求职者	-10.2706
监	-10.2708
抵押	-10.2711
周日	-10.2714
航线	-10.2717
体内	-10.2723
罚	-10.273
擦	-10.2731
碰	-10.2731
哥伦比亚	-10.2732
巾	-10.2732
故障	-10.2732
的最	-10.2732
证券	-10.2732
IP	-10.2735
代替	-10.2737
言论	-10.2741
援	-10.2743
缓解	-10.2745
国有	-10.2748
希尔	-10.275
裔	-10.2751
糊	-10.2752
盖茨	-10.2754
智能手机	-10.2754
约束	-10.2757
商学院	-10.2762
惨	-10.2773
政权	-10.2776
听起来	-10.2776
好好	-10.2777
丰富的	-10.2777
近期	-10.2778
旁边	-10.2778
带来了	-10.2778
近年来	-10.2778
的儿子	-10.2787
的增长	-10.2788
30%	-10.2789
先进	-10.2791
耶稣	-10.2794
绳	-10.2794
都很	-10.28
运营商	-10.28
AD	-10.2806
研究者	-10.2806
产生了	-10.2808
参加了	-10.2811
高管	-10.2814
嘉	-10.2815
抹	-10.2815
系数	-10.2815
发展中国家	-10.2816
引起的	-10.2822
及时	-10.2823
两次	-10.2831
葡语国家	-10.2836
惊讶	-10.2836
▁你可以	-10.2837
但它	-10.2837
的一切	-10.2837
这也	-10.2839
的重要性	-10.2841
黑人	-10.2843
家公司	-10.2847
这样一个	-10.2848
完成了	-10.285
_2	-10.2858
分歧	-10.2859
活跃	-10.2859
使你	-10.2862
的平均	-10.2863
岩石	-10.2865
淋	-10.2878
住宅	-10.2882
董事长	-10.2883
这名	-10.2887
最为	-10.2888
已经有	-10.2891
转向	-10.2893
女王	-10.2896
欣	-10.2898
数十	-10.2899
兔	-10.2899
注射	-10.29
犹太	-10.2901
沃尔	-10.2905
受益	-10.2905
国王	-10.2907
调节	-10.2909
给我们	-10.2918
▁葡萄牙里斯本	-10.292
引擎	-10.292
昨天	-10.292
式的	-10.2921
瑞士	-10.2925
他认为	-10.2934
使他	-10.2935
劲	-10.2938
赞	-10.2939
交给	-10.2939
俩	-10.2941
明显的	-10.2944
ni	-10.2945
提议	-10.2947
心情	-10.2949
臂	-10.2949
就开始	-10.2952
冬	-10.2952
心里	-10.2956
变成了	-10.2958
变得更	-10.2958
祖	-10.296
参议院	-10.2962
消耗	-10.2964
但是他	-10.2964
逐步	-10.2965
的那样	-10.2965
不了	-10.2966
通过对	-10.2967
的调查	-10.2969
拿出	-10.2971
周六	-10.2975
认识到	-10.2978
海军	-10.2978
AT	-10.2982
霉	-10.2983
舌	-10.2983
唤	-10.2983
克拉	-10.2984
检验	-10.2984
此时	-10.2986
盆	-10.2993
700	-10.2994
的高	-10.3003
讨厌	-10.3005
颗粒	-10.3006
和美国	-10.3012
团结	-10.3014
围绕	-10.3024
把我	-10.3024
垂	-10.3024
怜	-10.3026
毕竟	-10.3026
也就是说	-10.3032
为何	-10.3035
AR	-10.3037
千万	-10.304
的法律	-10.3041
改造	-10.3046
屏	-10.3047
桃	-10.3047
叹	-10.3047
遵守	-10.3048
大楼	-10.3049
年轻的	-10.3066
在安哥拉	-10.3067
辐射	-10.3069
一款	-10.3071
零售	-10.3073
味道	-10.3078
的成功	-10.3078
在网上	-10.3082
ard	-10.3084
随时	-10.309
种类	-10.309
丙	-10.309
对我们	-10.3099
art	-10.3101
阅	-10.3102
审判	-10.3108
有利	-10.311
忧	-10.3111
芽	-10.3112
挺	-10.3112
认知	-10.3116
本国	-10.3116
他就	-10.3122
世界上最	-10.3122
小鼠	-10.313
跟踪	-10.3134
航天	-10.3135
桌子	-10.3136
广播	-10.3136
ho	-10.3138
将军	-10.3142
投资银行	-10.3142
竞	-10.3146
这一切	-10.3148
因子	-10.3148
奏	-10.3151
罩	-10.3155
苯	-10.3155
斯顿	-10.3159
案件	-10.3159
立刻	-10.316
之际	-10.3162
世界银行	-10.3167
挥	-10.3168
物体	-10.3168
返	-10.3174
脊	-10.3177
边境	-10.3193
了他的	-10.3195
在此间称	-10.3197
逼	-10.3198
煤炭	-10.3199
准备好	-10.3204
回顾	-10.3205
天然	-10.3208
PC	-10.3212
精确	-10.3218
为期	-10.3219
摘	-10.322
聚集	-10.3225
的水	-10.3233
毕	-10.3238
还包括	-10.3239
子女	-10.3239
痕	-10.3242
融资	-10.3243
突破	-10.3244
钢铁	-10.3245
但他们	-10.3246
没什么	-10.3246
不愿意	-10.3247
找到了	-10.3251
究	-10.3263
赏	-10.3263
铃	-10.3264
舱	-10.3264
谴责	-10.3264
氮	-10.3264
尺寸	-10.3264
日期	-10.3266
吸烟	-10.3267
oo	-10.3267
主体	-10.327
缺少	-10.3271
调查显示	-10.3273
实现了	-10.3278
险	-10.3278
实用	-10.328
逝	-10.3286
昏	-10.3286
艾滋病	-10.3286
揭示	-10.3287
仅仅是	-10.3288
听说	-10.3289
乐队	-10.3293
心脏	-10.3293
际	-10.3294
仍在	-10.3301
be	-10.3303
键	-10.3304
谨慎	-10.3307
郎	-10.3307
克里	-10.3313
舞台	-10.3314
ran	-10.3314
基督	-10.3314
输出	-10.3315
一定会	-10.3317
44	-10.3318
我很	-10.3318
一番	-10.3319
顺利	-10.3321
职场	-10.3325
搜	-10.3327
奋	-10.3328
抚	-10.3329
槽	-10.3329
经历了	-10.3331
视觉	-10.3338
政党	-10.3342
但却	-10.3346
制成	-10.3347
头脑	-10.3349
瘤	-10.3351
蒸	-10.3351
鸣	-10.3351
抵	-10.3353
制品	-10.3353
简直	-10.3358
进化	-10.3361
义务	-10.3362
血清	-10.3363
的部分	-10.3363
交谈	-10.3364
两者	-10.3367
军方	-10.3371
泳	-10.3372
掩	-10.3372
艇	-10.3374
僵	-10.3374
贫穷	-10.3374
开了	-10.3374
将成为	-10.3377
花了	-10.338
要想	-10.3382
首相	-10.3382
的价值	-10.3385
由此	-10.3387
部署	-10.3389
原料	-10.3391
忠	-10.3392
笼	-10.3396
本书	-10.3399
求职	-10.3399
ag	-10.3425
如同	-10.3426
趣	-10.3427
作业	-10.3431
书籍	-10.3432
玉	-10.3436
帐	-10.3438
册	-10.3439
蛇	-10.344
您可以	-10.3445
ine	-10.3447
一切都	-10.3447
成为一个	-10.3448
五个	-10.3449
▁这里	-10.345
恶化	-10.345
曾在	-10.3452
▁也许	-10.3453
”、“	-10.3453
AS	-10.3456
85	-10.3458
酮	-10.3462
);	-10.3463
神秘	-10.3464
单独	-10.3467
国际社会	-10.347
▁安哥拉	-10.347
SA	-10.3471
路线	-10.3472
的经历	-10.3474
no	-10.3475
MA	-10.3477
区块	-10.3479
相当于	-10.3481
多年来	-10.3481
社会主义	-10.3482
躲	-10.3485
Sonangol	-10.3485
狼	-10.3485
SO	-10.3485
你就会	-10.349
深度	-10.3491
ak	-10.3491
环保	-10.3492
文本	-10.3498
聚会	-10.3498
的最佳	-10.35
剩	-10.3502
非洲国家	-10.3502
高效	-10.3502
基本上	-10.3503
使其	-10.3505
奉	-10.3507
斜	-10.3507
惜	-10.3507
走进	-10.3509
竞争对手	-10.3509
成年人	-10.351
拍卖	-10.3512
但是我	-10.3513
克莱	-10.3518
合金	-10.3522
趋	-10.3528
酯	-10.3529
莓	-10.3529
杀死	-10.3529
15%	-10.3532
退出	-10.3533
标记	-10.3544
恐怖主义	-10.3544
稳定性	-10.3545
过渡	-10.3548
因为你	-10.3548
提高了	-10.3551
耀	-10.3552
国务卿	-10.3552
协助	-10.3553
危害	-10.3553
震惊	-10.3557
分解	-10.3559
也很	-10.356
多次	-10.3562
结果显示	-10.3563
单身	-10.357
的父母	-10.3573
使用的	-10.3573
膏	-10.3575
肥胖	-10.3575
消化	-10.3575
合适的	-10.3575
和其它	-10.3577
的一位	-10.3578
清理	-10.3588
▁-	-10.3593
苗	-10.3597
μ	-10.3597
什么样的	-10.3599
帽	-10.36
升高	-10.3601
PS	-10.3604
一面	-10.3606
命运	-10.361
脸上	-10.361
床上	-10.3614
理性	-10.3617
看到了	-10.3617
有效地	-10.3617
88	-10.3617
英格兰	-10.362
人力资源	-10.362
之内	-10.3625
就不会	-10.3626
55	-10.363
融合	-10.3632
增长了	-10.3634
ga	-10.3635
宣称	-10.3635
比尔	-10.3639
通常是	-10.364
陪	-10.3641
星期四	-10.3643
优惠	-10.3644
雇员	-10.3658
有益	-10.3659
出色	-10.3662
三分之一	-10.3665
有必要	-10.3666
生气	-10.3666
va	-10.3668
审查	-10.3668
丧生	-10.3669
共享	-10.3669
孤	-10.3685
失去了	-10.3685
辅	-10.3687
泛	-10.3687
鸭	-10.3688
逮捕	-10.3688
早晨	-10.369
赌场	-10.3694
引导	-10.3694
拆	-10.3696
播放	-10.3696
握	-10.3699
距	-10.3703
很高	-10.3705
本来	-10.3707
监狱	-10.3711
想想	-10.3713
符	-10.3714
太太	-10.3714
涉	-10.3717
甚至是	-10.3717
遭	-10.3721
倾向于	-10.3722
因为我们	-10.3725
勇	-10.3728
科学家们	-10.373
般的	-10.3732
滋	-10.3733
抬	-10.3734
我们希望	-10.3735
椅	-10.3737
的概念	-10.3739
▁无论	-10.3741
穿过	-10.3745
的说法	-10.3746
占据	-10.3746
但我们	-10.3753
假期	-10.3754
如果我	-10.3755
的作品	-10.3757
孤独	-10.3757
环境中	-10.3772
仿	-10.3774
研	-10.3775
渐	-10.3778
纱	-10.3779
受害者	-10.3779
瘦	-10.3779
缓慢	-10.3781
传输	-10.3784
下滑	-10.3784
会晤	-10.3788
知名	-10.3789
部位	-10.379
一个小	-10.3791
该行	-10.3795
所有这些	-10.3797
世界杯	-10.3797
留在	-10.3797
上个月	-10.3801
驾	-10.3802
好莱坞	-10.3803
报告称	-10.3807
是谁	-10.3809
拿到	-10.381
网站上	-10.3812
查看	-10.3815
阳性	-10.3818
肢	-10.3819
朋友们	-10.3821
斥	-10.3826
迈克尔	-10.3826
午餐	-10.3828
也就	-10.3828
沉积	-10.3829
生理	-10.3833
季节	-10.3839
什么时候	-10.3842
MP	-10.3847
沮丧	-10.3849
皱	-10.3849
氯	-10.3849
扑	-10.3849
(2	-10.3849
百分之	-10.3849
血压	-10.3849
储备	-10.385
减肥	-10.3852
罗斯	-10.386
应该是	-10.3861
做法	-10.3862
对外	-10.3864
长大	-10.3871
监控	-10.3873
另一种	-10.3878
超越	-10.3883
高速	-10.3885
配合	-10.3886
Br	-10.3886
1.2	-10.3887
巨头	-10.3892
泡沫	-10.3895
敦促	-10.3896
普京	-10.3897
办公	-10.3897
强大	-10.3898
极其	-10.3898
这本书	-10.3898
46	-10.3909
布鲁	-10.3911
忽略	-10.3919
给自己	-10.3925
所谓	-10.3932
种子	-10.3934
耗资	-10.3941
在英国	-10.3941
大西洋	-10.3942
柯	-10.3942
早餐	-10.396
这张	-10.396
摸	-10.3965
主张	-10.3965
兑	-10.3965
巢	-10.3965
惩罚	-10.3965
考察	-10.3967
年间	-10.3967
名叫	-10.3973
帮你	-10.3973
长度	-10.3975
这个词	-10.3979
赢得了	-10.398
申	-10.3981
美洲	-10.3982
所以我	-10.3982
里斯本	-10.3989
很快就	-10.3989
素质	-10.3993
刊	-10.3993
就算	-10.3994
消极	-10.3996
当今	-10.4
这家公司	-10.4002
阶	-10.4005
49	-10.4008
最新的	-10.401
巧克力	-10.4012
疫苗	-10.4013
福利	-10.4016
特殊的	-10.4019
响应	-10.4028
这些问题	-10.4028
kg	-10.403
募	-10.4036
牺牲	-10.4036
帝国	-10.4037
列表	-10.4039
下载	-10.404
Jo	-10.4044
▁the	-10.4046
一组	-10.4048
眼镜	-10.4055
赤	-10.4058
坝	-10.406
询问	-10.4061
ner	-10.4065
让她	-10.4066
要比	-10.4067
▁他的	-10.4076
认可	-10.4076
教练	-10.408
津	-10.4082
锐	-10.4083
雌	-10.4083
凶	-10.4083
畏	-10.4083
上世纪	-10.4085
国际货币基金组织	-10.4086
斯塔	-10.4091
治理	-10.4092
升级	-10.4094
作了	-10.4095
大气	-10.4096
短语	-10.4101
誓	-10.4107
纷纷	-10.4107
支撑	-10.4108
夫妻	-10.4108
差距	-10.4109
违反	-10.4109
财团	-10.411
激情	-10.4113
超过了	-10.4114
第二个	-10.4124
享	-10.4127
做的事情	-10.4127
猴	-10.4131
期限	-10.4131
勇敢	-10.4131
邻居	-10.4133
目的地	-10.4133
美国政府	-10.4135
公正	-10.4142
76	-10.4143
一道	-10.4153
辉	-10.4155
友谊	-10.4155
宠物	-10.4157
学到	-10.416
实质	-10.416
重量	-10.4163
星期三	-10.4163
ber	-10.4163
每天都	-10.4164
的父亲	-10.4167
中文	-10.417
柏	-10.4176
协	-10.418
推迟	-10.4181
卡车	-10.4184
疗效	-10.4187
电路	-10.4187
花园	-10.4188
的核心	-10.4189
物种	-10.4191
研制	-10.4192
生产商	-10.4192
室内	-10.4194
做得	-10.4195
携带	-10.4197
星期天	-10.4198
鹿	-10.4203
竭	-10.4203
不见	-10.4203
衡量	-10.4207
这种情况	-10.4211
幅度	-10.4223
这笔	-10.4224
挖	-10.4226
懒	-10.4227
煮	-10.4227
吴	-10.4227
挪威	-10.4227
件事	-10.4228
队伍	-10.4232
致命	-10.4235
动机	-10.4236
使他们	-10.4239
那位	-10.424
住了	-10.4241
主意	-10.4244
第二天	-10.4244
发动机	-10.4245
2014	-10.4246
登记	-10.4247
满了	-10.4249
有能力	-10.425
幽默	-10.4251
放到	-10.4257
字母	-10.4258
和谐	-10.4267
The	-10.4268
已被	-10.427
晨	-10.4272
制备	-10.4273
加上	-10.4274
驳	-10.4275
蛋糕	-10.4275
唯一的	-10.4275
独特的	-10.4277
圣诞节	-10.4278
官员说	-10.4281
老鼠	-10.4282
80%	-10.4286
这儿	-10.4288
ack	-10.4298
仔	-10.4298
美丽的	-10.4299
仇	-10.4299
宇	-10.4299
稿	-10.4299
的经验	-10.4303
参与者	-10.4304
数百	-10.4308
企	-10.4317
海上	-10.432
醉	-10.4323
矩	-10.4323
髓	-10.4323
砖	-10.4323
鲸	-10.4323
毯	-10.4323
去世	-10.4325
采取行动	-10.4335
all	-10.4338
物流	-10.4339
竞争力	-10.4343
一个新的	-10.4347
婆	-10.4348
同性恋	-10.4348
两天	-10.4348
昂贵	-10.435
研发	-10.4356
我们已经	-10.4369
IC	-10.4372
屠	-10.4372
视为	-10.4373
使我们	-10.4374
分散	-10.4376
彼得	-10.4376
三种	-10.438
餐馆	-10.438
Ma	-10.4386
尊	-10.4388
革	-10.4391
框	-10.4395
筒	-10.4397
妆	-10.4397
阻碍	-10.4397
层面	-10.4399
染色	-10.4402
Li	-10.4403
信用卡	-10.4404
其他国家	-10.4406
手指	-10.4406
打印	-10.4411
庞大	-10.4416
属性	-10.4419
漂	-10.442
挑选	-10.4425
偶尔	-10.4429
讲述	-10.4431
飞往	-10.4431
开车	-10.4434
sa	-10.4439
ST	-10.444
1-	-10.444
厌	-10.4441
沟	-10.4443
扇	-10.4446
扶	-10.4446
有没有	-10.4449
便是	-10.4449
下一个	-10.4451
行星	-10.4462
安静	-10.4465
抑	-10.4465
哪个	-10.4467
匹	-10.4468
眠	-10.4469
薪酬	-10.447
一个月	-10.4471
舒服	-10.4472
提示	-10.4477
入侵	-10.4478
火山	-10.4479
食用	-10.4485
没人	-10.4487
约为	-10.4489
济	-10.4491
崇	-10.4494
潘	-10.4495
混凝土	-10.4495
ex	-10.4496
的样子	-10.4498
每日	-10.4503
焦点	-10.4506
前提	-10.4512
长达	-10.4512
州长	-10.4512
德尔	-10.452
牛奶	-10.4524
沿着	-10.4524
---	-10.4526
送到	-10.4529
修正	-10.4534
歌手	-10.4535
合理的	-10.4538
向前	-10.4539
优点	-10.4543
聘	-10.4543
弊	-10.4544
遮	-10.4544
反馈	-10.4545
无疑	-10.4546
索马里	-10.4547
企图	-10.4548
250	-10.4549
Si	-10.4551
的意思	-10.4568
惯	-10.4569
攀	-10.4569
动画	-10.457
叛军	-10.4572
仿真	-10.4573
地理	-10.458
坚定	-10.4582
旗下	-10.4582
进了	-10.4584
欧元	-10.4587
集中在	-10.4589
螺	-10.4594
蓄	-10.4594
钉	-10.4594
哈马斯	-10.4594
iPad	-10.4594
富裕	-10.4595
气体	-10.4595
健身	-10.46
牛肉	-10.4603
最多的	-10.4603
尔斯	-10.4606
如果你想	-10.4609
已经开始	-10.4611
每月	-10.4611
恼	-10.4619
窝	-10.4619
芳	-10.4619
究竟	-10.462
脱离	-10.462
继承	-10.4621
渡	-10.4624
MS	-10.4625
么	-10.4631
▁研究人员	-10.4632
演出	-10.4634
川	-10.4641
为止	-10.4643
隙	-10.4644
成千上万	-10.4644
Ro	-10.4647
戏剧	-10.4648
中部	-10.4649
那天	-10.4649
街道	-10.465
盈利	-10.4653
担	-10.4666
坛	-10.4668
美国经济	-10.4669
平静	-10.4669
平民	-10.4671
Co	-10.4672
病例	-10.4675
案例	-10.468
最多	-10.469
尺	-10.4693
Le	-10.4695
积累	-10.4696
纳米	-10.4699
原始	-10.4699
南方	-10.4699
唯	-10.4704
吃饭	-10.4704
受到了	-10.4712
个体	-10.4716
桩	-10.472
摊	-10.472
阀	-10.472
虾	-10.472
腐蚀	-10.472
赋予	-10.4721
确	-10.4729
躺在	-10.4731
激发	-10.4731
hi	-10.4733
地址	-10.4736
无线	-10.4739
广州	-10.4742
▁正如	-10.4742
疲	-10.4744
些什么	-10.4744
实力	-10.4746
从来没有	-10.4748
紧密	-10.4754
修建	-10.476
诸多	-10.4762
一台	-10.4763
ap	-10.4766
附加	-10.4768
3000	-10.4769
不受	-10.477
生日	-10.477
泊	-10.4771
<0.05	-10.4771
榄	-10.4771
差不多	-10.4771
奖励	-10.4771
共和国	-10.4771
倾向	-10.4773
汤姆	-10.4778
进而	-10.4782
聊天	-10.4782
ee	-10.4783
必然	-10.4786
鼻子	-10.4793
丛	-10.4796
选票	-10.48
0.5	-10.48
ci	-10.48
探讨了	-10.4805
船只	-10.4812
同情	-10.4812
我喜欢	-10.4815
授	-10.4816
很高兴	-10.4819
实例	-10.4821
CEO	-10.4822
激动	-10.4824
改变了	-10.4827
核武器	-10.4829
已成为	-10.4831
也可能	-10.4831
po	-10.4833
销量	-10.4833
通道	-10.4837
想知道	-10.4838
感激	-10.4839
生育	-10.4843
椎	-10.4847
珊	-10.4847
不清楚	-10.4849
比赛中	-10.485
招标	-10.4853
苏联	-10.4854
忍受	-10.4857
局部	-10.4859
解决问题	-10.487
阐述了	-10.4872
汗	-10.4873
在今年	-10.4876
典型	-10.4878
高层	-10.4882
排除	-10.4889
赖斯	-10.489
序列	-10.4892
本月	-10.4892
所能	-10.4893
呀	-10.4898
姑娘	-10.4899
最小	-10.4901
一把	-10.4901
三星	-10.4905
心脏病	-10.4907
一杯	-10.492
Na	-10.4922
臭	-10.4924
▁巴西圣保罗	-10.4925
合并	-10.4925
不像	-10.4925
来自于	-10.4927
界面	-10.4929
愿望	-10.4929
mp	-10.4939
短信	-10.494
觉得自己	-10.494
许可	-10.4946
橄	-10.495
25%	-10.4951
寻常	-10.4953
把这些	-10.4956
古代	-10.4963
亿澳门元	-10.4976
拯救	-10.4976
苏格兰	-10.4976
芝加哥	-10.4976
乡村	-10.4977
希望能	-10.4978
▁介绍了	-10.4985
64	-10.4985
堪	-10.4996
毫不	-10.4998
妈	-10.5001
所有人	-10.5004
欧元区	-10.5009
上司	-10.501
发表了	-10.5012
42	-10.5012
在他的	-10.5014
au	-10.5017
黄色	-10.5021
分裂	-10.5023
达到了	-10.5025
鹅	-10.5028
的母亲	-10.503
职责	-10.503
就业机会	-10.5032
波特	-10.5032
热带	-10.5033
票房	-10.5038
反复	-10.5043
±	-10.5044
旋转	-10.5047
适用	-10.5051
畜	-10.5054
慕	-10.5054
欺骗	-10.5054
示威	-10.5056
名人	-10.5056
乐趣	-10.5056
典型的	-10.5058
在伦敦	-10.5059
报导	-10.506
是一名	-10.5065
走到	-10.5066
形容	-10.5074
弹性	-10.5078
概	-10.5078
丘	-10.508
塔利班	-10.508
彭	-10.508
熔	-10.508
放射性	-10.508
道歉	-10.5082
圣保罗	-10.5082
one	-10.5084
公式	-10.509
暴露	-10.5095
ut	-10.5097
骄傲	-10.5107
裸	-10.5107
起到	-10.511
把它们	-10.5113
主持	-10.5114
那么你	-10.5118
天空	-10.5121
权威	-10.5121
巴拉克	-10.5125
独自	-10.5125
标签	-10.5132
所需的	-10.5133
补偿	-10.5134
列出	-10.5136
护理	-10.5137
明智	-10.5141
加大	-10.5142
府	-10.5158
ER	-10.5158
模块	-10.5164
外交部	-10.5168
死于	-10.5182
游行	-10.5182
新兴	-10.5184
一所	-10.5185
着手	-10.5185
到目前为止	-10.5186
奥运	-10.519
搭配	-10.5196
无数	-10.5196
经济学	-10.5197
雇	-10.5206
清除	-10.5206
的眼睛	-10.5207
年增长	-10.5211
圣多美和普林西比	-10.5212
筋	-10.5212
契	-10.5212
希拉里	-10.5212
初选	-10.5215
存在着	-10.5217
当作	-10.5219
生物学	-10.5219
广场	-10.5226
当代	-10.5227
码头	-10.5237
畅	-10.5238
大坝	-10.5238
莫斯科	-10.5239
变革	-10.524
一件事	-10.5241
恐怖分子	-10.5241
几十年	-10.5244
产物	-10.5244
想起	-10.5244
更快	-10.5247
发现自己	-10.5251
靠近	-10.5251
美丽	-10.5259
教会	-10.5259
相机	-10.526
主导	-10.526
不敢	-10.5263
粮	-10.5263
稻	-10.5265
喻	-10.5266
汀	-10.5266
吊	-10.5266
崩溃	-10.5266
我相信	-10.5276
收获	-10.5278
仅有	-10.5281
io	-10.5286
绑	-10.5291
一度	-10.5292
发达国家	-10.5292
建立一个	-10.5296
洪	-10.5308
分析人士	-10.5317
钙	-10.5319
雇佣	-10.5319
追踪	-10.5319
激进分子	-10.532
密码	-10.5324
干净	-10.5325
大胆	-10.5326
▁Ma	-10.5339
另外一个	-10.5343
大声	-10.5343
只需	-10.5343
纠	-10.5346
堵	-10.5346
频繁	-10.5347
复制	-10.5352
偶	-10.5355
偿	-10.5361
进来	-10.5364
举动	-10.5365
马丁	-10.5366
祭	-10.5373
总会	-10.5375
旦	-10.5378
文档	-10.5381
可以帮助	-10.5385
梯	-10.5393
硫	-10.5398
毫	-10.5399
骂	-10.54
秩序	-10.54
情形	-10.5401
柴油	-10.5402
保健	-10.5404
即使是	-10.5404
十二	-10.5406
薪水	-10.5409
镜头	-10.541
互动	-10.5411
大国	-10.5413
120	-10.5428
倾听	-10.5431
喜剧	-10.5432
告知	-10.5435
部件	-10.5437
力学	-10.5437
60%	-10.5443
女生	-10.5453
可见	-10.5454
闷	-10.5454
帅	-10.5454
交往	-10.5462
中国经济	-10.5463
硬件	-10.5463
5000	-10.5465
无关	-10.5468
ang	-10.5471
单元	-10.5472
恋爱	-10.5473
万桶	-10.5476
烹	-10.5481
已经成为	-10.5485
业绩	-10.5488
▁上周	-10.5492
页面	-10.5499
被视为	-10.5505
卑	-10.5509
坠	-10.5509
机理	-10.5509
其余	-10.551
阶级	-10.5511
观测	-10.5512
隐藏	-10.5513
街上	-10.5515
心灵	-10.5516
语法	-10.552
剂量	-10.5521
反射	-10.5523
心中	-10.5524
在伊拉克	-10.5526
术后	-10.5528
回复	-10.5529
客观	-10.5529
种种	-10.5531
福特	-10.5531
时间来	-10.5532
犹	-10.5533
月底	-10.5533
报道称	-10.5535
悔	-10.5536
人死亡	-10.5538
签证	-10.554
尸体	-10.5542
把他们	-10.5542
订单	-10.5544
各方	-10.5545
艘	-10.5547
平面	-10.5547
在家里	-10.5554
家具	-10.556
胞	-10.5562
装备	-10.5563
卸	-10.5564
众议院	-10.5564
美联储	-10.5564
α	-10.5564
詹姆斯	-10.5564
舞蹈	-10.5564
β	-10.5564
周年	-10.5567
op	-10.5572
引用	-10.5573
三维	-10.5577
der	-10.5578
99	-10.5579
行李	-10.5579
凯特	-10.5584
见面	-10.5584
的话说	-10.5585
一颗	-10.5588
主权	-10.5591
传感器	-10.5591
首席执行官	-10.5591
印刷	-10.5593
结束了	-10.5596
去看	-10.56
诚实	-10.5601
这点	-10.5604
CT	-10.5614
为基础	-10.5614
▁与此同时	-10.5616
虽	-10.5617
肖	-10.5619
防御	-10.562
将近	-10.562
线性	-10.5624
宝宝	-10.5625
既然	-10.5627
ip	-10.5632
劳动力	-10.5636
Fe	-10.5639
拥	-10.5642
详	-10.5645
阔	-10.5646
摄影	-10.5646
打造	-10.5648
匹配	-10.5649
情节	-10.5652
图形	-10.5655
建成	-10.566
协商	-10.5661
共和党人	-10.5664
抑郁	-10.5664
解释说	-10.5669
法规	-10.567
根本不	-10.5671
磅	-10.5674
马来西亚	-10.5674
太平洋	-10.5674
应用于	-10.5675
ton	-10.5675
丧失	-10.5676
实时	-10.5681
烟草	-10.5684
极为	-10.5684
我们应该	-10.5689
三十	-10.5693
进去	-10.57
集体	-10.57
狱	-10.5702
路易斯	-10.5702
歧视	-10.5703
上学	-10.5704
级别	-10.5713
你是否	-10.5713
不幸	-10.572
画面	-10.5722
比如说	-10.5727
派对	-10.5727
辈	-10.573
史密斯	-10.573
<0.01	-10.573
礼貌	-10.5732
扩散	-10.5734
豪华	-10.5734
区分	-10.5737
pe	-10.5742
地铁	-10.5744
几种	-10.5746
发言	-10.5751
CP	-10.5753
接收	-10.5754
警告说	-10.576
怀孕	-10.576
某一	-10.5763
很久	-10.5767
疗	-10.5768
岁时	-10.5771
效益	-10.5774
大豆	-10.5779
遥	-10.5784
丑	-10.5785
劝	-10.5786
遗憾	-10.5786
音译	-10.5791
庭	-10.5791
信念	-10.5794
研究显示	-10.5796
见过	-10.5799
这不是	-10.5802
▁通过对	-10.5804
当天	-10.5809
肤	-10.5811
卡尔	-10.5812
宏	-10.5812
▁他还	-10.5813
鹰	-10.5814
棕	-10.5814
错过	-10.5817
ate	-10.5819
客人	-10.5831
一方面	-10.5831
京	-10.5834
较为	-10.5835
这么多	-10.5836
年初	-10.5838
铸	-10.5843
单一	-10.5843
侵犯	-10.5844
ation	-10.5847
感觉到	-10.5848
难题	-10.5849
必须要	-10.5851
万人次	-10.5852
络	-10.5869
造成了	-10.5869
Cl	-10.587
国内生产总值	-10.5871
穴	-10.5871
泵	-10.5871
耕	-10.5871
座位	-10.5872
模仿	-10.5872
凭借	-10.5872
古老的	-10.5873
影响到	-10.5873
节奏	-10.5874
隐私	-10.5874
90%	-10.5883
70%	-10.5883
我们现在	-10.5884
刑事	-10.5886
自主	-10.5889
est	-10.589
解放	-10.5897
此举	-10.5899
72	-10.59
颗	-10.5902
强劲	-10.5903
温暖	-10.5903
决赛	-10.5905
IS	-10.5913
年同期	-10.5914
ly	-10.5916
节省	-10.5921
弥	-10.5927
一会儿	-10.5928
擅长	-10.593
课堂	-10.593
全球经济	-10.5931
审计	-10.5933
表情	-10.5937
贸	-10.5945
cm	-10.595
仓	-10.595
其中一个	-10.5952
箭	-10.5954
男士	-10.5954
练	-10.5959
溶液	-10.596
用品	-10.596
亿元	-10.5971
外界	-10.5971
亲密	-10.5977
pp	-10.5977
太阳能	-10.5978
容量	-10.5983
陶	-10.5985
廷	-10.5985
缸	-10.5985
称之为	-10.5986
过多	-10.5987
面向	-10.5987
杰克	-10.5989
协定	-10.5991
内阁	-10.5992
相处	-10.5993
探测	-10.5994
偿还	-10.5996
鸟类	-10.5996
电力公司	-10.5997
Bo	-10.5998
供应商	-10.6002
面临着	-10.6003
样品	-10.6003
给她	-10.6012
感受到	-10.6012
脆	-10.6013
患有	-10.6013
亚马逊	-10.6014
职业生涯	-10.6015
ob	-10.6017
紧缩	-10.6017
两周	-10.6017
大家都	-10.6018
通货膨胀	-10.6022
采购	-10.6024
之类的	-10.6031
激素	-10.6036
成人	-10.6041
永久	-10.6044
这项研究	-10.6046
任命	-10.605
移植	-10.6055
衡	-10.6056
获胜	-10.6058
也不是	-10.6064
民主党人	-10.6066
强化	-10.6084
原本	-10.6084
抗议者	-10.6086
该组织	-10.6094
失业率	-10.6095
会见	-10.61
唇	-10.61
剑	-10.61
爱好	-10.61
深圳	-10.61
嫁	-10.61
ick	-10.6103
定期	-10.6112
但如果	-10.6114
都市	-10.6116
总计	-10.6119
以至于	-10.613
古巴	-10.6131
教训	-10.6131
网友	-10.6147
同步	-10.6153
原油	-10.6157
眉	-10.6159
漆	-10.6159
很明显	-10.6162
汽油	-10.6166
▁Re	-10.6167
制造业	-10.6169
数值	-10.617
番	-10.6172
秘	-10.618
摄	-10.6181
68	-10.6184
罢	-10.6185
磷	-10.6186
发放	-10.6187
轰	-10.6188
韧	-10.6188
严厉	-10.6188
演奏	-10.619
击败	-10.6192
鉴于	-10.6198
告诉我们	-10.6201
整理	-10.6204
能让你	-10.6207
等级	-10.6212
雷斯	-10.6215
高峰	-10.6216
凸	-10.6217
毫无疑问	-10.6218
空军	-10.623
买了	-10.6233
无限	-10.6236
悠	-10.6247
饥饿	-10.6247
辅助	-10.6248
初期	-10.6249
反而	-10.625
价值观	-10.6251
基地组织	-10.6256
廉价	-10.6256
一笔	-10.6259
动力学	-10.6267
也许会	-10.627
气氛	-10.6271
澳	-10.6272
第五	-10.6273
蓬	-10.6276
受访者	-10.6276
占有	-10.6278
Ar	-10.6282
己	-10.6299
rt	-10.63
奎	-10.6306
殖民	-10.6306
个百分点	-10.6306
渠道	-10.6307
股权	-10.6308
股价	-10.6318
命名	-10.6326
职员	-10.6334
证明了	-10.6335
焊	-10.6336
同比增长	-10.6336
干燥	-10.6336
拖延	-10.6337
看待	-10.6337
心理学	-10.634
补充道	-10.6343
电流	-10.6344
玩家	-10.6355
星期六	-10.6356
ai	-10.6358
耐心	-10.6358
厨	-10.6362
对付	-10.6362
朵	-10.6364
渐渐	-10.6366
瞬间	-10.6368
队员	-10.6368
让人们	-10.6368
指挥	-10.6369
伟大	-10.6377
远程	-10.6378
▁中国澳门	-10.6378
出口额	-10.638
To	-10.6381
精度	-10.639
异性	-10.6392
慈	-10.6394
超出	-10.6394
仙	-10.6395
芒	-10.6395
阿根廷	-10.6395
侦	-10.6395
缴	-10.6395
挖掘	-10.6395
多样性	-10.6395
主角	-10.6396
邻国	-10.6396
亲爱的	-10.6397
诞生	-10.6398
议题	-10.6398
大批	-10.6398
终止	-10.6399
鉴定	-10.6399
履行	-10.64
ph	-10.6401
提案	-10.6406
必需	-10.6417
年底	-10.6422
储存	-10.6424
尔顿	-10.6426
困扰	-10.6426
麻醉	-10.6426
脆弱	-10.6426
持久	-10.6428
赛季	-10.6432
外国人	-10.6438
创造了	-10.6439
几周	-10.6444
停留	-10.6447
回收	-10.6449
滨	-10.6455
乔布斯	-10.6455
竹	-10.6455
愚蠢	-10.6455
与此同时	-10.6458
海滩	-10.6458
对照	-10.6459
国内外	-10.646
存款	-10.6463
听众	-10.6464
削	-10.6466
Am	-10.6469
难道	-10.6471
运转	-10.648
目录	-10.648
秘书	-10.6481
学科	-10.6483
挣	-10.6484
石头	-10.6484
喉	-10.6485
公顷	-10.6485
专辑	-10.6486
瑞典	-10.6488
北极	-10.6491
急性	-10.6491
文献	-10.6492
放大	-10.6496
好奇	-10.6497
解除	-10.6499
恰	-10.6503
塑造	-10.6515
三角	-10.6517
成功地	-10.6523
第二大	-10.6525
目光	-10.6542
波动	-10.6544
缺点	-10.6545
坑	-10.6546
逛	-10.6546
同一个	-10.6548
DA	-10.6564
大城市	-10.657
小麦	-10.6572
渔	-10.6573
分数	-10.6575
爽	-10.6576
赔偿	-10.6576
皇家	-10.6586
认同	-10.6587
DS	-10.6593
也不能	-10.6594
EC	-10.6594
董事	-10.6595
街头	-10.66
不住	-10.6602
作战	-10.6605
膝	-10.6606
引起了	-10.6607
落后	-10.6609
创办	-10.661
1999	-10.6614
PA	-10.6616
苹果公司	-10.6617
激进	-10.6619
举措	-10.6619
典礼	-10.6625
许可证	-10.6635
锡	-10.6637
衷	-10.6637
绵	-10.6637
绑架	-10.6639
热量	-10.6639
一处	-10.6646
热爱	-10.6646
银行业	-10.665
懂得	-10.6654
扩	-10.6658
只需要	-10.6664
没能	-10.6665
糖尿病	-10.6668
屑	-10.6668
越来越多	-10.6671
就职	-10.6672
工会	-10.6672
故意	-10.6675
销售额	-10.6678
指示	-10.6678
戴维	-10.6681
无聊	-10.6681
葬	-10.6684
部落	-10.6684
措	-10.6684
常用	-10.6692
晋	-10.6699
<	-10.6699
决议	-10.67
沙漠	-10.67
均匀	-10.6704
党派	-10.6704
次数	-10.6707
AN	-10.6708
传达	-10.671
印尼	-10.6713
一封	-10.6714
很小	-10.6716
卓	-10.6725
铅	-10.6729
控股	-10.6734
英国人	-10.6735
不断地	-10.6739
欢乐	-10.674
加热	-10.6741
可以看到	-10.6751
顺序	-10.6752
任意	-10.6752
姆斯	-10.6756
对于那些	-10.6759
叙述	-10.6761
严肃	-10.6761
描绘	-10.6761
一间	-10.6761
疲劳	-10.6762
起诉	-10.6762
编码	-10.6764
绝望	-10.6766
一批	-10.6769
维尔	-10.6772
几个小时	-10.6773
Be	-10.6781
重组	-10.6784
Ti	-10.6785
盲	-10.6785
仰	-10.6788
胖	-10.6791
扩建	-10.6793
夏季	-10.6795
疟疾	-10.6796
电视节目	-10.6796
vo	-10.6806
有害	-10.6806
意志	-10.6809
实体	-10.6815
帽子	-10.6819
合适	-10.6821
安哥拉通讯社	-10.6823
韵	-10.6823
防治	-10.6829
还需要	-10.6829
环节	-10.6834
机关	-10.6837
独特	-10.6843
差别	-10.6845
渗	-10.6853
栖	-10.6854
之间的关系	-10.6859
Car	-10.6859
慢性	-10.6875
或其他	-10.6876
占领	-10.6881
枯	-10.6885
瘾	-10.6885
短暂	-10.6895
强迫	-10.6904
叉	-10.691
本土	-10.6911
贷	-10.6911
椅子	-10.6912
黎	-10.6913
ub	-10.6915
蕴	-10.6917
栋	-10.6917
据说	-10.6925
穿上	-10.6929
予以	-10.693
增大	-10.6935
流量	-10.6938
策划	-10.6949
动荡	-10.6956
采集	-10.6957
怎么样	-10.6959
ina	-10.6959
ru	-10.696
晚餐	-10.6963
汽	-10.6966
会员	-10.6969
超市	-10.697
经济衰退	-10.6976
剥	-10.6979
黎巴嫩	-10.698
绒	-10.698
英寸	-10.698
旅馆	-10.698
热门	-10.6985
过敏	-10.6992
收缩	-10.6993
咨询公司	-10.6996
药品	-10.7001
准则	-10.7003
wa	-10.7004
美食	-10.7005
900	-10.7005
拾	-10.7012
提高到	-10.7016
北方	-10.7018
划分	-10.7022
址	-10.7023
自豪	-10.7028
谋杀	-10.7029
加剧	-10.7032
条约	-10.7038
注入	-10.704
麽	-10.7043
共产党	-10.7043
霜	-10.7043
峡	-10.7043
国家安全	-10.7044
是否会	-10.7046
补贴	-10.7047
水分	-10.7047
断裂	-10.7049
局限	-10.7053
还没	-10.7064
三个月	-10.707
剖	-10.7072
莫政府	-10.7073
颁	-10.7074
贩	-10.7075
谦	-10.7075
遵循	-10.7075
臣	-10.7075
欲望	-10.7079
摄入	-10.7081
该片	-10.7083
做过	-10.7098
叛	-10.7101
享有	-10.7103
棵	-10.7107
喀	-10.7107
蜡	-10.7107
两家	-10.711
疗法	-10.7111
连锁	-10.7112
总数	-10.7112
卧室	-10.7114
IM	-10.7115
冬季	-10.7121
把握	-10.7123
可信	-10.713
有多少	-10.7133
油价	-10.7135
绝大多数	-10.7137
捐	-10.7137
凌	-10.7139
弦	-10.714
几内亚比绍	-10.714
拥抱	-10.714
经贸	-10.7142
这个世界	-10.7143
醒来	-10.7148
巴拉	-10.715
财政部长	-10.7153
论述了	-10.716
领土	-10.7161
ct	-10.7164
尸	-10.7165
疫	-10.717
加利福尼亚	-10.7172
困惑	-10.7172
休闲	-10.7174
轻轻	-10.7174
鸡蛋	-10.7174
跨国	-10.7185
一句	-10.7186
身材	-10.7188
消息人士	-10.719
一艘	-10.7191
敞	-10.7204
郑	-10.7204
发病	-10.7205
意义上	-10.7206
悲剧	-10.7209
字符	-10.7214
结束后	-10.722
走过	-10.7223
3.5	-10.7223
以及其他	-10.7226
Bar	-10.7227
等问题	-10.7234
吵	-10.7236
醋	-10.7237
这份工作	-10.7238
篮	-10.7241
链接	-10.7244
飞行员	-10.7247
跑步	-10.7249
我方	-10.725
群岛	-10.7252
研究员	-10.7254
帝	-10.7255
EM	-10.7257
基督教	-10.7261
卧	-10.7263
管理者	-10.7264
ET	-10.7266
速率	-10.7266
兆	-10.7268
CS	-10.7269
矮	-10.7269
飘	-10.7269
批判	-10.7271
推销	-10.7274
服用	-10.7277
模特	-10.7277
讽刺	-10.7282
安娜	-10.7287
金融机构	-10.7289
史上	-10.7291
建筑物	-10.7298
伯格	-10.7302
艳	-10.7302
溢	-10.7302
郡	-10.7302
罗伯特	-10.7302
仆	-10.7302
摧毁	-10.7302
衬衫	-10.7302
情侣	-10.7305
环境下	-10.7311
集会	-10.7314
意愿	-10.7315
液体	-10.7318
显示出	-10.7318
斯基	-10.732
随之	-10.7331
应付	-10.7334
缠	-10.7335
笨	-10.7335
矩阵	-10.7336
阐述	-10.7336
东京	-10.7337
剩下的	-10.7341
而且还	-10.7343
道理	-10.7343
布里	-10.7348
尽力	-10.7353
维修	-10.7356
滤	-10.736
冷却	-10.7364
乃	-10.7364
忽	-10.7365
哈里	-10.7366
万名	-10.7366
洒	-10.7368
耻	-10.7368
幻想	-10.7368
这是一种	-10.7368
可持续发展	-10.7375
振动	-10.739
读书	-10.7392
漠	-10.7399
藉	-10.7401
暑	-10.7401
粒子	-10.7401
抗体	-10.7406
依照	-10.7407
这一问题	-10.7408
放缓	-10.7411
北美	-10.7412
万元	-10.7414
研究中心	-10.742
时间内	-10.742
器官	-10.7423
埃尔	-10.743
敦	-10.7431
设想	-10.7433
广播公司	-10.7433
开玩笑	-10.7434
钩	-10.7434
猜测	-10.7435
洲	-10.7437
精彩	-10.7441
压缩	-10.7444
西亚	-10.7449
吃惊	-10.7451
自治	-10.7454
加沙	-10.7455
点击	-10.7466
分泌	-10.7468
冬天	-10.7469
纺织	-10.747
误差	-10.747
汉堡	-10.747
所需要的	-10.7471
注重	-10.7479
洪水	-10.748
通常会	-10.7481
逃离	-10.749
萧	-10.75
愚	-10.75
University	-10.75
橙	-10.75
Te	-10.7502
盟友	-10.7503
推翻	-10.7507
市长	-10.7508
Me	-10.751
强制	-10.7513
Mi	-10.7522
贝拉	-10.7524
一百	-10.7524
炭	-10.7533
财政部	-10.7534
金额	-10.7536
体积	-10.7537
阶层	-10.7539
审美	-10.7551
对策	-10.7559
民间	-10.7565
近日	-10.7566
侯	-10.7567
反映了	-10.7576
定量	-10.7577
白天	-10.7579
首要	-10.7586
这是个	-10.7589
第二次	-10.7594
傻	-10.76
金融市场	-10.76
烷	-10.7601
瓣	-10.7601
拥挤	-10.7601
美味	-10.7604
整合	-10.7605
生物燃料	-10.7605
主流	-10.7605
赚钱	-10.7608
过滤	-10.7609
创造性	-10.761
流感	-10.7615
日程	-10.7616
亨	-10.7618
亨利	-10.7618
排名第	-10.763
正义	-10.7631
拨	-10.7633
各类	-10.7634
橱	-10.7635
嵌	-10.7635
琐	-10.7635
恐怕	-10.7635
窗户	-10.7637
罢工	-10.7638
课题	-10.7638
日常生活	-10.7648
外表	-10.7648
恶性	-10.7648
几乎没有	-10.7649
全身	-10.7659
签名	-10.7662
竟	-10.7666
飓风	-10.7669
棘	-10.7669
拱	-10.7669
缩小	-10.767
折扣	-10.7671
那么多	-10.7672
眼前	-10.7675
你会发现	-10.7684
0.1	-10.7684
油田	-10.7692
负债	-10.7695
劣	-10.7702
烯	-10.7702
四分之一	-10.7703
辱	-10.7703
栽	-10.7703
祈祷	-10.7703
膨胀	-10.7703
捐赠	-10.7703
任期	-10.7705
青春	-10.7705
灵感	-10.7707
Po	-10.7711
行政区	-10.7715
布什政府	-10.7717
房价	-10.772
诗人	-10.7725
海关	-10.773
据估计	-10.7731
恐	-10.7732
数百万	-10.7734
披	-10.7736
劫	-10.7736
俱	-10.7737
赴	-10.7737
卡路里	-10.7737
畅销	-10.7738
弥补	-10.7738
鼓舞	-10.7739
哪怕	-10.7739
缩短	-10.7741
奇迹	-10.7744
几次	-10.7744
何时	-10.7745
迎接	-10.7746
融入	-10.7746
晶体	-10.7752
盆地	-10.7755
随意	-10.776
格式	-10.7766
慰	-10.7767
拳	-10.7769
倡	-10.777
忌	-10.7771
浓缩	-10.7772
隔离	-10.7775
沉默	-10.7775
含义	-10.7778
赞成	-10.7782
群众	-10.7783
电台	-10.7794
样本	-10.7798
相应	-10.7801
1500	-10.7802
谎	-10.7802
辣	-10.7805
铁矿石	-10.7805
殿	-10.7805
沸	-10.7805
上午	-10.7809
盯着	-10.7809
诗歌	-10.781
例外	-10.7811
操作系统	-10.7812
辩护	-10.7813
树木	-10.7814
路径	-10.7821
展会	-10.7833
节点	-10.7834
今晚	-10.7839
溜	-10.784
爱德华	-10.784
陵	-10.784
删除	-10.7843
进攻	-10.7847
职务	-10.7847
期刊	-10.7852
指望	-10.7853
灰色	-10.7853
综	-10.7866
华尔街	-10.7874
惹	-10.7874
操纵	-10.7875
剩余	-10.7876
变得更加	-10.7877
可持续	-10.7879
造型	-10.7881
鞋子	-10.7882
然后再	-10.7889
普拉	-10.7889
截至	-10.7893
无需	-10.7903
崛起	-10.7909
野蛮	-10.791
一倍	-10.791
的人来说	-10.7911
竟然	-10.7911
渔业	-10.7913
借助	-10.7914
回去	-10.7916
社交媒体	-10.7917
携	-10.7918
一根	-10.7918
借口	-10.7925
诱导	-10.7926
数千	-10.793
编程	-10.7941
咒	-10.7944
酿	-10.7944
é	-10.7944
垒	-10.7944
藻	-10.7944
即可	-10.7944
早已	-10.7944
查询	-10.7945
村庄	-10.7946
女友	-10.7947
监视	-10.7948
1.1	-10.7949
花钱	-10.795
引进	-10.795
进行了分析	-10.7958
世行	-10.7965
语音	-10.7967
动词	-10.7967
行走	-10.7967
0.2	-10.797
变换	-10.7973
验	-10.7976
射线	-10.7977
寂	-10.7979
奥斯卡	-10.7979
维生素	-10.7979
珀	-10.7979
蔽	-10.7979
杰克逊	-10.798
景观	-10.7985
劳工	-10.7991
相结合	-10.8003
伐	-10.8004
思路	-10.8006
之旅	-10.8011
藤	-10.8014
奸	-10.8014
帆	-10.8014
燕	-10.8014
卜	-10.8014
雀	-10.8014
棍	-10.8014
安理会	-10.8014
姿势	-10.8015
长期以来	-10.8024
国务院	-10.8025
如果没有	-10.8027
蔗糖	-10.8034
Sh	-10.8047
商业银行	-10.8048
高压	-10.8048
旧金山	-10.8049
芭	-10.8049
前任	-10.8052
干涉	-10.8053
外贸	-10.8055
真理	-10.8061
当他们	-10.8063
鉴	-10.8067
管制	-10.8069
违	-10.8069
运送	-10.8076
几百	-10.8081
弟	-10.8084
砍	-10.8085
菲律宾	-10.8085
朴	-10.8085
侠	-10.8085
叔	-10.8085
很大程度上	-10.8085
付款	-10.8085
悲伤	-10.8089
档案	-10.8094
美国国会	-10.8095
菜单	-10.8101
变量	-10.8104
机票	-10.8106
这是因为	-10.811
洛克	-10.8113
家乡	-10.8116
担保	-10.8118
衬	-10.812
1995	-10.812
诱惑	-10.812
供电	-10.8122
抵抗	-10.8124
氛围	-10.8126
弯曲	-10.8128
此期间	-10.8128
政客	-10.813
施加	-10.8134
高温	-10.8134
物资	-10.8135
三天	-10.8145
讲述了	-10.8147
不仅仅	-10.815
暂停	-10.8152
Twitter	-10.8156
这句话	-10.8156
俊	-10.8156
波兰	-10.8156
借鉴	-10.8157
静脉	-10.8158
内战	-10.8159
爵士	-10.8159
零售商	-10.8161
战胜	-10.8162
予	-10.8168
露出	-10.8168
单纯	-10.8173
之路	-10.8177
El	-10.818
今日	-10.8181
线路	-10.8183
去除	-10.8185
巴勒斯坦人	-10.8188
集成	-10.8188
烘	-10.8191
仿佛	-10.8193
生涯	-10.8193
寒冷	-10.8194
优雅	-10.8196
遗产	-10.82
是多么	-10.8202
每当	-10.8203
点儿	-10.8214
our	-10.8222
Cr	-10.8225
蚀	-10.8226
忠诚	-10.8228
全新的	-10.8229
漫长	-10.823
发酵	-10.823
做的事	-10.8234
委托	-10.8234
大厦	-10.8234
小小的	-10.8241
一遍	-10.8248
数目	-10.8251
全球化	-10.8256
直径	-10.8257
袖	-10.8262
衫	-10.8263
栓	-10.8263
铀	-10.8263
耳朵	-10.8264
谢谢	-10.8265
面试官	-10.8267
爱好者	-10.827
不堪	-10.8272
贸易额	-10.8276
门口	-10.8279
夜晚	-10.8282
Ge	-10.8286
用途	-10.8287
努	-10.8292
旺	-10.8299
1998	-10.8299
主持人	-10.83
杆菌	-10.8303
一阵	-10.8303
编写	-10.8304
依赖于	-10.8304
拍照	-10.8305
轻易	-10.8309
创立	-10.831
姓名	-10.831
管理局	-10.8314
组件	-10.8331
否定	-10.8334
寿	-10.8335
迄今为止	-10.8336
岛屿	-10.8336
年年底	-10.8336
披露	-10.8337
Ga	-10.8337
布兰	-10.8342
乘坐	-10.8343
各项	-10.8351
矿物	-10.8351
几分钟	-10.8352
光线	-10.8358
创造力	-10.8361
斯托	-10.8361
境内	-10.8362
ID	-10.8363
Lo	-10.8371
茎	-10.8372
赐	-10.8372
二氧化碳	-10.8372
ew	-10.8378
汉语	-10.8378
所有人都	-10.8404
颜	-10.8405
电动	-10.8406
平板电脑	-10.8408
摔	-10.8408
鸿	-10.8408
犹豫	-10.8409
杉	-10.8409
心态	-10.841
帐户	-10.8411
正当	-10.8411
ian	-10.8412
依旧	-10.8413
巨额	-10.8414
冷静	-10.8416
简化	-10.842
亲自	-10.842
好吧	-10.8421
神奇	-10.8435
分支	-10.8437
lin	-10.8444
捐款	-10.8447
截止	-10.8447
熊猫	-10.8447
签订	-10.8447
清醒	-10.8454
的主要原因	-10.8456
政府官员	-10.8456
资深	-10.8459
赞同	-10.846
IN	-10.8466
球迷	-10.8466
潮流	-10.8469
校长	-10.8478
氨	-10.848
虑	-10.848
繁殖	-10.8482
新西兰	-10.8482
姐妹	-10.8482
烦恼	-10.8482
虐待	-10.8482
丑闻	-10.8483
钢琴	-10.8484
哈佛	-10.8486
售价	-10.8487
卡布拉	-10.8489
最喜欢的	-10.8492
灾害	-10.8492
恰当	-10.8496
此事	-10.8497
房产	-10.8505
拿着	-10.8509
同时还	-10.851
沙发	-10.8512
简称	-10.8513
两组	-10.8514
挫	-10.8518
欺	-10.8518
躁	-10.8519
顽	-10.8519
钠	-10.8519
抛弃	-10.852
罕见	-10.852
通胀	-10.8521
总监	-10.8526
网页	-10.8527
开关	-10.853
要素	-10.8544
最早	-10.8546
储量	-10.8547
丧	-10.8547
tor	-10.8554
榜单	-10.8555
苍	-10.8556
钥匙	-10.8556
化合物	-10.8556
尊敬	-10.8557
确信	-10.8562
旅程	-10.8563
偏见	-10.8571
半岛	-10.8576
图书	-10.8579
览	-10.8592
覆	-10.8592
妥	-10.8593
直升机	-10.8593
霸	-10.8593
还有一些	-10.8597
男友	-10.8598
传染	-10.8599
所需	-10.8605
老年人	-10.8609
圣经	-10.8609
童年	-10.8622
提出了一种	-10.8623
最具	-10.8623
带领	-10.8627
艰	-10.8627
褐	-10.863
放入	-10.8631
蜜蜂	-10.8632
摩擦	-10.8632
牙齿	-10.8633
符号	-10.8636
中的应用	-10.8638
转移到	-10.8641
对我来说	-10.8641
因为它们	-10.8641
长久	-10.8648
躺	-10.8651
格林	-10.8653
市民	-10.8653
通货膨胀率	-10.8657
煤矿	-10.8659
Con	-10.8663
查尔斯	-10.867
谎言	-10.867
接口	-10.8675
进行了研究	-10.8678
排队	-10.8691
吉尔	-10.8703
我不知道	-10.8703
*	-10.8705
面部	-10.8706
该协议	-10.8707
撰写	-10.8707
键盘	-10.8708
教皇	-10.8709
太过	-10.8711
激活	-10.8715
滥用	-10.8719
东方	-10.8721
今年年底	-10.8725
使命	-10.8734
好友	-10.8734
辛格	-10.8737
篮球	-10.8738
iz	-10.874
里约热内卢	-10.8743
水电站	-10.8743
牛仔裤	-10.8743
干旱	-10.8745
吸附	-10.8747
指南	-10.875
否	-10.8751
190	-10.8752
1.6	-10.8753
善于	-10.8758
笑话	-10.876
领导者	-10.8771
羽	-10.8779
儒	-10.8781
研讨会	-10.8781
寺	-10.8781
歇	-10.8781
肯尼迪	-10.8781
Google	-10.8781
厄	-10.8781
赞美	-10.8781
酰	-10.8781
赞扬	-10.8782
大使馆	-10.8783
待遇	-10.8783
丹麦	-10.8785
救助	-10.8788
短缺	-10.8789
艾伦	-10.8789
优质	-10.8792
Sp	-10.8797
春天	-10.8812
愤	-10.8818
淘	-10.8819
徐	-10.8819
塌	-10.8819
弧	-10.8819
涡	-10.8819
波士顿	-10.8819
贪	-10.8819
搜寻	-10.882
捐助	-10.882
赞助	-10.8821
独裁	-10.8821
偶然	-10.8822
买家	-10.8823
重申	-10.8825
达成协议	-10.883
风景	-10.8836
×10	-10.8836
认证	-10.8836
Se	-10.8837
手臂	-10.8842
智力	-10.8845
亚当	-10.8849
月初	-10.885
美容	-10.885
接种	-10.8852
Ad	-10.8854
怨	-10.8856
嫌	-10.8857
邓	-10.8857
仑	-10.8857
高速公路	-10.8858
非线性	-10.8862
消防	-10.8866
RA	-10.8895
Macauhub	-10.8895
咽	-10.8895
晃	-10.8895
▁佛得角普拉亚	-10.8895
夕	-10.8895
某种程度上	-10.8895
反对党	-10.8895
渗透	-10.8896
深深	-10.8899
.0%	-10.8905
找不到	-10.8906
天堂	-10.8912
永远不会	-10.8914
1.4	-10.8928
比特币	-10.8934
摩托车	-10.8934
恤	-10.8934
1997	-10.8934
陌生人	-10.8936
标题	-10.894
逃避	-10.894
气味	-10.8941
组成部分	-10.8944
接待	-10.8946
琼斯	-10.8946
完工	-10.8947
山羊	-10.8949
资本主义	-10.8956
恶意	-10.896
起床	-10.8968
解雇	-10.8968
中产阶级	-10.8972
祸	-10.8972
嗯	-10.8973
迭	-10.8973
驱逐	-10.8973
4.5	-10.8974
平壤	-10.8975
著作	-10.8979
充分利用	-10.8985
星球	-10.8994
最严重的	-10.8997
Ni	-10.9003
瓷	-10.9011
桂	-10.9011
刮	-10.9011
委内瑞拉	-10.9011
衔	-10.9011
晕	-10.9011
逗	-10.9011
匠	-10.9011
宋	-10.9011
纽约时报	-10.9011
高等教育	-10.9011
穿越	-10.9014
郊区	-10.9016
安慰	-10.9016
功率	-10.9017
自动化	-10.902
免除	-10.9032
论述	-10.9032
周边	-10.9033
1.3	-10.9041
悦	-10.9049
蝶	-10.905
纲	-10.905
撕	-10.905
锌	-10.905
皆	-10.905
延续	-10.9052
折磨	-10.9054
▁如果您	-10.9055
柏林	-10.9055
跳舞	-10.9056
所带来的	-10.9058
战场	-10.9058
第一位	-10.9059
户外	-10.906
小镇	-10.9061
坚信	-10.9063
收藏	-10.9068
总值	-10.907
意图	-10.9088
公主	-10.9088
玫瑰	-10.9089
各种各样的	-10.9089
蔓延	-10.9089
按钮	-10.909
公斤	-10.909
ml	-10.9093
牧师	-10.9093
节约	-10.9094
lu	-10.91
意味	-10.9103
清洗	-10.9104
1.0	-10.9106
out	-10.9111
乐意	-10.9121
收费	-10.9121
火星	-10.9124
镀	-10.9128
凤	-10.9128
授予	-10.9129
筛选	-10.913
天赋	-10.9131
桥梁	-10.9132
奖金	-10.9136
真相	-10.9145
Cu	-10.9161
碰到	-10.9163
言语	-10.9164
不公平	-10.9164
亏	-10.9167
阿里巴巴	-10.9168
寡	-10.9168
梳	-10.9168
绩效	-10.9169
电视机	-10.9173
空调	-10.9173
不幸的是	-10.9174
毒品	-10.9176
确切	-10.9181
容器	-10.9187
高科技	-10.919
营业	-10.9191
各位	-10.9192
得知	-10.9193
金牌	-10.9199
势力	-10.9204
雄性	-10.9204
肆	-10.9207
印第安	-10.9207
蕾	-10.9207
奋斗	-10.9208
考验	-10.9208
约翰逊	-10.9209
极限	-10.9211
存活	-10.9214
透过	-10.9218
六个月	-10.922
的最后一	-10.9221
列车	-10.9227
克隆	-10.9228
选项	-10.9234
几十	-10.9243
几何	-10.9243
空袭	-10.9243
话语	-10.9244
橡	-10.9246
赵	-10.9247
丸	-10.9247
抖	-10.9247
挣扎	-10.9248
判决	-10.9259
病理	-10.9265
han	-10.9267
▁2.	-10.9271
Th	-10.9286
泼	-10.9287
搁	-10.9287
John	-10.9287
死亡率	-10.9288
证书	-10.9289
帮忙	-10.929
可谓	-10.9292
1.7	-10.9294
表现得	-10.9297
赛事	-10.9299
年纪	-10.9299
投资额	-10.9305
术语	-10.931
电压	-10.931
多久	-10.931
ment	-10.9317
▁1.	-10.9322
昆	-10.9326
黛	-10.9327
平方米	-10.9327
疹	-10.9327
Pro	-10.9331
珠宝	-10.9332
社交网络	-10.9334
心理学家	-10.9342
顶级	-10.9346
视角	-10.9346
az	-10.9352
伸出	-10.9352
组建	-10.9352
商标	-10.9358
主教	-10.9359
家园	-10.9364
减小	-10.9366
渣	-10.9367
办事处	-10.9367
香蕉	-10.9367
噪声	-10.9368
电视剧	-10.9369
治愈	-10.9369
漫画	-10.9372
盒子	-10.9373
推测	-10.9374
7.5	-10.9381
网球	-10.9387
ive	-10.9388
预言	-10.9388
----	-10.9399
拒	-10.9403
靴	-10.9407
船舶	-10.9408
荣誉	-10.9409
牛津	-10.941
恐怖袭击	-10.9411
内涵	-10.9413
副总统	-10.9416
外交政策	-10.9417
媒体报道	-10.9421
织物	-10.9422
排列	-10.9425
十字	-10.9432
架构	-10.9434
ist	-10.9434
扭	-10.9443
疼	-10.9447
ion	-10.9447
姜	-10.9448
巩固	-10.9448
禁令	-10.9455
饭店	-10.9457
散步	-10.9459
新兴市场	-10.946
NO	-10.9464
步行	-10.9464
改编	-10.9467
杀害	-10.9479
旨	-10.9481
训	-10.9486
旱	-10.9486
薯	-10.9488
贮	-10.9488
驰	-10.9488
柠檬	-10.9488
栅	-10.9488
1.8	-10.9489
西方国家	-10.9493
几个星期	-10.9499
mol	-10.9501
交付	-10.9501
天主教	-10.9505
十五	-10.9506
果实	-10.9508
图案	-10.9509
厚度	-10.9517
匿	-10.9529
淹	-10.9529
愁	-10.9529
冯	-10.9529
4000	-10.9536
2015	-10.9538
交叉	-10.9538
新娘	-10.9539
秘书长	-10.954
窗口	-10.9543
失踪	-10.9543
▁3.	-10.9546
博彩业	-10.9557
这两种	-10.9558
祝	-10.9568
盼	-10.957
硝	-10.957
送给	-10.9579
五十	-10.9581
称赞	-10.9581
第一步	-10.9587
合格	-10.9589
颠	-10.9611
布雷	-10.9611
扁	-10.9611
挨	-10.9611
&	-10.9611
史蒂夫	-10.9611
悟	-10.9611
削弱	-10.9613
消灭	-10.9614
仪器	-10.9627
协作	-10.963
格雷	-10.9632
行程	-10.9634
间接	-10.964
外资	-10.9647
掘	-10.9652
赠	-10.9652
厘	-10.9653
淡水河谷公司	-10.9653
勾	-10.9653
掠	-10.9653
托马斯	-10.9653
营业额	-10.9654
频道	-10.966
情景	-10.967
报复	-10.9679
有限元	-10.9684
穆加贝	-10.9694
翔	-10.9694
耶路撒冷	-10.9694
米歇尔	-10.9694
畸形	-10.9695
男生	-10.9699
偶像	-10.9702
开启	-10.9709
生效	-10.9713
ess	-10.9715
视野	-10.9731
帖	-10.9736
妹妹	-10.9736
奶酪	-10.9736
姿态	-10.9737
沙滩	-10.9737
竞赛	-10.9739
预定	-10.9742
真诚	-10.9744
延伸	-10.9744
公报	-10.9745
木材	-10.9758
名义	-10.9758
兄	-10.9777
国会议员	-10.9778
碑	-10.9778
庙	-10.9778
苔	-10.9778
∶	-10.9778
丹尼尔	-10.9778
垂直	-10.9782
最高法院	-10.9782
若泽	-10.9783
古怪	-10.9786
停下来	-10.9789
启发	-10.9798
贬	-10.9808
夜间	-10.9808
在此基础上	-10.982
钓	-10.982
理查德	-10.982
1994	-10.982
妥协	-10.982
巧妙	-10.9821
恶劣	-10.9821
毁灭	-10.9822
联邦政府	-10.9834
old	-10.9834
通往	-10.9835
进出口	-10.9836
强硬	-10.9837
传奇	-10.9849
其他地方	-10.9851
中国大陆	-10.9854
无论如何	-10.9858
乐器	-10.9859
问问	-10.986
炒	-10.9862
赎	-10.9862
蚊	-10.9862
冈	-10.9862
迁移	-10.9864
神话	-10.9866
▁至于	-10.9867
接纳	-10.9869
res	-10.9871
减弱	-10.9871
总经理	-10.9883
评分	-10.989
超声	-10.9894
宅	-10.9895
避开	-10.9901
遣	-10.9902
崩	-10.9904
德克萨斯	-10.9904
伞	-10.9904
堤	-10.9904
熬	-10.9904
忧虑	-10.9905
百姓	-10.9906
延迟	-10.9906
民意调查	-10.9907
破裂	-10.9908
ther	-10.9909
四川	-10.991
饰演	-10.991
怎么办	-10.9911
旅	-10.9919
介入	-10.9922
沉重	-10.9937
货币基金组织	-10.9942
惧	-10.9947
棋	-10.9947
颤	-10.9947
介质	-10.9955
急剧	-10.9957
非凡	-10.9959
唱片	-10.996
狂热	-10.9962
放置	-10.997
反映出	-10.9973
市中心	-10.9973
很有可能	-10.9974
拐	-10.999
疆	-10.999
枕	-10.999
浑	-10.999
换句话说	-10.999
美国之音	-10.999
邪恶	-10.999
累积	-10.9993
狮子	-10.9998
专注于	-11
佩林	-11.0006
光谱	-11.001
教室	-11.0013
国际机场	-11.0015
精英	-11.0019
集合	-11.0023
终结	-11.0025
外交官	-11.0028
人际关系	-11.0032
趾	-11.0033
纠纷	-11.0033
垄断	-11.0033
开发商	-11.0033
兆瓦	-11.0035
摄影师	-11.0035
富豪	-11.0035
坚决	-11.0036
康复	-11.0039
国防部长	-11.004
碎片	-11.0046
供给	-11.0047
确立	-11.0052
滥	-11.006
留学生	-11.006
处境	-11.0069
弓	-11.0076
梭	-11.0076
谣	-11.0076
相比之下	-11.0078
芯片	-11.0078
底部	-11.0079
骚	-11.0118
瞧	-11.0119
嘛	-11.0119
筑	-11.016
搏	-11.0162
碟	-11.0206
祥	-11.0206
妻	-11.0237
浦	-11.025
á	-11.025
凑	-11.025
黏	-11.025
饿	-11.0294
恭	-11.0294
狐	-11.0338
爪	-11.0383
赔	-11.0383
捞	-11.0383
添	-11.0416
q	-11.0419
郭	-11.0427
氟	-11.0427
择	-11.0469
禽	-11.0472
奠	-11.0472
捧	-11.0472
巷	-11.0472
庸	-11.0472
妄	-11.0472
廉	-11.0502
沈	-11.0517
茫	-11.0517
闯	-11.0517
扯	-11.0517
屁	-11.0517
阁	-11.0552
詹	-11.0562
函	-11.06
胀	-11.0605
幽	-11.0607
溪	-11.0608
柴	-11.0651
棚	-11.0654
勉	-11.0654
驼	-11.0654
券	-11.0697
洽	-11.0699
锦	-11.0699
砸	-11.0699
厉	-11.0745
泻	-11.0745
娅	-11.0745
慎	-11.0745
狄	-11.0746
梗	-11.0746
琼	-11.0777
蟹	-11.0792
拘	-11.0835
奴	-11.0838
贿	-11.0838
俯	-11.0838
旬	-11.0838
肚	-11.0883
莲	-11.0885
袜	-11.0885
障	-11.093
狭	-11.0932
豹	-11.0979
鸦	-11.0979
辖	-11.1026
巫	-11.1027
秦	-11.1027
狠	-11.1027
谐	-11.1041
驶	-11.1061
婴	-11.1072
掷	-11.1074
宰	-11.1074
浇	-11.1074
肽	-11.1074
捉	-11.1121
痴	-11.1121
翁	-11.1122
茂	-11.1122
萌	-11.1122
冥	-11.1122
碧	-11.1122
芝	-11.1122
尝	-11.1148
彰	-11.117
柳	-11.117
躯	-11.117
徽	-11.117
葱	-11.117
溃	-11.1218
策	-11.1225
×	-11.1245
粪	-11.1267
铭	-11.1267
谜	-11.1267
履	-11.1307
垮	-11.1316
诡	-11.1316
酚	-11.1316
煎	-11.1316
嘲	-11.1363
迅	-11.1364
剔	-11.1365
恳	-11.1365
渴	-11.1413
茅	-11.1414
涅	-11.1414
辟	-11.1414
扮	-11.1453
疾	-11.1459
柄	-11.1464
悼	-11.1464
兜	-11.1464
绞	-11.1464
辜	-11.1513
谨	-11.1563
矫	-11.1563
掺	-11.1563
腕	-11.1664
杏	-11.1664
愧	-11.1664
廊	-11.1711
姚	-11.1715
姓	-11.1749
哲	-11.1754
坪	-11.1766
憎	-11.1766
舟	-11.1766
钾	-11.1766
岭	-11.1766
慌	-11.1817
葛	-11.1817
沾	-11.1817
秃	-11.1817
哨	-11.1817
踩	-11.1817
昌	-11.1817
姿	-11.1866
锚	-11.1869
贼	-11.1869
魂	-11.192
纷	-11.192
惟	-11.192
萝	-11.192
醛	-11.192
彼	-11.1961
跪	-11.1973
颌	-11.1973
廓	-11.1973
庞	-11.1984
趁	-11.2025
绘	-11.206
楚	-11.2075
笛	-11.2078
撇	-11.2078
菊	-11.2078
贺	-11.213
毅	-11.213
浩	-11.213
颅	-11.213
亩	-11.213
饥	-11.2183
聋	-11.2184
翅	-11.2184
罕	-11.2235
御	-11.2235
龟	-11.2237
紊	-11.2237
逾	-11.2237
妹	-11.229
厢	-11.2291
锤	-11.2291
栗	-11.2291
碘	-11.2291
镁	-11.2291
凹	-11.2345
逸	-11.2345
郊	-11.2393
甩	-11.2399
颂	-11.2399
缔	-11.2399
蔡	-11.2399
蝇	-11.2399
濒	-11.2399
钦	-11.2399
粹	-11.2453
嫩	-11.2454
绸	-11.2454
淤	-11.2454
娘	-11.2495
倦	-11.2509
噬	-11.2509
奢	-11.2509
竖	-11.2509
蝠	-11.2564
拦	-11.2564
晴	-11.2564
壶	-11.2564
蚁	-11.2564
咱	-11.2564
渍	-11.2564
喧	-11.2564
芦	-11.262
孢	-11.2675
淫	-11.2676
遵	-11.2731
帘	-11.2732
绪	-11.2782
薇	-11.2788
滩	-11.2837
酪	-11.2844
寝	-11.2845
妨	-11.2845
咯	-11.2845
盈	-11.2882
狮	-11.2891
坊	-11.2902
豚	-11.2902
虹	-11.2902
娇	-11.2902
橘	-11.2902
董	-11.2954
虐	-11.2959
礁	-11.296
逢	-11.296
苛	-11.296
颖	-11.296
纤	-11.3009
鄙	-11.3018
缀	-11.3076
嗜	-11.3076
督	-11.313
勋	-11.3134
锥	-11.3134
谤	-11.3134
乞	-11.3193
哄	-11.3193
宪	-11.3236
陀	-11.3252
鞭	-11.3252
匪	-11.3252
喘	-11.3311
颊	-11.3312
籽	-11.3312
诫	-11.3312
诈	-11.3371
椒	-11.3371
塘	-11.3371
冶	-11.3371
乾	-11.3371
臀	-11.3371
钛	-11.3372
蚕	-11.3372
驯	-11.3432
牲	-11.3432
渊	-11.3432
穗	-11.3432
嗅	-11.3432
嘘	-11.3432
锯	-11.3432
撰	-11.3489
勘	-11.3491
胚	-11.3492
爸	-11.3492
侍	-11.3492
陋	-11.3492
呵	-11.3492
驴	-11.3492
淀	-11.3552
嚼	-11.3553
烫	-11.3553
羡	-11.3553
抄	-11.3553
岗	-11.361
芯	-11.3611
妃	-11.3615
骸	-11.3615
挠	-11.3615
殴	-11.3615
怎	-11.3674
杠	-11.3676
掏	-11.3676
耸	-11.3676
蛙	-11.3676
肴	-11.3676
赋	-11.3732
挽	-11.3737
钞	-11.3738
挚	-11.3738
孟	-11.3799
窄	-11.3801
抒	-11.3801
掀	-11.3801
宠	-11.3859
娃	-11.3864
苷	-11.3927
僧	-11.3991
魏	-11.3991
灶	-11.4055
焚	-11.4055
乍	-11.4055
盔	-11.4119
纬	-11.4119
熏	-11.412
鳞	-11.4184
傅	-11.4184
凳	-11.4184
卦	-11.4184
恕	-11.4184
梨	-11.4185
惑	-11.4247
萃	-11.425
崔	-11.425
辽	-11.425
勿	-11.4316
腥	-11.4316
拙	-11.4316
肘	-11.4316
瞬	-11.4376
绅	-11.4382
敛	-11.4382
讽	-11.4422
裹	-11.4446
涩	-11.4448
怯	-11.4448
镶	-11.4448
狡	-11.4449
阱	-11.4449
囚	-11.4514
祷	-11.4515
褪	-11.4516
簿	-11.4516
哑	-11.4516
胰	-11.4583
蒋	-11.4583
幢	-11.4583
旷	-11.4583
孵	-11.4583
芙	-11.4583
屡	-11.4651
刃	-11.4651
枢	-11.4651
锰	-11.4651
询	-11.4716
寓	-11.4717
寸	-11.4718
茄	-11.4719
灿	-11.472
熙	-11.472
捡	-11.472
朽	-11.472
–	-11.472
踪	-11.4761
昔	-11.4789
汞	-11.4789
捆	-11.4858
睁	-11.4858
仗	-11.4858
噢	-11.4858
盾	-11.4858
敷	-11.4858
趟	-11.4858
倘	-11.4858
寨	-11.4858
窥	-11.4858
堕	-11.4928
亭	-11.4928
绷	-11.4928
蠕	-11.4928
筛	-11.4996
邀	-11.4996
蠢	-11.4998
狸	-11.4998
揽	-11.4998
囤	-11.4998
爷	-11.5069
夥	-11.5069
赁	-11.5069
靶	-11.5069
孩	-11.5105
脾	-11.5135
铬	-11.5141
疮	-11.5141
赦	-11.5141
姬	-11.5141
涵	-11.5202
朋	-11.5211
闸	-11.5213
窍	-11.5213
绩	-11.5248
酬	-11.5281
括	-11.5283
腻	-11.5285
捣	-11.5285
烁	-11.5285
犀	-11.5285
烃	-11.5285
灼	-11.5285
矢	-11.5285
邪	-11.5357
轧	-11.5358
墟	-11.5358
蒜	-11.5358
呕	-11.5358
昧	-11.5358
嗓	-11.5358
鼎	-11.5358
睫	-11.5359
佣	-11.5431
痹	-11.5432
硼	-11.5432
曹	-11.5432
砾	-11.5432
惰	-11.5432
玲	-11.5432
娶	-11.5432
咐	-11.5432
壤	-11.5498
聆	-11.5506
杖	-11.5506
锂	-11.5506
#	-11.5506
瞄	-11.5506
荫	-11.5506
玄	-11.5506
凿	-11.5506
溅	-11.5506
茜	-11.558
褶	-11.558
靡	-11.558
渺	-11.558
澄	-11.558
′	-11.5581
慧	-11.5655
涤	-11.5656
煽	-11.5656
崭	-11.5656
酵	-11.5725
甸	-11.5731
踝	-11.5731
虔	-11.5731
悖	-11.5731
γ	-11.5731
馅	-11.5731
妓	-11.5808
椭	-11.5808
眨	-11.5808
俘	-11.5808
岂	-11.5808
稠	-11.5808
绊	-11.5808
彬	-11.5808
斧	-11.5885
勺	-11.5885
沦	-11.5885
圭	-11.5885
窒	-11.5885
暂	-11.5898
姐	-11.5949
翰	-11.5958
撑	-11.5958
燥	-11.596
姑	-11.5962
唑	-11.5962
歪	-11.5962
媚	-11.5962
袍	-11.5962
诠	-11.5962
坟	-11.5962
迄	-11.5962
咸	-11.5962
寞	-11.604
逻	-11.604
娩	-11.604
樱	-11.604
酗	-11.604
睾	-11.604
械	-11.6108
贡	-11.6119
篷	-11.6119
沐	-11.6119
撼	-11.6119
吼	-11.6119
卒	-11.6119
衍	-11.6171
匀	-11.6185
姨	-11.6198
绣	-11.6198
癫	-11.6198
禧	-11.6198
捏	-11.6198
簧	-11.6198
乖	-11.6198
挪	-11.6277
痒	-11.6278
菇	-11.6278
汪	-11.6278
矽	-11.6278
翘	-11.6278
喇	-11.6278
匆	-11.6359
蹲	-11.6359
砌	-11.6359
墅	-11.6359
笃	-11.6359
诞	-11.6432
疤	-11.644
瞒	-11.644
茸	-11.644
钝	-11.644
脐	-11.644
饶	-11.644
阐	-11.6519
妖	-11.6522
瞎	-11.6522
怡	-11.6522
疡	-11.6605
扼	-11.6605
觅	-11.6605
涛	-11.6605
斐	-11.6605
揉	-11.6605
舆	-11.6605
刹	-11.6605
叨	-11.6605
饵	-11.6605
噩	-11.6688
焕	-11.6688
傲	-11.6771
婉	-11.6772
镍	-11.6772
嚷	-11.6772
溺	-11.6772
隶	-11.6857
吩	-11.6857
吟	-11.6857
疵	-11.6942
迦	-11.6942
吾	-11.6942
膳	-11.6942
赂	-11.6942
帜	-11.6943
榴	-11.6943
桔	-11.6943
删	-11.702
萎	-11.7028
肃	-11.7028
筷	-11.7029
坯	-11.7029
貂	-11.7029
蹄	-11.7029
暮	-11.7029
弛	-11.7029
稚	-11.7029
徙	-11.7029
鳄	-11.7114
匙	-11.7116
搅	-11.7116
甫	-11.7116
雏	-11.7116
央	-11.715
歧	-11.7193
皂	-11.7203
馏	-11.7203
蔑	-11.7203
骇	-11.7203
辙	-11.7203
	-11.7204
纺	-11.7284
【	-11.7292
懦	-11.7292
骆	-11.7292
谓	-11.7357
践	-11.7378
硕	-11.7379
攒	-11.7381
瑕	-11.7381
陡	-11.7381
钥	-11.7381
焙	-11.7381
熄	-11.7381
盎	-11.7381
崎	-11.7381
耍	-11.747
胁	-11.747
垢	-11.7471
贱	-11.7471
蝗	-11.7471
吕	-11.7471
贞	-11.7471
榨	-11.7471
惩	-11.7562
簇	-11.7562
】	-11.7562
嚣	-11.7562
禅	-11.7562
闺	-11.7562
嘎	-11.7562
贤	-11.7562
猾	-11.7562
澡	-11.7653
拷	-11.7654
窘	-11.7654
瞥	-11.7654
唾	-11.7654
鸽	-11.7654
槟	-11.7654
翠	-11.7746
於	-11.7746
脓	-11.7746
眩	-11.7746
斩	-11.7746
腱	-11.7746
棱	-11.7747
腮	-11.7747
≥	-11.7747
琪	-11.784
瀑	-11.784
楠	-11.7934
魁	-11.7934
鹏	-11.7934
拭	-11.7934
怠	-11.7934
镖	-11.7934
殊	-11.8021
循	-11.8028
裕	-11.8028
膨	-11.8029
僻	-11.8029
倚	-11.8029
衅	-11.8029
冗	-11.8029
拢	-11.803
疚	-11.803
诵	-11.803
磺	-11.803
缅	-11.8126
绰	-11.8126
谭	-11.8126
铲	-11.8126
浊	-11.8126
哇	-11.8126
帷	-11.8126
螨	-11.8126
宵	-11.8126
佑	-11.8126
椰	-11.8223
缪	-11.8223
岳	-11.8223
杭	-11.8223
汲	-11.8223
哼	-11.8223
昼	-11.8223
炬	-11.8223
肛	-11.8223
徘	-11.8223
悯	-11.8321
毙	-11.8321
ó	-11.8321
馨	-11.8321
缕	-11.8321
蹦	-11.8321
徊	-11.8321
饲	-11.8416
矛	-11.842
羟	-11.842
孽	-11.842
祂	-11.842
瘟	-11.842
啡	-11.842
缉	-11.852
遂	-11.852
呃	-11.852
秽	-11.852
辑	-11.8618
寥	-11.8621
伽	-11.8621
拌	-11.8621
峭	-11.8621
淑	-11.8621
仕	-11.8621
荆	-11.8723
俭	-11.8723
窟	-11.8723
虱	-11.8723
嬉	-11.8723
傍	-11.8723
蜕	-11.8723
抉	-11.8723
歉	-11.8821
噪	-11.8821
糕	-11.8825
轶	-11.8826
厦	-11.891
咀	-11.893
咙	-11.893
摒	-11.893
昵	-11.893
陕	-11.893
嗡	-11.893
暇	-11.893
癖	-11.8931
氹	-11.9035
牡	-11.9035
祈	-11.9035
藓	-11.9035
狩	-11.9035
豁	-11.9035
咳	-11.9035
叮	-11.9142
羁	-11.9142
霞	-11.9142
肮	-11.9142
耽	-11.9142
醚	-11.9142
唠	-11.9142
吝	-11.9142
嘿	-11.9142
瑙	-11.9142
笋	-11.9142
媒	-11.924
毗	-11.9249
蜗	-11.9249
锈	-11.9249
颓	-11.9249
戮	-11.9249
匮	-11.9249
黯	-11.9249
枣	-11.9249
窑	-11.9249
茱	-11.9249
咕	-11.9249
馈	-11.9355
瘀	-11.9358
楔	-11.9358
→	-11.9358
吱	-11.9358
辊	-11.9358
幔	-11.9358
侃	-11.9468
莽	-11.9468
蜥	-11.9468
孜	-11.9468
侄	-11.9468
挛	-11.9468
篱	-11.9468
弈	-11.9468
獭	-11.9579
葵	-11.9579
伺	-11.9579
辰	-11.9579
纶	-11.9579
酋	-11.9579
滔	-11.9579
缆	-11.9677
蹈	-11.9691
啥	-11.9691
鹤	-11.9691
猿	-11.9692
擅	-11.9796
斤	-11.9802
铵	-11.9805
蘑	-11.9805
缮	-11.9805
哎	-11.9805
冕	-11.9805
纾	-11.9805
柚	-11.9805
磊	-11.9805
嘱	-11.9805
叭	-11.9805
骤	-11.9912
允	-11.9914
剃	-11.992
彦	-11.992
翩	-11.992
谚	-11.992
蛛	-11.992
琢	-11.992
痉	-11.992
厕	-12.0024
讳	-12.0036
钼	-12.0036
阈	-12.0036
湛	-12.0036
秆	-12.0036
辫	-12.0036
氓	-12.0036
崽	-12.0154
盹	-12.0154
猕	-12.0154
絮	-12.0154
妒	-12.0154
痫	-12.0154
舵	-12.0154
骏	-12.0154
盯	-12.026
豫	-12.0273
烛	-12.0273
孝	-12.0273
涎	-12.0273
裘	-12.0273
酥	-12.0273
鞍	-12.0273
í	-12.0273
亟	-12.0273
惶	-12.0273
沌	-12.0273
梢	-12.0393
筝	-12.0393
哗	-12.0393
凄	-12.0393
嘟	-12.0393
蔬	-12.0514
谊	-12.0514
莞	-12.0515
颞	-12.0515
唉	-12.0515
髋	-12.0515
滕	-12.0515
缎	-12.0515
鹦	-12.0515
瞪	-12.0515
描	-12.0633
励	-12.0635
潭	-12.0639
炫	-12.0639
溴	-12.0639
昭	-12.0639
坤	-12.0639
窦	-12.0639
褥	-12.0639
灸	-12.0639
朔	-12.0639
炙	-12.0639
─	-12.0639
秉	-12.0764
霾	-12.0764
婷	-12.0764
斡	-12.0764
绽	-12.0764
畔	-12.0764
粥	-12.0764
棺	-12.0764
莹	-12.0764
蜷	-12.0764
绍	-12.0879
兮	-12.089
睦	-12.089
哮	-12.089
咄	-12.089
茵	-12.089
薛	-12.089
澈	-12.089
铂	-12.089
巅	-12.089
钳	-12.089
芹	-12.0891
讪	-12.0891
旭	-12.1018
痰	-12.1018
殷	-12.1019
徵	-12.1019
狒	-12.1019
忆	-12.1143
渠	-12.1144
聪	-12.1145
仲	-12.1148
稼	-12.1148
茴	-12.1148
镯	-12.1148
啬	-12.1148
俚	-12.1149
啶	-12.1149
晤	-12.1233
肋	-12.128
玷	-12.128
茧	-12.128
斌	-12.128
槛	-12.128
躬	-12.128
栈	-12.128
睿	-12.128
辍	-12.128
喵	-12.128
$	-12.128
蔼	-12.128
陨	-12.128
睹	-12.1412
咖	-12.1413
皿	-12.1413
〕	-12.1413
桨	-12.1413
囱	-12.1413
跋	-12.1413
丐	-12.1413
蛾	-12.1413
瞻	-12.1413
鞘	-12.1413
蛮	-12.1547
诀	-12.1548
譬	-12.1548
吠	-12.1548
峙	-12.1548
乒	-12.1548
臼	-12.1548
乓	-12.1548
慨	-12.1548
荔	-12.1548
咆	-12.1548
邸	-12.1548
伎	-12.1549
侣	-12.1673
蔓	-12.1685
猖	-12.1685
〔	-12.1685
瑜	-12.1685
揣	-12.1685
唧	-12.1686
腌	-12.1686
谅	-12.1821
窜	-12.1824
俏	-12.1824
冤	-12.1824
耿	-12.1824
呐	-12.1824
拣	-12.1824
夷	-12.1824
喃	-12.1824
δ	-12.1825
炖	-12.1825
弘	-12.1965
斋	-12.1965
帧	-12.1965
跤	-12.1965
玻	-12.1965
蒲	-12.1965
歹	-12.1965
锻	-12.2108
绯	-12.2108
羚	-12.2108
驭	-12.2108
竣	-12.2108
屉	-12.2108
煞	-12.2108
睑	-12.2108
ú	-12.2108
栩	-12.2108
跖	-12.2108
荧	-12.2237
啸	-12.2248
侨	-12.2253
桅	-12.2253
卿	-12.2253
鞠	-12.2253
舔	-12.2253
趴	-12.2253
隘	-12.2253
疟	-12.2378
焰	-12.2397
咪	-12.2399
谬	-12.24
霆	-12.24
瞳	-12.24
悍	-12.24
羔	-12.24
≤	-12.24
辐	-12.2546
碍	-12.2548
锆	-12.2549
咨	-12.2549
媛	-12.2549
拧	-12.2549
俺	-12.2549
匣	-12.2549
鳍	-12.2549
腋	-12.2549
扳	-12.2549
拽	-12.2549
姊	-12.2549
阑	-12.2549
墩	-12.2701
缭	-12.2701
姗	-12.2701
疽	-12.2701
袁	-12.2701
褒	-12.2701
鹊	-12.2701
劈	-12.2701
叙	-12.2848
畸	-12.2852
腊	-12.2854
沼	-12.2854
痊	-12.2855
澜	-12.2855
蚱	-12.2855
枫	-12.2855
烙	-12.2855
魄	-12.2855
秸	-12.2855
泌	-12.3004
僚	-12.301
腓	-12.3011
戳	-12.3011
戛	-12.3011
蜴	-12.3011
拮	-12.3011
镉	-12.3011
盏	-12.3011
粤	-12.3011
尉	-12.3011
慑	-12.3011
毡	-12.3011
芥	-12.3011
妳	-12.3011
跚	-12.3011
柑	-12.3011
湍	-12.3011
丈	-12.3167
溯	-12.3169
蔚	-12.317
戊	-12.317
坍	-12.317
轩	-12.317
凰	-12.317
蹭	-12.317
酌	-12.3331
垩	-12.3331
朦	-12.3331
胧	-12.3331
蛎	-12.3331
橇	-12.3331
叽	-12.3331
釉	-12.3331
碾	-12.3331
讥	-12.3331
悄	-12.3331
菱	-12.3331
媲	-12.3331
蹒	-12.3331
哺	-12.3331
螯	-12.3331
拂	-12.3331
鲨	-12.3493
沫	-12.3494
鱿	-12.3495
@	-12.3495
瘠	-12.3495
啉	-12.3495
荚	-12.3495
宛	-12.3495
惬	-12.3495
甄	-12.3495
獗	-12.3661
羹	-12.3661
晦	-12.3661
洼	-12.3662
蚤	-12.3662
氰	-12.3662
嗨	-12.3662
淬	-12.3662
涓	-12.383
屌	-12.3831
	-12.3831
珥	-12.3831
|	-12.3831
麸	-12.3831
俨	-12.3831
熵	-12.3831
哩	-12.3831
梵	-12.3831
诋	-12.3831
暨	-12.3831
蛀	-12.3831
腈	-12.3831
漱	-12.3831
硒	-12.3831
凋	-12.4003
恙	-12.4003
苟	-12.4003
啃	-12.4003
篡	-12.4003
〉	-12.4003
砷	-12.4003
炔	-12.4004
虏	-12.4004
棠	-12.4004
磕	-12.4004
钮	-12.4177
牟	-12.4179
佬	-12.4179
邱	-12.4179
炽	-12.4179
熨	-12.4179
笆	-12.4179
陛	-12.4179
垦	-12.4179
庇	-12.4356
瘫	-12.4356
嗤	-12.4357
楣	-12.4357
廖	-12.4357
膛	-12.4357
芜	-12.4357
琥	-12.4357
骡	-12.4357
鼾	-12.4357
蜢	-12.4357
荟	-12.4357
馀	-12.4357
後	-12.4357
啪	-12.4358
嚏	-12.4358
碌	-12.4539
楷	-12.4539
曳	-12.4539
骰	-12.4539
牠	-12.4539
喔	-12.4539
萸	-12.4539
爹	-12.4539
啮	-12.454
麟	-12.4724
匕	-12.4724
漓	-12.4724
殆	-12.4724
肇	-12.4724
嬷	-12.4724
湘	-12.4724
忿	-12.4725
曙	-12.4725
纫	-12.4725
酝	-12.4725
恍	-12.4725
ε	-12.4725
吡	-12.4725
σ	-12.4725
曝	-12.4908
檐	-12.4913
颚	-12.4913
唬	-12.4913
枇	-12.4913
咧	-12.4913
岔	-12.4913
谛	-12.4913
楞	-12.4913
犁	-12.5105
憩	-12.5105
樟	-12.5105
秤	-12.5105
簸	-12.5105
撮	-12.5105
蕨	-12.5105
冀	-12.5105
焉	-12.5105
檀	-12.5106
揍	-12.5106
扒	-12.5106
苇	-12.5301
垛	-12.5301
弩	-12.5301
蓉	-12.5302
轭	-12.5302
潇	-12.5302
冉	-12.5302
荐	-12.55
摧	-12.5501
娴	-12.5501
喱	-12.5501
亵	-12.5501
捂	-12.5501
茹	-12.5501
媳	-12.5502
懊	-12.5502
涸	-12.5502
睬	-12.5502
箴	-12.5502
靖	-12.5502
迸	-12.5502
蓟	-12.5502
坞	-12.5502
蹬	-12.5502
愕	-12.5502
靓	-12.5502
鄂	-12.5502
稽	-12.5704
镑	-12.5704
膀	-12.5705
眶	-12.5705
桦	-12.5705
俑	-12.5705
鲤	-12.5705
莺	-12.5706
烬	-12.5706
竿	-12.5706
晾	-12.5706
啼	-12.5706
丫	-12.5706
淮	-12.5706
扉	-12.5706
厥	-12.5706
糜	-12.5706
骷	-12.5706
髅	-12.5706
姻	-12.59
潍	-12.5914
嘈	-12.5914
蚜	-12.5914
桁	-12.5914
氦	-12.5914
刨	-12.5914
禾	-12.5914
腭	-12.5914
鸥	-12.5914
钡	-12.5914
・	-12.5914
曦	-12.5914
}	-12.5914
渲	-12.5914
迥	-12.5914
嘻	-12.5914
\	-12.5914
萍	-12.5914
呜	-12.5914
蝎	-12.5914
襟	-12.5914
瘢	-12.5914
蘸	-12.5914
κ	-12.5914
铣	-12.6127
喹	-12.6127
钨	-12.6127
槌	-12.6127
娥	-12.6127
舅	-12.6127
蟒	-12.6127
赡	-12.6127
搓	-12.6127
敝	-12.6127
▪	-12.6127
雹	-12.6127
杓	-12.6127
娱	-12.6343
麒	-12.6343
拴	-12.6344
龈	-12.6344
颐	-12.6344
剿	-12.6344
―	-12.6344
枉	-12.6344
疱	-12.6344
惋	-12.6344
夭	-12.6344
赃	-12.6344
惭	-12.6344
舷	-12.6344
λ	-12.6345
倩	-12.6566
亢	-12.6566
癣	-12.6566
嘶	-12.6566
嗝	-12.6566
昙	-12.6566
芋	-12.6566
骄	-12.6566
蛆	-12.6566
堰	-12.6566
唆	-12.6566
搂	-12.6567
轿	-12.6788
煌	-12.6793
淌	-12.6793
斟	-12.6793
锭	-12.6793
眺	-12.6793
呱	-12.6794
薰	-12.6794
掐	-12.6794
忱	-12.6794
裨	-12.6794
胫	-12.6794
â	-12.6794
茬	-12.6794
坩	-12.6794
酐	-12.6794
袱	-12.6794
蔻	-12.6794
θ	-12.6794
匍	-12.6794
辗	-12.6794
噜	-12.6794
闽	-12.7026
琅	-12.7026
疣	-12.7026
邑	-12.7026
脲	-12.7026
沪	-12.7026
粟	-12.7026
蓿	-12.7026
赘	-12.7026
踵	-12.7026
阮	-12.7026
袒	-12.7026
{	-12.7026
晖	-12.7026
琛	-12.7026
矗	-12.7026
沧	-12.7026
箔	-12.7026
邋	-12.7264
惺	-12.7264
蛤	-12.7264
钴	-12.7264
翟	-12.7264
螂	-12.7264
婢	-12.7264
殉	-12.7264
獒	-12.7264
邵	-12.7264
卤	-12.7264
帚	-12.7264
揪	-12.7264
琵	-12.7264
眯	-12.7264
沓	-12.7264
鸠	-12.7264
幂	-12.7265
羧	-12.7265
崖	-12.7508
髂	-12.7508
淳	-12.7508
潦	-12.7508
榫	-12.7508
涕	-12.7508
龚	-12.7508
湄	-12.7508
痤	-12.7508
Δ	-12.7508
彗	-12.7508
剽	-12.7508
珈	-12.7508
庐	-12.7508
伶	-12.7508
瑰	-12.7508
渥	-12.7508
殖	-12.7591
胱	-12.7758
澎	-12.7758
鑫	-12.7758
攘	-12.7758
嗪	-12.7758
娟	-12.7758
窖	-12.7758
鬃	-12.7758
咏	-12.7758
攸	-12.7758
憋	-12.7758
桓	-12.7758
痘	-12.7758
诲	-12.7758
逮	-12.8014
钵	-12.8014
箍	-12.8014
迂	-12.8014
〈	-12.8014
炳	-12.8014
穹	-12.8015
筐	-12.8015
鳕	-12.8015
鳗	-12.8015
谙	-12.8015
琶	-12.8015
雁	-12.8015
藜	-12.8015
埚	-12.8015
屎	-12.8015
鳌	-12.8015
攫	-12.8277
粱	-12.8277
纂	-12.8277
瓿	-12.8278
镰	-12.8278
蒿	-12.8278
渎	-12.8278
铐	-12.8278
挟	-12.8278
』	-12.8278
窿	-12.8278
氩	-12.8278
掳	-12.8278
倪	-12.8278
侥	-12.8278
怂	-12.8278
忒	-12.8278
△	-12.8278
枷	-12.8278
宙	-12.8548
矾	-12.8548
扛	-12.8548
芮	-12.8548
渤	-12.8548
逍	-12.8548
饺	-12.8548
锣	-12.8548
谑	-12.8548
跷	-12.8548
萤	-12.8548
榻	-12.8548
萦	-12.8548
雳	-12.8548
膈	-12.8548
鲑	-12.8548
π	-12.8549
飙	-12.8824
汶	-12.8826
黝	-12.8826
夯	-12.8826
腑	-12.8826
跛	-12.8826
『	-12.8826
槐	-12.8826
绌	-12.8826
哆	-12.8826
砰	-12.8826
馁	-12.8826
吮	-12.8826
芸	-12.8826
芪	-12.8826
郝	-12.8826
铎	-12.8826
奕	-12.8826
砧	-12.8826
糠	-12.8826
雍	-12.8826
啄	-12.8826
潢	-12.8826
吁	-12.9111
瓢	-12.9111
愣	-12.9111
恪	-12.9111
沛	-12.9111
铰	-12.9111
缄	-12.9111
捻	-12.9111
恿	-12.9112
霹	-12.9112
暧	-12.9112
踮	-12.9112
脯	-12.9112
猥	-12.9405
蟑	-12.9405
噶	-12.9406
戟	-12.9406
蹩	-12.9406
殃	-12.9406
蛹	-12.9406
○	-12.9406
吏	-12.9406
鳖	-12.9406
ê	-12.9406
嚎	-12.9406
偎	-12.9406
瀚	-12.9406
汐	-12.9406
逞	-12.9406
铛	-12.9406
驮	-12.9406
嗦	-12.9406
曰	-12.9406
筏	-12.9406
惚	-12.9406
漉	-12.9406
骶	-12.9406
殡	-12.9708
琦	-12.9709
麋	-12.9709
驹	-12.9709
锄	-12.9709
妞	-12.9709
祛	-12.9709
遐	-12.9709
甙	-12.9709
蕊	-12.9709
屯	-12.9709
昊	-12.9709
烩	-12.9709
銆	-12.971
呤	-13.0021
镭	-13.0021
铆	-13.0021
爲	-13.0021
麝	-13.0021
胥	-13.0021
孰	-13.0021
瘸	-13.0021
阂	-13.0021
鼬	-13.0021
蟾	-13.0021
悸	-13.0021
禄	-13.0021
龛	-13.0021
娄	-13.0021
毋	-13.0021
钧	-13.0021
臆	-13.0021
缤	-13.0022
遏	-13.034
睛	-13.0341
‰	-13.0342
晰	-13.0342
戚	-13.0342
涮	-13.0343
嫦	-13.0344
荼	-13.0344
辘	-13.0344
杞	-13.0344
藕	-13.0344
歼	-13.0344
祀	-13.0344
沁	-13.0344
厮	-13.0344
喙	-13.0344
膦	-13.0344
泞	-13.0344
犊	-13.0344
鲻	-13.0344
尹	-13.0344
眷	-13.0344
粕	-13.0344
瘩	-13.0344
鹑	-13.0344
臃	-13.0344
疙	-13.0344
蜚	-13.0344
蜱	-13.0344
鸵	-13.0344
磐	-13.0344
谵	-13.0344
茉	-13.0344
翱	-13.0344
涝	-13.0677
刁	-13.0677
汕	-13.0677
醪	-13.0677
哔	-13.0677
觑	-13.0677
巍	-13.0677
憧	-13.0677
哝	-13.0677
恬	-13.0677
荪	-13.0677
炊	-13.0677
熠	-13.0677
娼	-13.0677
札	-13.0677
姥	-13.0677
榛	-13.0677
疸	-13.0677
寇	-13.0677
摹	-13.0677
璐	-13.0678
涯	-13.099
恢	-13.1018
愉	-13.102
沥	-13.102
糙	-13.1021
疝	-13.1022
踱	-13.1022
钸	-13.1022
梧	-13.1022
辄	-13.1022
岑	-13.1022
壕	-13.1022
蛰	-13.1022
嗒	-13.1022
咎	-13.1022
晏	-13.1022
翡	-13.1022
璀	-13.1022
彪	-13.1022
鹌	-13.1022
撬	-13.1022
阪	-13.1022
咋	-13.1022
扪	-13.1022
诟	-13.1022
煅	-13.1022
俐	-13.1022
泣	-13.1379
嘧	-13.1379
搀	-13.1379
斓	-13.1379
釜	-13.1379
桐	-13.1379
擒	-13.1379
鹫	-13.1379
恺	-13.1379
裴	-13.1379
汝	-13.1379
忐	-13.1379
榆	-13.1379
绉	-13.1379
胳	-13.1379
谕	-13.1379
呻	-13.1379
钎	-13.138
刍	-13.1749
渭	-13.1749
碛	-13.1749
亘	-13.1749
锏	-13.1749
遛	-13.1749
瞅	-13.1749
彷	-13.1749
χ	-13.1749
皈	-13.1749
柿	-13.1749
裳	-13.1749
猝	-13.1749
攥	-13.1749
谟	-13.1749
蓓	-13.1749
蹊	-13.1749
韭	-13.1749
俞	-13.175
侬	-13.175
梓	-13.175
苑	-13.175
∞	-13.175
谍	-13.2131
峻	-13.2133
跆	-13.2134
酩	-13.2134
槲	-13.2134
茁	-13.2134
牒	-13.2134
蕃	-13.2134
霓	-13.2134
萘	-13.2134
踉	-13.2134
孚	-13.2134
邹	-13.2134
凛	-13.2134
桉	-13.2134
枞	-13.2134
倔	-13.2134
哟	-13.2134
鲱	-13.2134
罂	-13.2134
淇	-13.2134
孪	-13.2134
锗	-13.2134
幌	-13.2134
珂	-13.2134
糯	-13.2134
腆	-13.2134
悴	-13.2134
渝	-13.2134
惘	-13.2134
瞠	-13.2134
浜	-13.2533
蜀	-13.2534
鳃	-13.2534
浣	-13.2534
咂	-13.2534
∈	-13.2534
琉	-13.2534
菩	-13.2534
蟋	-13.2534
酊	-13.2534
瘪	-13.2534
坳	-13.2534
擂	-13.2534
罔	-13.2534
葆	-13.2534
宕	-13.2534
鲈	-13.2534
兀	-13.2534
隅	-13.2534
唔	-13.2534
啧	-13.2534
雯	-13.2534
圃	-13.2534
贲	-13.2534
孀	-13.2535
璧	-13.2949
●	-13.295
髌	-13.2951
咔	-13.2951
刈	-13.2951
瘘	-13.2951
範	-13.2951
哌	-13.2951
眸	-13.2951
拎	-13.2951
啰	-13.2951
囧	-13.2951
镣	-13.2951
叼	-13.2951
哉	-13.2951
桤	-13.2951
氚	-13.2951
踞	-13.2951
蹋	-13.2951
绮	-13.2951
ω	-13.2951
脖	-13.3372
魅	-13.3378
锛	-13.3384
€	-13.3384
浙	-13.3384
缚	-13.3385
厩	-13.3385
滇	-13.3385
壑	-13.3385
霖	-13.3385
峨	-13.3385
湃	-13.3385
谧	-13.3385
摈	-13.3385
掸	-13.3385
嘀	-13.3385
鳟	-13.3385
盥	-13.3385
霄	-13.3385
蜃	-13.3386
酣	-13.3386
龋	-13.3386
蹿	-13.3386
瑶	-13.3386
寰	-13.3386
莴	-13.3386
耷	-13.384
彝	-13.384
岚	-13.384
犷	-13.384
砼	-13.384
蛊	-13.384
裆	-13.384
缰	-13.384
蹑	-13.384
拈	-13.384
柬	-13.384
榉	-13.384
槿	-13.384
阄	-13.384
嗣	-13.384
撩	-13.384
秧	-13.384
膺	-13.384
捅	-13.384
啜	-13.384
苞	-13.384
嫂	-13.384
碲	-13.384
粽	-13.384
喽	-13.384
驿	-13.384
`	-13.384
祁	-13.384
τ	-13.384
荞	-13.4316
莳	-13.4316
奚	-13.4316
萜	-13.4316
蚓	-13.4316
笺	-13.4316
镳	-13.4316
戎	-13.4316
囔	-13.4316
咚	-13.4316
漾	-13.4316
甥	-13.4316
燎	-13.4316
锑	-13.4316
菸	-13.4316
榷	-13.4316
黜	-13.4316
φ	-13.4316
炯	-13.4316
阜	-13.4316
叩	-13.4316
枸	-13.4316
氡	-13.4316
魇	-13.4316
昨	-13.4767
垄	-13.4815
巩	-13.4815
楂	-13.4816
亥	-13.4816
拗	-13.4816
庚	-13.4816
霰	-13.4816
飒	-13.4816
矣	-13.4816
痢	-13.4816
埔	-13.4816
撅	-13.4816
踊	-13.4816
鹭	-13.4816
垣	-13.4816
绢	-13.4816
肱	-13.4816
呣	-13.4816
璜	-13.4816
钚	-13.4816
涟	-13.4816
祟	-13.4816
窈	-13.4816
葩	-13.4816
禀	-13.4816
趸	-13.4816
婿	-13.4816
拄	-13.4816
绥	-13.4816
褂	-13.4817
Ω	-13.4817
讼	-13.5319
舶	-13.534
迴	-13.5342
ô	-13.5342
赣	-13.5342
匝	-13.5342
阎	-13.5342
枭	-13.5342
掰	-13.5342
甾	-13.5342
诩	-13.5342
睒	-13.5342
呛	-13.5342
啾	-13.5342
跺	-13.5342
廿	-13.5343
伫	-13.5343
瞟	-13.5343
羯	-13.5343
蚌	-13.5343
噼	-13.5343
旳	-13.5343
祠	-13.5343
峦	-13.5343
珐	-13.5343
苣	-13.5343
韶	-13.5343
恸	-13.5343
耦	-13.5891
鐨	-13.5897
畴	-13.5897
蘖	-13.5898
铉	-13.5898
∙	-13.5898
淖	-13.5898
纨	-13.5898
耙	-13.5898
蝉	-13.5898
肼	-13.5898
鲟	-13.5898
虞	-13.5898
傀	-13.5898
憨	-13.5898
榔	-13.5898
恣	-13.5898
摞	-13.5898
藩	-13.5898
颧	-13.5898
嫖	-13.5898
怅	-13.5898
螟	-13.5898
诣	-13.5898
焓	-13.5898
铮	-13.5898
鲭	-13.5898
隧	-13.6482
憾	-13.6486
浠	-13.6486
扦	-13.6486
慵	-13.6486
炕	-13.6486
嵴	-13.6486
赈	-13.6486
隋	-13.6486
妾	-13.6486
蒽	-13.6486
踹	-13.6486
苓	-13.6486
糗	-13.6486
Φ	-13.6486
嵩	-13.6486
浚	-13.6486
玮	-13.6486
讹	-13.6486
懵	-13.6486
峥	-13.6486
樊	-13.6486
‧	-13.6486
鲫	-13.6486
沱	-13.6486
罄	-13.6486
瞭	-13.6486
彤	-13.6487
顷	-13.7109
蕉	-13.7109
剁	-13.7111
哒	-13.7111
芷	-13.7111
锉	-13.7111
镐	-13.7111
閒	-13.7111
竺	-13.7111
惦	-13.7111
搐	-13.7111
砺	-13.7111
Á	-13.7111
撵	-13.7111
艮	-13.7111
襄	-13.7111
擞	-13.7111
徇	-13.7111
挎	-13.7111
诬	-13.7111
襞	-13.7111
焖	-13.7111
淼	-13.7111
η	-13.7111
^	-13.7111
獾	-13.7112
徳	-13.7112
桎	-13.7112
蔗	-13.7776
屿	-13.7776
矶	-13.7778
侮	-13.8492
璃	-13.8492
柠	-13.8493
嫉	-13.9261
蚂	-14.0095
陌	-14.0998
寐	-14.1004
汰	-14.2003
玫	-14.2004
膊	-14.2004
啤	-14.3069
讶	-14.3114
擎	-14.3114
谴	-14.3115
秩	-14.3115
猩	-14.3115
绎	-14.4364
氛	-14.7454
髦	-14.9438
侈	-14.946
妊	-14.946
惫	-15.196
婪	-15.196
础	-15.529
喋	-15.5293
稣	-15.5293
忡	-15.5293
崛	-16.0287
飓	-16.029
磋	-16.0291
圳	-16.0291
沮	-16.0291
拯	-16.0291
萄	-16.0292
捍	-16.0292
苹	-16.0292
睐	-16.0293
垃	-16.0293
浏	-16.0293
铧	-16.0293
慷	-16.0293
蜘	-16.0294
檬	-16.0294
遴	-17.0185
袤	-17.0186
惇	-17.0187
儡	-17.0188
珑	-17.0189
牦	-17.019
蚯	-17.0191
艋	-17.0192
舺	-17.0193
窕	-17.0194
纭	-17.0195
潺	-17.0196
湎	-17.0197
徜	-17.0198
徉	-17.0199
谩	-17.02
狈	-17.0201
皑	-17.0202
跄	-17.0203
蜍	-17.0204
燔	-17.0205
嘌	-17.0206
蟀	-17.0207
腼	-17.0208
羿	-17.0209
睽	-17.021
惴	-17.0211
狳	-17.0212
犰	-17.0213
憔	-17.0214
锢	-17.0215
邃	-17.0216
荨	-17.0217
璨	-17.0218
忑	-17.0219
憬	-17.022
惮	-17.0221
坷	-17.0222
奄	-17.0223
躇	-17.0224
踌	-17.0225
躏	-17.0226
蹂	-17.0227
匐	-17.0228
劾	-17.0229
屹	-17.023
祉	-17.0231
噱	-17.0232
醺	-17.0233
湮	-17.0234
岖	-17.0235
遢	-17.0236
狙	-17.0237
挝	-17.0238
佼	-17.0239
邂	-17.024
逅	-17.0241
苜	-17.0242
犸	-17.0243
葫	-17.0244
漩	-17.0245
õ	-17.0246
忏	-17.0247
诧	-17.0248
螃	-17.0249
濠	-17.025
蜿	-17.0251
蜒	-17.0252
藐	-17.0253
绚	-17.0254
卉	-17.0255
喳	-17.0256
杷	-17.0257
兢	-17.0258
̄	-17.0259
瞌	-17.026
豌	-17.0261
诙	-17.0262
篝	-17.0263
汹	-17.0264
罹	-17.0265
瞰	-17.0266
鹉	-17.0267
鹃	-17.0268
岌	-17.0269
跻	-17.027
侏	-17.0271
淆	-17.0272
拇	-17.0273
菠	-17.0274
悚	-17.0275
诽	-17.0276
榈	-17.0277
瞩	-17.0278
瑚	-17.0279
匈	-17.028
诅	-17.0281
溉	-17.0282
燊	-17.0283
蝴	-17.0284
ã	-17.0285
抨	-17.0286
ç	-17.0287
蝙	-17.0288
惕	-17.0289
懈	-17.029
饪	-17.0291
尴	-17.0292
骼	-17.0292
尬	-17.0293
肪	-17.0293
牺	-17.0294
娠	-17.0294
嗽	-17.0295
圾	-17.0295
怖	-17.0296
痪	-17.0296
